#version: 0.2 - Trained by `huggingface/tokenizers`
e r
i n
Ġ s
e s
a n
a a
o n
Ġ c
e n
a t
a r
e e
o o
e d
a l
Ġ p
Ġ b
Ġ m
in g
i s
o r
Ġ d
Ġ t
i i
i t
i c
Ġ r
l e
Ġ f
a s
Ġ h
u n
e l
Ġ g
aa aa
a c
Ġ w
u s
i l
u r
a m
e t
r o
h h
a d
Ġ l
c h
Ġ n
o l
o m
i on
er s
a b
l y
ii ii
u u
o s
Ġ e
Ġ k
r e
u t
i d
ee ee
o t
a p
a g
en t
i g
i m
u l
e c
u m
i r
oo oo
es s
e m
Ġ v
Ġ o
Ġ un
r r
a h
Ġ in
a y
Ġ j
o w
s t
i v
Ġs t
c k
o p
is t
an d
es t
aaaa aaaa
Ġc h
t h
a k
Ġs h
s s
q u
i p
f f
an t
Ġr e
t er
at ion
i z
o g
Ġ a
y y
u p
o d
Ġt h
u b
i e
i f
hh hh
i es
iiii iiii
al l
r a
Ġ y
u g
il l
u d
i b
o us
Ġs p
el l
o b
v er
ac k
t s
m m
ar d
e y
uu uu
i a
Ġc on
e p
ic k
i an
o c
en d
Ġt r
as s
at e
a v
n n
eeee eeee
as t
an g
is h
ig h
e b
l l
u ck
e g
s h
Ġe x
ab le
i k
c e
a w
ar t
u c
Ġ z
Ġb l
Ġs c
e w
Ġw h
at h
y l
e x
in e
o v
it y
en s
w w
Ġp r
Ġp ro
p l
al ly
an s
aaaaaaaa aaaaaaaa
Ġc r
un d
t r
ac h
Ġf l
o ck
Ġf r
ah ah
Ġb r
Ġ al
Ġ ar
y s
t ed
e f
o ur
Ġg r
g g
a in
Ġ le
Ġd is
Ġc om
rr rr
m an
ap p
Ġ an
oooo oooo
p h
oo d
t t
at ed
Ġc l
d er
e h
o k
as h
t ing
p er
iiiiiiii iiiiiiii
iv e
z z
on g
or t
l es
Ġs l
on s
b er
Ġ im
Ġp l
Ġ qu
in d
d d
o u
i al
k s
t ion
is m
b o
y n
i er
or s
igh t
r y
e ar
e ad
Ġ ac
at t
ss ss
e v
et t
a z
or n
Ġp h
Ġ am
b l
or d
Ġ ad
n ess
ing s
o f
et h
j j
p r
Ġs k
at ing
m ent
ic h
a f
Ġs n
an n
Ġ en
yy yy
ot h
o ut
Ġ ab
in s
it t
Ġc o
el y
us t
on e
hhhh hhhh
c l
or m
y p
is s
Ġd r
Ġs up
Ġc ar
it h
Ġp er
ug h
u k
os t
Ġm ar
eeeeeeee eeeeeeee
ol og
Ġs w
o y
Ġs ch
ol l
at s
in k
at es
o h
Ġs m
ow n
c c
an k
ee d
Ġo ver
i ous
on t
Ġp ar
Ġe m
Ġp re
i re
c r
ec t
oo k
i o
ac t
a x
Ġ x
mm mm
ol d
id e
c t
g e
i ed
er m
ic s
y m
a il
ag e
in t
ic al
p s
uuuu uuuu
oo l
ation s
ul l
Ġg l
an c
er n
Ġ as
p p
g r
Ġr ec
on d
ar y
at or
u ff
i x
Ġs ub
aaaaaaaaaaaaaaaa aaaaaaaaaaaaaaaa
it s
or k
Ġb e
or e
al s
it e
ar r
at ch
k k
Ġr es
l ed
ar k
er t
oo m
c o
er r
l ing
Ġ or
Ġt e
am m
en ce
ul t
Ġst r
ist s
un t
is e
iz ed
a ir
o x
f r
b r
f l
en c
g er
ro m
i le
s e
ee e
en n
ro w
Ġn e
l ess
c om
er e
Ġm c
a u
ion s
o le
us h
ic ally
il d
iiiiiiiiiiiiiiii iiiiiiiiiiiiiiii
o on
b e
ed d
ig n
at er
ap h
ac e
iz e
Ġ el
Ġin ter
op h
ur e
oo t
ee p
ot t
un g
Ġh e
le t
Ġs e
am p
ar m
s p
Ġd e
in n
aaaa aa
ip p
um p
u h
Ġm e
it ch
es h
Ġm is
hh h
y d
Ġd ec
um b
et s
a j
us s
w h
le y
g h
Ġ ant
a i
i est
Ġ ap
o und
Ġo ut
ar e
Ġ ass
u al
Ġm on
v e
an ce
f ul
ian s
Ġf or
ee t
Ġcom p
Ġ ag
oo p
u e
g l
Ġt w
ar s
Ġm an
b ur
ad d
Ġd es
Ġin t
nn nn
un k
Ġg u
os s
Ġk n
Ġ app
i ff
i el
er y
in ess
i um
t on
v ers
Ġp ol
y r
jj jj
f t
Ġb ar
ent s
b y
Ġ up
al k
ahah ahah
ec k
i h
ay s
ww ww
f uck
er ed
el s
Ġre p
Ġun der
is ed
Ġw e
Ġs qu
Ġm in
st r
l er
b s
l and
ic e
il le
Ġe v
il y
n e
oooo oo
Ġa ut
Ġc ol
Ġd ef
et r
ll ll
or r
in es
Ġin c
t e
ad e
ug g
Ġin d
h e
Ġsup er
at r
ur r
m e
um m
ant s
un n
Ġr ed
al e
ig g
x x
ro p
en g
t y
d s
am e
Ġtr ans
es c
Ġb re
id d
ir l
an e
o ff
as ter
y b
y c
om e
Ġd em
p ec
ag g
s c
in a
rrrr rrrr
er v
ee l
Ġb o
Ġo p
op p
er b
Ġin s
ak e
in c
Ġd ep
Ġim p
ing ly
a ur
d r
s k
o ad
Ġh y
Ġ ir
f or
Ġ u
ut t
c on
a ff
oo r
ip s
id s
Ġ at
Ġ er
rr r
im e
a us
Ġm al
Ġ q
Ġf uck
iz z
eeeeeeeeeeeeeeee eeeeeeeeeeeeeeee
Ġb ur
Ġh om
Ġsc r
o ul
y t
Ġd i
ic t
iz ing
ard s
o ugh
m s
oooooooo oooooooo
r on
er ing
Ġb ro
Ġs ur
u ch
ar n
Ġr em
Ġcon t
Ġp e
er g
ar g
Ġb ack
il ity
Ġin f
b le
Ġ all
m en
Ġ i
en e
qu e
Ġ on
an a
Ġn on
ot s
ib le
Ġc or
Ġun d
as e
aa a
Ġm et
im m
Ġcom m
b all
ra v
Ġs al
b b
Ġm ic
it ion
Ġg re
if ic
or y
Ġc al
Ġr el
Ġp s
Ġc ro
er d
Ġr et
Ġ ent
un c
u it
Ġcon s
ab ly
Ġ is
k e
Ġo b
a e
ud d
oo f
Ġd el
un ch
os h
ee z
Ġh and
Ġac c
o ch
y ing
e es
l d
Ġg en
Ġc ap
aaaaaaaaaaaaaaaaaaaaaaaaaaaaaaaa aaaaaaaaaaaaaaaaaaaaaaaaaaaaaaaa
o e
Ġ id
Ġc at
p os
g u
w e
ic a
l in
m a
it ies
ow er
Ġe le
on n
i us
y st
am b
dd dd
ssss ssss
og r
in o
Ġm ag
en ess
at ive
Ġg ro
am s
Ġt ur
i ent
ee k
i j
w or
Ġb el
Ġm or
n s
it es
h ead
p ro
ul ar
i os
er c
Ġ ed
em ent
Ġk r
eeee e
oo s
iiiiiiiiiiiiiiiiiiiiiiiiiiiiiiii iiiiiiiiiiiiiiiiiiiiiiiiiiiiiiii
is ing
ro s
ep t
o ver
i y
w r
Ġ ur
iz ation
ap s
Ġb ab
Ġw r
Ġa v
olog y
Ġ us
Ġs om
al d
Ġun s
ra in
Ġd o
on es
Ġun ex
pec ted
it z
Ġm il
iv ely
hhhhhhhh hhhhhhhh
p t
Ġm ac
re ad
gg gg
av e
ik e
Ġ es
ack s
p e
Ġ om
Ġre f
k a
Ġm ed
ett e
y th
Ġh um
i as
op s
Ġg e
ut h
u x
ist ic
ous e
Ġh ar
Ġin v
i en
ff ff
tt tt
Ġm o
Ġn ot
Ġim m
re am
ut s
Ġth e
at ic
Ġm eg
eeee ee
Ġa w
ou ch
Ġs im
or a
Ġ aa
er k
le g
et er
mmmm mmmm
uc t
edd it
i end
Ġe p
Ġin st
oo g
Ġp ur
iv es
z e
om b
y g
y ch
Ġp al
n t
og g
oo o
ra w
ers on
tion s
or g
oth er
en ed
st er
a it
ab b
ar a
Ġg h
Ġex p
Ġd ev
igh ts
Ġ att
yy y
ick s
ar i
o id
Ġm us
uuuuuuuu uuuuuuuu
on k
pr ess
Ġo ff
Ġc ur
al y
Ġh ead
ir d
Ġunex pected
in i
as c
ud e
Ġsh it
if e
Ġc le
Ġb u
Ġt re
Ġre g
Ġcon f
Ġm ult
jjjj jjjj
el f
Ġun c
Ġn ew
Ġex c
iiii ii
Ġk h
k n
at ur
ir c
is c
zz zz
l a
o in
am a
Ġ it
ak er
Ġs ex
Ġre v
as k
ers t
ap t
u v
Ġf ac
es e
at ors
iel d
a hh
a ul
u f
Ġ end
w ay
Ġt im
Ġh al
Ġe ver
Ġh yp
un s
ut ter
ow s
nn n
Ġ ang
ut e
w ork
y a
en ing
bo x
Ġbl ack
o es
Ġr h
ro ll
ep h
at a
ment s
um s
n a
ss s
Ġle g
ag es
ogr aph
o z
Ġb i
Ġr ad
ol es
Ġs il
ac c
Ġc am
Ġch r
ub er
k y
Ġf re
ol f
Ġs er
Ġd ist
Ġ ah
out h
Ġc an
en ch
th e
iz es
k in
ab ility
ir t
Ġa f
Ġg od
est r
i qu
Ġh el
Ġc re
it er
le x
ous ly
b ar
as p
Ġg am
ab l
ag on
Ġan n
l s
Ġd ick
Ġl a
ad s
os e
it is
om an
ent ly
hhhh h
uc c
Ġhy per
v ille
Ġs ol
ad a
ot e
ub b
Ġ ic
Ġd eb
sh ip
and s
Ġcon c
i w
aaaa a
ob b
d e
k i
Ġd et
ak ing
Ġmic ro
i et
Ġd own
ar es
ee m
Ġb al
et ic
a ut
er o
Ġa ir
e in
Ġs yn
om m
Ġv al
ey s
a o
n g
is es
oo b
Ġm el
Ġg ar
f s
Ġw ar
Ġp art
Ġm od
Ġsp l
Ġ and
Ġs ec
Ġc ock
it ter
Ġh em
el ess
n er
w ood
Ġf ur
Ġun f
Ġch ar
r ic
v v
od e
o j
Ġm em
Ġh ol
ex t
Ġdis s
if ied
e le
id er
ation al
v es
al an
Ġp an
ing er
r ess
Ġ os
up p
if t
if y
Ġex t
Ġ art
Ġp o
Ġm ot
at ter
Ġm ur
Ġth r
Ġdis c
Ġpl ay
Ġe ar
Ġo vers
u z
Ġd en
ak es
ber g
Ġ ol
an o
it a
ur es
Ġp en
ious ly
u es
Ġw or
em p
op e
t o
an y
ar c
Ġb en
Ġm id
am in
ro g
im p
Ġs o
Ġf e
om y
Ġpr es
our s
bo y
Ġd iv
Ġe y
Ġo h
on ic
Ġm ad
it ing
Ġh ell
un ter
Ġv er
r ed
Ġt o
Ġh ard
Ġl o
om p
uu u
ag n
it ed
Ġ oo
Ġp ers
Ġr ob
Ġt ra
a is
a id
Ġv ol
Ġ ak
Ġm y
it o
el d
ap e
ell a
Ġf ir
a zz
Ġs and
ur s
ain t
h er
in al
id es
all s
ath er
Ġst ar
i or
n d
Ġch e
f orm
f ace
Ġp ot
Ġm ay
Ġt ro
Ġh on
ad o
Ġn or
Ġex pl
l ine
r es
Ġw ater
od y
Ġgr and
l ock
Ġh er
et e
en a
el t
ag r
ie v
ill a
Ġw ork
il s
ch e
c s
Ġ ast
al a
Ġh yd
Ġy e
l ic
m on
p o
Ġp os
Ġm ill
Ġk l
Ġk ar
i ac
Ġp op
or ed
ag in
yyyy yyyy
k ing
Ġl ov
Ġs em
Ġh ot
et ch
Ġsp r
ain s
b ack
i ally
Ġ ay
an an
at o
Ġd ead
re c
ra ft
Ġb ad
Ġl ab
Ġl ong
iv er
olog ist
oo th
oooo o
al es
Ġd og
as m
am es
Ġcon d
end er
b a
b re
Ġ est
al t
Ġb ig
ud am
i ro
n ot
ers h
Ġc op
Ġc oll
Ġps ych
d ay
p ar
Ġs oc
Ġt err
ad es
bo ard
Ġem b
eeeeeeeeeeeeeeeeeeeeeeeeeeeeeeee eeeeeeeeeeeeeeeeeeeeeeeeeeeeeeee
l oad
Ġ ut
Ġ ul
in ter
it al
us e
Ġl ib
mm m
bur g
an i
Ġp le
el le
ac y
ion al
od od
Ġsp ec
s on
er ic
Ġb on
Ġr est
Ġn ec
os is
f ield
ar ian
ant ly
Ġne ur
l i
Ġd on
ro d
pl ay
m in
n et
r i
Ġs u
en er
Ġp ap
Ġr o
Ġg ood
up s
Ġte le
ur ed
Ġab s
h a
Ġf ire
v ent
Ġb ut
Ġg al
Ġre al
ie w
Ġac t
udam udam
Ġs am
Ġf il
re g
Ġj e
e ak
er a
Ġb as
ab les
ag s
Ġun p
est er
uuuu uu
u ally
v al
Ġb ull
kk kk
e at
y w
Ġb ra
Ġt or
Ġh igh
Ġg o
Ġe qu
and er
alan yl
y h
ro ph
ast ic
Ġar ch
f ish
Ġc y
ord s
enc y
a ugh
ip t
Ġte ch
Ġc ent
at ely
Ġb ul
Ġr ock
ud g
Ġph ot
oo ks
Ġp ed
Ġf in
ur b
re w
ell ing
y e
Ġp at
Ġp et
Ġp ort
Ġp ost
Ġpre c
m o
r en
r oom
on y
Ġw ind
ur n
id ent
ah a
Ġa qu
l or
m em
u j
Ġ ill
Ġc um
ag er
uc yl
i ers
m ar
w ar
w ith
ii i
Ġn eg
Ġk e
iiiiiiiiiiiiiiiiiiiiiiiiiiiiiiiiiiiiiiiiiiiiiiiiiiiiiiiiiiiiiiii iiiiiiiiiiiiiiiiiiiiiiiiiiiiiiiiiiiiiiiiiiiiiiiiiiiiiiiiiiiiiiii
ic ul
Ġh a
Ġy o
ill s
sh it
ok e
com p
aaaaaaaaaaaaaaaaaaaaaaaaaaaaaaaaaaaaaaaaaaaaaaaaaaaaaaaaaaaaaaaa aaaaaaaaaaaaaaaaaaaaaaaaaaaaaaaaaaaaaaaaaaaaaaaaaaaaaaaaaaaaaaaa
is on
ur g
Ġj ust
aw n
uber uber
p or
Ġ aaaa
Ġb ir
Ġb att
is k
ec tion
oc r
u y
Ġb all
Ġin n
i ar
z a
in der
Ġm iss
is ation
Ġl if
im s
Ġpro t
k o
u le
Ġc irc
ro t
ie g
anc es
w ard
Ġs at
Ġs av
Ġb at
Ġd ar
ell s
ear s
Ġen c
Ġres p
er man
Ġp in
ag ed
ll l
t a
i ence
u el
Ġ et
Ġc orn
Ġp ow
Ġd er
Ġr os
le c
Ġun t
ob s
ang er
Ġsn ow
f e
i ec
Ġh ous
Ġo k
Ġre b
ob ia
i ot
aa r
Ġp ass
Ġm at
Ġd ay
Ġf ro
ul s
Ġcon v
eg g
ific ation
i ate
Ġb or
Ġm ind
Ġe ff
th er
Ġar m
gg g
Ġph il
an ch
us es
Ġbl ood
Ġs a
Ġs us
Ġd ig
Ġf ar
ro c
out s
Ġas k
h am
Ġs id
Ġt om
un e
ang e
m ed
Ġs ym
ar p
Ġb oo
is ion
Ġd om
Ġt er
it r
ist er
ak s
of t
c a
al ity
Ġp ay
ur t
Ġj ack
od d
Ġor g
g irl
Ġ ing
Ġ esc
in f
es p
Ġb us
Ġw ood
ut ion
Ġst e
ip h
Ġa ff
ww w
ful ly
Ġcro ss
aa h
Ġm er
Ġm cc
Ġw eb
ol a
ig r
im ent
iv ers
Ġcon tr
oul d
b or
t f
u ed
il es
Ġun b
ib r
ock s
Ġt s
os c
em an
ak ed
ial s
enc es
r s
Ġr en
il ly
Ġsh r
if ying
Ġwh it
Ġpro f
eh eh
wor ld
ee f
Ġb er
Ġd am
ig e
ra f
oc al
eg r
cc cc
o ud
Ġc as
Ġb utt
ol ol
Ġa ud
Ġle v
l ers
y f
Ġs un
Ġpro p
Ġen g
g o
u a
u zz
ad ad
Ġo d
og en
s l
Ġs on
Ġb w
Ġh ow
rrrrrrrr rrrrrrrr
Ġchr ist
at i
Ġm a
Ġm ol
or es
ro l
ant e
Ġa z
ill ion
ov e
Ġs an
is p
Ġn ut
ag h
ul a
yyyy y
le b
Ġo cc
our n
rrrr r
Ġad d
ahahahah ahahahah
d own
Ġ ash
Ġp or
Ġp ok
Ġb ed
Ġb ec
Ġm en
Ġl ad
ir r
ib b
uck s
Ġwh at
Ġpr ed
er al
Ġd oc
Ġt ot
Ġh o
Ġn ight
re m
im es
Ġth er
jjjjjjjj jjjjjjjj
Ġ ee
on ed
Ġc all
ly s
on a
Ġn o
hhhh hh
yp t
c at
s ch
Ġd ur
Ġd iff
le m
Ġf orm
us tr
et y
im a
f w
i ation
n ow
Ġm ut
or ph
el ing
Ġg old
id g
Ġo x
ish ed
fuck ing
j a
l ight
Ġc a
Ġf am
um ber
Ġsh itt
iz er
d a
l o
m y
Ġ ach
Ġm ax
Ġd a
le ts
Ġl and
om en
ak a
Ġex tr
yl alanyl
ator y
d en
w ell
z y
it ting
am ent
om s
id ge
eeee eee
end ing
Ġar r
v ed
Ġ il
ar ies
it or
ic es
Ġw at
ver t
in ed
Ġc ut
ar ch
Ġr am
Ġf em
Ġv eg
ak ers
end s
gl ut
Ġt a
Ġk ey
op le
est h
ora ora
p ed
it ic
el ly
Ġg n
ch es
Ġk ill
g n
k er
l ay
r al
en st
Ġb ol
Ġr and
Ġw a
ab il
iv eness
h ol
n o
s m
in ation
Ġs or
Ġc os
Ġp ower
Ġb an
Ġf a
re en
Ġo w
ub e
ub s
ens e
h ouse
Ġb od
Ġb eh
el ed
Ġn y
um bl
th y
end ed
und er
f er
i ol
i ated
j e
k t
s w
Ġc ann
is er
Ġr om
Ġr ot
Ġe c
Ġbl u
row n
Ġde ath
c es
c ar
p ir
Ġp ep
Ġm ast
le ct
Ġh am
ak i
pp pp
com m
u w
v en
in er
ed ly
Ġm ass
Ġr a
Ġf ish
Ġh air
il ing
ab s
up t
g s
Ġ ot
Ġ ug
Ġ eth
Ġc ow
al m
ch er
Ġv is
Ġj oh
aw k
Ġam b
Ġsub s
oooooooooooooooo oooooooooooooooo
j ect
w alk
in h
Ġc and
Ġb and
Ġd ark
Ġf o
Ġf oot
Ġw est
Ġo pp
Ġd u
Ġsh ow
ell ed
an z
on ew
Ġm ak
ur a
Ġe g
Ġpro c
Ġco unter
cr ib
fr iend
b ag
m aster
p ath
in os
Ġc od
Ġb et
Ġm oon
or ts
ic c
ac tion
Ġe gg
ug s
ex ual
ber ry
ssssssss ssssssss
e en
Ġs umm
Ġm eth
Ġm ont
or ing
Ġh oo
Ġh av
Ġsp ac
uck ing
Ġele ct
p a
Ġs ab
Ġb ook
Ġm as
Ġm ir
Ġt ar
am ing
ul ate
Ġst ep
Ġfr ee
gr ess
l ad
Ġ um
Ġp un
Ġb arr
om a
est s
aaaaaaaa aa
th s
th ing
og n
Ġcon st
pl ic
ef ul
Ġc ats
Ġm and
Ġr at
Ġh app
Ġl ow
Ġo bs
ay a
op l
op ath
ant ic
Ġre h
og s
hhhh hhh
ill ed
ail s
Ġhe art
ball s
f ord
i q
i at
l ly
on der
Ġc ab
Ġc ast
Ġp orn
Ġm r
Ġm ach
or b
Ġf un
Ġh ab
ag ing
ul ated
iv ing
ip e
ell o
k en
m er
m iss
n ey
p ort
s er
Ġs ign
Ġt est
il ed
ur ing
et ed
Ġn os
Ġk al
ent h
Ġa er
aus e
g ar
h ole
an ks
ed s
Ġp oo
Ġp ick
Ġp ast
or p
Ġt en
le v
Ġh or
Ġh all
Ġw ith
ur d
ro b
Ġl at
Ġl og
ig er
im b
Ġin tr
app ed
tt t
sk i
n y
on on
Ġc ard
Ġt em
Ġg ay
ad r
ad ing
Ġn ic
ul ation
em ents
aw s
Ġdis p
Ġfor g
b on
ar ts
Ġr ac
as es
as ed
ly c
Ġe ur
Ġk il
ot ic
Ġst ra
ie f
ew s
yn ess
wwww wwww
aur us
i am
w are
Ġ ib
in it
Ġt al
Ġt it
Ġt am
Ġf an
Ġg irl
et ing
Ġe h
Ġo c
qu ares
ug e
uc tion
Ġpro m
aaaaaa a
Ġs ens
Ġm ist
ing ton
Ġo ct
if er
ack ing
ep tion
ass es
Ġpro b
ett es
a ud
i u
k h
in y
oo sh
Ġh ay
ac ter
il t
ch ed
ch ing
ow ed
Ġst at
av es
b ook
l ike
t im
in ing
in ate
Ġp ub
Ġm m
Ġr eddit
Ġh u
Ġw all
Ġl uc
ir es
olog ists
b t
j s
in st
Ġp oop
Ġb ee
Ġm ich
le tt
Ġg w
us ed
Ġn ar
um ent
ik a
Ġad v
olog ical
gu y
Ġdo ub
hhhhhhhhhhhhhhhh hhhhhhhhhhhhhhhh
e a
h ood
v s
w ays
y o
Ġb ell
Ġd w
Ġd im
Ġr oll
Ġg all
us ter
il ia
ol o
ess es
Ġo bl
Ġun m
Ġth em
quares quares
c an
e z
v a
Ġs ing
Ġs ound
al ing
Ġb h
Ġb ay
Ġm ath
re at
um an
Ġpr im
Ġan im
Ġen v
f ull
y ou
Ġb ow
Ġf at
ac es
Ġj o
est ed
Ġper c
r eddit
Ġs ucc
Ġb le
Ġb oy
am an
am ed
Ġv en
Ġin fl
Ġsp eed
aw ay
c ast
g ed
Ġ oooo
Ġc art
or ies
Ġd est
ic o
le ucyl
Ġg ang
am i
ad ed
ul d
Ġun h
anc y
Ġmc d
uuuuuuuuuuuuuuuu uuuuuuuuuuuuuuuu
b ow
g en
Ġs ad
Ġp y
Ġb it
Ġm om
it ions
Ġr oad
Ġw ill
Ġw atch
ro ck
ro und
Ġl aw
and o
if s
ra z
uck er
b d
w ash
Ġs ar
al ed
Ġp atr
Ġm aster
Ġt op
Ġr ap
Ġg or
Ġg un
ol ic
ab y
im g
Ġv ir
Ġsh ad
ann a
amm er
mmmmmmmm mmmmmmmm
Ġtech n
e an
n ing
p le
p orn
Ġs ac
Ġc av
Ġt ak
Ġr ee
as on
Ġl im
ess ed
iv ed
oooooooo oo
pr es
j o
k ins
r et
Ġ ath
Ġs af
Ġc orr
Ġm ah
Ġm ort
Ġd h
Ġf er
Ġf ut
Ġf ant
Ġf av
ad er
ag o
ir ed
ow ing
ack ed
ish ing
Ġsc ar
i que
j d
m at
w er
Ġs ep
an es
al c
Ġp ut
Ġp oss
ic ed
un a
Ġw ee
Ġw oo
Ġw il
us ion
Ġl l
em ber
Ġun l
Ġch ild
Ġch ees
Ġsh e
i ant
o ing
p ot
it ive
Ġg rav
Ġn an
ag u
ib ly
ib ility
Ġdem on
Ġir r
Ġgre en
f rom
on o
Ġc our
ar ing
Ġm os
ac ed
ur al
ro ss
Ġl ight
ut es
ent ial
Ġcl ass
c y
g es
m ans
r ies
w as
Ġ aaaaaaaa
Ġp a
Ġm oth
Ġd an
ec ted
ess ion
Ġa x
eb o
ov ers
Ġpro v
ach e
ssss s
Ġsch ool
r ight
t w
al th
Ġb ob
Ġm ess
it ar
Ġr ain
Ġw ay
ut ed
Ġv ac
st ers
ip per
ick er
Ġpr iv
rrrr rr
ett a
f est
k ed
t own
Ġp ant
Ġd id
Ġf el
un ts
am er
Ġl ik
ag a
f a
j u
m ark
n es
r as
Ġs en
Ġc ool
Ġm oo
Ġd ream
Ġt emp
Ġg a
id ed
op ol
th at
ish es
sh ot
Ġex per
pl es
Ġal t
Ġar g
ett i
land s
a ine
i ating
n ed
u ous
y ph
oo ts
Ġb eg
Ġb itch
Ġm u
ic an
Ġf ort
Ġh it
Ġh ors
et z
Ġl iv
ap er
Ġch ick
Ġth ro
Ġcom b
ism s
Ġme ch
oooooo o
xx xx
c ool
i em
w atch
in ks
Ġs s
ar ed
Ġm ent
Ġd ys
Ġt yp
Ġr ub
Ġh ur
id ing
ig s
ay ing
and a
est ing
ip l
ter n
ang el
Ġsl eep
Ġsch l
b ot
c ed
Ġ old
an ia
Ġm am
it ation
ic le
Ġh os
um er
ah s
Ġsh ort
if ies
ill ing
aw a
Ġpro s
Ġfr iend
ind s
itt y
oph obia
f ire
h and
v iew
w a
x d
Ġ if
Ġ ans
ar o
Ġb uck
Ġd ouch
as ts
Ġg er
ac ts
Ġw al
Ġk am
ough t
Ġdist r
b ro
g a
h o
in ated
Ġs in
Ġc oc
Ġb ot
Ġm es
Ġd at
ic tion
Ġr av
Ġh ist
Ġl am
Ġn ov
ag en
Ġv e
Ġun re
Ġre fr
ahah a
wor th
head s
onew ild
f ort
g y
j ob
k ey
l t
l ings
Ġc er
Ġb es
Ġm other
Ġh orn
us c
Ġk at
id a
em on
Ġo v
iv ity
od s
ack er
Ġan th
Ġear th
k d
Ġc amp
al i
Ġm ud
Ġm aj
Ġr un
Ġl ob
re on
um ps
ill er
eb r
Ġan al
b i
b and
c tr
d y
w ater
al ism
Ġb a
Ġt ub
it ted
Ġr edd
Ġh ee
et ting
Ġl as
Ġk id
ah r
Ġin h
Ġj u
th es
dd d
Ġmag n
l ist
l ife
t ime
z o
Ġ ub
Ġ ign
Ġs ed
Ġs uff
Ġc ant
al ist
Ġp il
Ġb y
Ġm ov
Ġd umb
it i
un ic
Ġg ir
Ġl ay
ag an
op ed
ick ing
Ġpr et
Ġfr ank
itt le
ious ness
dddd dddd
k r
v ing
Ġs ug
en o
ee ts
Ġp enn
ing ers
Ġd or
Ġd il
Ġt on
ch ild
ap ed
st ar
Ġst and
all ed
Ġex h
ach es
ain ed
app ing
Ġsm art
ool s
Ġbar b
Ġbre ak
ffff ffff
d om
e k
s a
Ġ ess
Ġb ac
Ġb ear
Ġb oot
Ġd ir
Ġd ish
as y
Ġg ig
ro id
Ġn a
id o
Ġv ent
Ġth at
ian a
end ers
Ġcom pl
man n
nnnn nnnn
j i
m ore
p ic
z er
Ġs el
Ġs ul
Ġc oo
at in
Ġp ent
Ġt ob
as ing
Ġl it
Ġl ang
Ġl ock
Ġn at
ab a
ah n
Ġsh ar
Ġre ad
od es
uuuu u
ahah ah
Ġph ys
eeeeeeeeeeeeeeeeeeeeeeeeeeeeeeeeeeeeeeeeeeeeeeeeeeeeeeeeeeeeeeee eeeeeeeeeeeeeeeeeeeeeeeeeeeeeeeeeeeeeeeeeeeeeeeeeeeeeeeeeeeeeeee
c er
j ack
m et
on i
Ġc u
en ly
Ġp ee
Ġd eg
Ġr ich
Ġf f
Ġh erm
Ġl ar
ch en
Ġn ob
Ġn orm
re y
ir m
em e
Ġv an
iv al
Ġfl at
ipp ed
udamudam udamudam
uberuber uberuber
b orn
c ent
d id
i able
l an
m os
o a
t or
in th
en h
Ġp ul
Ġp oll
Ġp erson
Ġb utter
Ġr y
Ġg ot
Ġw er
Ġl az
Ġn et
Ġk ur
ot es
ig ger
em s
st one
ip ed
ud es
Ġcon n
ast y
ik es
ber t
Ġhon ey
mem es
l am
Ġ iv
in ator
Ġp ac
Ġb uff
Ġm art
Ġr id
Ġh op
el a
Ġg ent
Ġw alk
Ġl av
ch ar
Ġn s
Ġn av
ab r
os ed
ent ed
ir a
ir s
qu est
Ġth ey
Ġy ee
ell er
ick y
ang ed
igh ting
yl glut
Ġqu e
yyyy yy
Ġper f
iiiiiiiiiiiiiiiiiiiiiiiiiiiiiiiiiiiiiiiiiiiiiiiiiiiiiiiiiiiiiiiiiiiiiiiiiiiiiiiiiiiiiiiiiiiiiiiiiiiiiiiiiiiiiiiiiiiiiiiiiiiiiiii iiiiiiiiiiiiiiiiiiiiiiiiiiiiiiiiiiiiiiiiiiiiiiiiiiiiiiiiiiiiiiiiiiiiiiiiiiiiiiiiiiiiiiiiiiiiiiiiiiiiiiiiiiiiiiiiiiiiiiiiiiiiiiii
i enc
p ing
Ġ eeee
an th
on ia
Ġc ub
Ġc ov
at ers
Ġb ag
Ġm erc
Ġd d
Ġf ull
Ġh ob
Ġh oll
ac ted
Ġl oc
Ġv o
Ġo f
ik i
co ver
d i
on er
on ing
al al
Ġp el
Ġb est
Ġf ly
Ġf und
Ġf air
ur y
Ġl oo
Ġl ol
ion ed
re ct
ot o
Ġv ar
Ġj am
ist r
ell i
ash i
Ġdr agon
unc tion
Ġcap t
Ġul tr
c d
y le
z en
Ġs le
Ġs ay
es y
Ġp uss
Ġb il
Ġb ef
Ġt el
Ġt ol
Ġh ipp
Ġh orr
un ting
ab e
Ġk w
ig an
Ġj ap
Ġsh in
ib er
Ġbl ow
ok es
Ġpl an
bo ards
ink ing
ipp ing
Ġbre ath
Ġund erst
Ġaf ter
b ol
c al
g ing
l ines
m n
r d
u er
Ġ ip
Ġ ide
Ġs eg
Ġs erv
Ġs oft
Ġc ath
ee per
Ġb rain
it u
Ġw as
ch a
ch i
Ġn ick
om es
Ġk er
st and
all ing
oooooooo oooo
Ġqu ar
Ġsup ers
Ġsch w
Ġkn ow
b ut
d og
p y
t en
u its
Ġc ost
Ġb ath
Ġt ow
Ġf et
Ġh arr
ad or
Ġn am
Ġe ch
um e
ay ed
th reon
Ġsh am
bl ed
Ġco unt
Ġmar k
co unt
au x
ound s
Ġaut h
Ġbre ad
iec e
l u
p ut
Ġc ul
Ġc ass
Ġp ir
Ġm idd
or i
Ġd j
Ġd ol
Ġd od
Ġt y
Ġw in
il a
re h
Ġst up
Ġch eck
ick ed
ast ed
act ic
row s
less ly
sk y
ograph y
b h
b el
c ats
Ġ err
Ġs ent
Ġs elf
es is
on ym
al ized
Ġb ill
Ġd un
Ġh ang
ch y
Ġn in
Ġn om
Ġk en
ec r
Ġv el
Ġst or
ous es
Ġal ex
ong s
ann e
Ġper m
Ġpre m
act or
Ġme at
apt apt
Ġnor th
Ġsoc ial
h at
l ee
n ame
w ord
Ġ ig
Ġ aaaaaa
Ġs y
Ġc el
Ġc iv
Ġc ele
Ġm ust
Ġd av
ic les
Ġr ay
Ġv ers
Ġv ap
Ġv ul
Ġv ill
Ġsh o
ell ow
ob ic
ate g
ov a
Ġcr eep
Ġle t
ugh t
eed s
Ġx x
umb le
gh t
ful ness
llll llll
Ġsur v
odod odod
b c
b an
b acks
m us
v in
w ear
Ġs v
ed it
Ġb ug
Ġt ax
Ġf ig
Ġf ood
Ġw ild
re p
ag ger
ec ts
Ġv ict
Ġun r
Ġj ew
Ġst ick
Ġst orm
Ġth erm
art ed
Ġpr inc
ssss ss
yp e
ical s
Ġgl ob
Ġrec on
ond s
bur y
Ġhum an
g w
Ġ uu
Ġ ih
in ating
Ġc ust
Ġp p
Ġp ad
Ġp ill
Ġb ast
Ġm ul
Ġd uck
Ġt yr
Ġf all
Ġh an
Ġh az
Ġl u
Ġl iqu
Ġk ick
ul ating
Ġun st
Ġst ud
Ġch oc
Ġre pl
og h
if ul
Ġtr ip
igh ted
Ġwh oles
Ġfl ash
eh e
add y
eel s
aaaaaaaaaaaaaaaaaaaaaaaaaaaaaaaaaaaaaaaaaaaaaaaaaaaaaaaaaaaaaaaaaaaaaaaaaaaaaaaaaaaaaaaaaaaaaaaaaaaaaaaaaaaaaaaaaaaaaaaaaaaaaaaa aaaaaaaaaaaaaaaaaaaaaaaaaaaaaaaaaaaaaaaaaaaaaaaaaaaaaaaaaaaaaaaaaaaaaaaaaaaaaaaaaaaaaaaaaaaaaaaaaaaaaaaaaaaaaaaaaaaaaaaaaaaaaaaa
Ġrand om
d o
l ich
m r
z h
Ġs uck
Ġc e
al g
Ġb is
Ġm ang
or c
Ġd oor
Ġr oo
le an
Ġw ash
am ine
Ġk a
Ġk ing
um a
Ġj a
Ġtr ad
igh ter
ain ing
ead s
Ġem p
Ġcol on
Ġom n
c ut
d ing
e ur
g t
m ate
o i
o is
p et
Ġs ob
aa ay
Ġc ad
oo z
al o
Ġp iss
Ġr ick
Ġg ob
ac s
Ġl y
Ġk ir
re ck
Ġv ide
ah l
Ġy ou
ud s
ib l
Ġcr ack
Ġac qu
orm s
Ġmc g
Ġapp ro
Ġaut om
Ġhyd ro
e ver
i od
j ust
m p
r ad
r ag
w o
w s
y our
Ġ ii
aa l
ar ily
Ġm s
is f
Ġd ry
Ġd eep
Ġt ap
Ġt ort
it ude
Ġw el
Ġl ac
Ġl ip
Ġk or
Ġst ock
iz ers
Ġgr ad
eth ing
ax x
anc ed
po int
jjjjjjjjjjjjjjjj jjjjjjjjjjjjjjjj
c i
d f
e ch
l aw
l ov
m as
u in
Ġ ack
Ġs r
ed er
Ġp t
Ġp ush
Ġb ott
Ġt alk
Ġr ip
Ġh h
il i
et a
Ġl ap
Ġn ow
Ġun con
ip es
Ġtr an
ik o
Ġfl av
Ġim per
bl ing
eth er
itt ers
eez e
Ġes p
zzzz zzzz
a im
b ad
e al
m aker
o at
u ing
u ce
w in
Ġs od
on om
en k
at ively
ee th
Ġp ath
Ġd ed
Ġd re
Ġd ub
Ġd eh
Ġt ab
Ġr ig
as a
el er
Ġw w
us ing
ol i
ly l
Ġk y
Ġj ay
op en
Ġth und
ie ve
ib e
ep l
Ġbr it
ood le
Ġcl ar
Ġam eric
ire ct
Ġne igh
wh at
nnnn n
Ġele ctr
d h
g lyc
j f
Ġ uh
Ġs outh
an ic
Ġc unt
Ġp ig
Ġb ub
Ġb ang
Ġb ern
is ole
Ġd in
Ġt ut
Ġt ick
Ġf al
Ġw ak
os ph
em b
Ġv iv
ow ers
op es
Ġch ill
Ġy our
ast ers
Ġpro d
Ġcr ypt
ach er
ash ed
Ġqu adr
ann ed
b f
b ear
m t
u i
w ich
Ġ ost
Ġc ob
Ġc ult
Ġc urr
ed r
Ġp se
Ġb ah
Ġd ing
Ġt rav
Ġf w
el ine
Ġw aaaa
Ġw onder
ro us
Ġl in
Ġn eed
os a
ot a
ess ing
ist an
Ġch a
ep s
rrrr rrr
ph en
Ġsl ow
Ġpl at
bl ock
pr oof
Ġsk r
Ġcar n
Ġsm all
bur n
Ġdes p
agg ed
Ġrad i
Ġple as
b ird
c ol
e er
g od
l ord
n ik
w y
y er
Ġ ens
er f
Ġs um
Ġs ir
Ġc row
oo se
Ġp ic
Ġp as
is ch
or o
Ġt ouch
Ġf our
Ġf arm
Ġh ed
Ġh us
Ġw o
Ġn atur
id ers
ot ed
im al
Ġv as
Ġv ag
st ein
Ġst er
op per
ist a
ud ed
Ġsp ir
ob ile
ian ce
sh ips
Ġcr im
ach i
ach ed
Ġal b
app er
Ġan y
Ġad m
Ġbe at
bb bb
Ġwor ld
a ver
m ates
v o
Ġ ell
Ġs ev
al ia
Ġt erm
le l
Ġf ast
Ġf ix
et ers
Ġn eck
Ġk o
Ġk ay
Ġv acc
Ġo dd
itt en
Ġsch m
Ġpre g
ail ed
Ġi w
yth ing
l og
l ass
p en
r ing
t op
v an
w oman
in ts
Ġs q
aa ah
Ġc in
Ġb og
ic ing
Ġf ing
Ġf ol
Ġh at
am n
Ġn arc
ut er
ap es
Ġv and
ak en
ob e
Ġpro st
ach t
vers e
opp ing
Ġat tr
wor ks
Ġmil k
Ġmus k
val yl
Ġorg an
c p
d on
f all
m om
r at
r ist
w ise
y cl
Ġs udd
Ġc ell
en y
Ġb ush
Ġm ys
Ġm atr
Ġd oll
Ġt ang
Ġr ing
Ġr etr
Ġh ack
Ġh ear
Ġg ur
Ġg ast
Ġw ell
Ġw olf
ur p
ch ool
Ġn ap
Ġk le
Ġj ud
ist ing
ff f
Ġre in
av ed
Ġfr ont
Ġpl ac
Ġsup erm
air s
ox ic
bur ger
Ġop en
Ġgro und
Ġcirc um
Ġpse ud
d es
l ie
r an
s y
u ation
u als
es us
Ġp and
Ġp ip
or al
Ġd y
Ġd oo
Ġd ad
Ġd up
Ġd ud
Ġt in
Ġt og
Ġt att
it as
Ġf ab
Ġh ill
un ted
el p
Ġg i
Ġw ord
il er
ut ing
ec ting
um in
ter ed
Ġa ug
ill o
ell ig
eb l
ew or
ens ion
Ġbr and
af e
Ġdr ag
Ġag g
he im
Ġcont in
iy a
b n
l ik
n ight
t v
t ch
in ity
Ġs uc
Ġs our
Ġs ix
Ġp ain
Ġb ank
Ġb oom
Ġb ird
Ġm ik
Ġt ail
it c
ic ian
Ġh old
Ġh arm
el and
Ġg et
ad y
Ġl es
Ġl an
Ġl ing
Ġn it
iiii i
ig o
ul es
ir ds
em y
st ick
Ġch er
Ġch ap
Ġsh m
Ġth w
Ġtr u
Ġtr uck
pl oy
und und
ash es
Ġqu ick
Ġph en
Ġen gl
Ġdr unk
anc er
amm ed
Ġme an
fuck er
unn er
opp ed
pro lyl
oin ts
threon yl
b ed
b our
f h
h i
l ab
m ith
p it
p ants
u o
Ġs ant
Ġs aw
an im
ar th
Ġb ak
Ġm ong
ing ing
is is
Ġd ood
Ġr ag
le w
Ġg on
ac o
am ar
Ġl ook
om er
em ia
ay ay
Ġst re
aaaaaaaa aaaa
Ġch rom
oc c
Ġsk y
Ġpar al
Ġx en
mmmm m
br br
arg in
Ġund ers
Ġimm un
Ġcy ber
oraora oraora
isole ucyl
b u
b one
h ere
j k
l ar
l im
m d
Ġ its
Ġs ee
on c
at ure
Ġp od
Ġb ox
Ġt at
Ġr iv
Ġr ight
Ġf ee
Ġf ox
Ġh aw
Ġg ra
ac ing
ur i
Ġl on
om as
Ġe as
Ġe mm
em a
Ġv ic
Ġun n
ard ed
Ġtr ib
ast ing
eb ook
Ġfl or
app y
ash ing
af t
yyyy yyy
Ġsw eet
eed ing
cr ip
old s
pp p
eep ing
wwww w
Ġdep ress
pe ople
Ġmo unt
girl s
a ire
e qu
f o
f ol
l if
v y
Ġ ult
Ġc ook
Ġd oom
Ġt ok
Ġf ra
Ġh amm
Ġg ul
Ġn oc
ol ution
re al
Ġun w
Ġj an
ist ed
th ef
Ġsh er
Ġsh ak
all ly
Ġtr ump
av en
ang ing
Ġal ph
Ġim pl
Ġam az
Ġcar r
Ġor th
less ness
Ġinter n
sp ir
Ġdes c
Ġpol y
Ġir re
Ġent r
Ġgen er
Ġtur n
Ġmult ip
Ġsil ver
amin yl
Ġbir th
a q
c ons
g un
g ate
h r
h s
h oles
i oc
k w
l ow
l ong
m i
o int
p ers
r is
Ġc ra
en f
ar is
Ġp ock
Ġb art
Ġb omb
Ġm ain
Ġm yst
Ġd ic
Ġd ro
Ġt un
Ġt ex
le ment
Ġf uk
Ġh ey
Ġg il
Ġw et
Ġw ol
Ġw ow
Ġw ait
us ting
am at
Ġl yn
re es
ap y
op y
Ġch em
Ġth ere
Ġsp ell
sh ire
ev e
ett y
Ġab r
uss y
unn y
Ġcal c
Ġcons erv
Ġhal f
Ġmur der
Ġdiff er
ser yl
f u
h m
i ad
l en
p ace
r im
s en
w ing
Ġ ish
ar ia
Ġp ix
Ġb ic
Ġb os
Ġm ous
Ġm ans
Ġt ay
Ġr er
Ġh ad
Ġg oo
Ġg as
Ġg oog
Ġw id
et ics
ro v
ch eck
om n
ab out
Ġe j
id y
ot r
ot ion
ent ing
ig en
Ġun sh
Ġun cl
st orm
Ġch am
Ġre qu
Ġa ur
ard o
Ġtr ash
ass ed
av ing
Ġfr esh
ahah aha
Ġgr an
Ġdis app
ort ion
ors e
Ġco ff
ect omy
kk k
Ġte am
Ġne ver
yd r
agg ing
asp ar
Ġmem or
b ee
c are
m ing
t ers
u an
Ġ aaaaaaaaaaaaaaaa
Ġs ick
Ġp on
Ġp izz
Ġb ou
Ġm w
Ġm ix
Ġd ip
Ġd ial
it us
it ers
Ġr ound
le p
Ġf le
Ġf ib
ad i
Ġl oooo
Ġl itt
ol ut
Ġe b
Ġk itt
em ic
Ġch lor
th em
th ings
od o
ud a
ey e
ock ing
les h
yn am
Ġph on
yp se
act ive
ble ms
Ġbu zz
Ġnew s
kn ow
Ġever y
c raft
f il
j erk
l est
Ġ orn
Ġs ig
Ġs oul
Ġc up
en es
at iv
Ġm t
Ġm it
Ġm ck
Ġm ant
Ġm ob
Ġd ee
Ġd ang
Ġd rop
ic ious
Ġf lex
el o
Ġg y
Ġg az
ac ting
ur f
Ġk im
Ġk ind
ut ch
ent er
ir st
Ġo per
Ġst op
ist ically
iiiiiiii ii
Ġpr ess
ach ing
Ġfl u
bo i
bo ys
ett o
Ġsm ok
cr ipt
ect or
Ġne ut
Ġup s
box es
d ick
e ff
m c
m outh
r ee
Ġ ik
Ġ oth
Ġc ash
ed ness
al f
al ize
Ġm im
Ġm ann
Ġm outh
Ġt an
it os
it im
le man
Ġf err
as ia
Ġh ip
Ġh og
un tr
Ġg ol
Ġg ard
Ġg aw
Ġw t
Ġl or
Ġl ub
Ġn d
ir i
Ġin cr
ay er
ow ski
Ġa j
up er
ub w
Ġy eee
Ġsp e
ack ers
ock ed
Ġfr uit
ood s
zz z
Ġim agin
bo und
ect ive
let e
Ġapp ar
Ġcol or
Ġmot or
b us
f ly
g et
n ut
r u
w all
z ing
Ġs ud
an os
aa t
Ġc d
Ġc s
Ġc ord
en z
ee ch
oo ps
ed e
al is
Ġb b
Ġb ik
Ġd irt
ic us
ic id
ic ate
ic ated
Ġr ow
Ġf art
Ġh il
Ġh ug
Ġh ost
un ity
Ġw it
il it
Ġn er
Ġn ag
Ġk an
Ġk re
Ġk arm
ul ous
Ġj ac
Ġj ur
op ia
Ġch ur
Ġch ron
Ġsh ip
Ġsh arp
Ġth or
Ġcon str
av ers
Ġcr it
Ġdis cr
Ġqu est
Ġab d
iss ion
Ġx xx
ail ing
rom e
Ġout s
llll l
Ġresp ons
quaresquares quaresquares
Ġshad ow
c ore
g an
g onewild
h t
m es
o unc
p an
p op
r t
v i
w d
Ġ uuuu
aa s
on al
Ġp it
Ġp up
Ġp unch
Ġb oog
ing e
or ous
Ġd al
Ġt all
Ġt own
ic ular
Ġr att
Ġg yn
Ġw oooo
Ġw arm
am as
ad os
ch em
Ġn u
ec ks
ah ahh
Ġst art
Ġth umb
eg o
ear ch
Ġad j
oth es
oth ing
Ġco up
Ġpre f
Ġor ig
fr ont
let on
Ġcomp et
Ġinc on
tttt t
b ang
l av
m art
o ons
p g
p ost
Ġ ard
Ġ uk
in nn
in ct
Ġc it
at on
at ly
ar l
Ġp w
Ġp ull
Ġb un
Ġb aaaa
Ġb oob
Ġd ow
Ġt ext
Ġr um
Ġh ap
Ġw y
Ġw if
Ġw ik
ur o
ur st
et o
ro y
ro ugh
Ġl ic
Ġk ab
ul ates
em en
Ġv l
Ġv erb
Ġch ew
ant ed
Ġre all
Ġy eeee
ud ge
Ġcon vers
ast e
eg a
sh op
ear ed
Ġcar m
Ġpre p
amm ing
br ush
off s
Ġop t
gu ard
asp art
Ġstra ight
glyc yl
a qu
m yg
w ind
y x
Ġ ord
in ates
Ġs of
on ey
on ian
at at
Ġp ink
Ġd um
Ġd erm
Ġt id
it an
Ġr u
Ġr ar
Ġr ic
Ġr aw
Ġf u
Ġh en
Ġh erb
el in
Ġg row
Ġw is
Ġw arr
am y
et ly
et ry
Ġl en
Ġl ist
Ġl ind
Ġl iter
ul ator
ess s
Ġo g
Ġin j
Ġj er
Ġj erk
st op
Ġst al
Ġsh re
Ġsp in
eeeeeeee ee
ang a
Ġpro gr
Ġfl uff
ahah ahh
Ġbr ut
az e
ann y
cl ub
cc c
Ġover d
gr aph
Ġsub t
co at
Ġse qu
ipp y
itch es
Ġmin im
Ġact iv
Ġpep per
b as
c ard
h oo
o an
o il
p erson
r am
w ards
Ġ aaa
in ch
Ġs et
Ġs ss
Ġc old
Ġc ert
at ically
oo bs
al og
Ġb ass
Ġm aint
Ġd ank
it able
ic ide
Ġh as
Ġw ing
us a
am yl
Ġl ie
ch t
os es
Ġk ap
Ġk ak
id ly
ap ing
Ġv in
Ġv iol
Ġj h
Ġj un
Ġj ul
th is
iz ard
Ġth ank
ver y
ts h
ish ly
eg u
pl an
Ġfl am
Ġbr on
Ġgr amm
oooooooo o
yn e
ear ing
uk i
Ġover t
Ġsub st
inn ing
ipp ers
Ġmis c
Ġi am
Ġgh ost
Ġgod d
vv vv
Ġcy cl
b ooks
c am
f c
h an
k j
k es
k ill
l ies
n i
o ed
o qu
v is
Ġ ist
er ies
Ġs und
Ġs ome
at able
Ġp ack
Ġb iz
Ġm oh
Ġm amm
Ġt l
Ġt ent
Ġt our
ic i
ic ation
le le
Ġf ound
Ġf inger
Ġh es
Ġh ex
el op
et ically
Ġl ak
Ġl unch
Ġl ux
Ġn ev
om in
om etr
om orph
id i
ir us
ah d
Ġin cl
Ġst ink
op ic
Ġch uck
th ew
ant ing
eb all
Ġsc re
ath ers
ach a
Ġph arm
olog ically
fr ee
ium s
Ġpol it
Ġaut oc
Ġop tim
Ġfro st
b it
b utt
c g
f p
k l
k ers
k ind
m al
m ost
n h
p d
p in
p ad
s n
Ġs ept
aa d
Ġp is
Ġp upp
Ġb end
Ġb io
Ġb udd
Ġm mm
or ted
Ġd ent
Ġd ew
Ġt od
Ġf ak
Ġf oll
Ġh r
Ġn ik
ol s
ab i
Ġk az
ul ations
em es
Ġj en
st on
Ġch ang
Ġsh ot
if i
Ġy ak
Ġsp ark
Ġcr ing
Ġle ft
app le
Ġsn ap
Ġsch n
Ġstr ang
Ġme ow
gl er
eng th
irl s
ees e
pro blems
Ġed g
Ġmo ist
iet y
iac s
rrrrrrrrrrrrrrrr rrrrrrrrrrrrrrrr
c or
g al
i atr
o un
v el
er rr
in ce
ee ks
Ġp ag
Ġp ict
Ġb ust
Ġd ash
Ġt ee
Ġt roll
it ated
ic ip
Ġr og
le ys
Ġh und
Ġg s
ch n
Ġe con
im ate
ec l
ec tions
Ġv ert
Ġun g
Ġun com
Ġin str
Ġin comp
Ġj ump
Ġre ass
Ġre gr
ter ing
Ġa us
Ġth ink
Ġy ear
ib les
Ġcon j
sh ow
sh ots
Ġex ec
Ġex ist
uc le
Ġsc reen
Ġcr u
Ġcl os
Ġcl ick
orn s
Ġdr iv
uk e
enn y
Ġhe alth
Ġmon ey
iel ds
opp ers
uct ive
onk ey
Ġsus p
cool cool
phen ylalanyl
b ags
c ing
g in
m ind
p ass
r ich
s o
w ave
z i
Ġ iz
Ġ ille
Ġp om
Ġp ik
Ġb ing
Ġm att
Ġd n
Ġt t
Ġt ight
Ġt rain
Ġt ales
ii t
Ġf ist
Ġf act
Ġf ore
Ġg ab
Ġg erm
Ġg ym
ac a
Ġl g
Ġl um
ab ar
os aurus
Ġk on
Ġk ol
ir ts
Ġv i
Ġsh l
ra x
eeeeeeee e
eb e
Ġex cl
Ġbl ock
Ġfr anc
Ġar k
Ġan c
oooooooo oooooo
eh r
Ġqu ant
ry ing
hhhhhhhh h
Ġsw itch
ire c
Ġas c
Ġte en
inn er
ih il
for ce
Ġbro ad
Ġgro up
ssssssssssssssss ssssssssssssssss
argin yl
aspar agin
b ie
d ed
d oor
f ig
f ood
j oy
m ag
n uts
v r
w ords
z u
Ġ ich
on ics
Ġb ud
Ġb ew
Ġm un
Ġm ap
Ġm ell
Ġm ush
Ġd ob
Ġd raw
Ġt end
Ġt ooth
it ate
it ors
ic ity
Ġr ol
Ġr oy
Ġf oo
Ġf ul
Ġf asc
as er
Ġh un
Ġg es
Ġg em
Ġg iv
Ġg over
ac tions
ro f
Ġl ot
ch at
Ġn erd
Ġk ah
Ġo z
Ġch im
ak u
qu er
Ġre ver
Ġth ing
Ġth under
Ġy am
ard ing
Ġpro ph
Ġbr ick
our ed
Ġle x
ph one
ber ries
af uck
Ġco h
anc ing
Ġstr ong
ign ed
eep ers
wh ere
Ġint ers
Ġat l
Ġbur n
Ġinf orm
gggg gggg
Ġla ugh
Ġspec ial
rod uc
Ġste am
lay er
Ġcele br
Ġwholes om
d ale
g ood
h d
k ay
m b
r ay
t alk
w ill
w olf
Ġ uc
Ġ iss
Ġ oooooo
aa aw
Ġc atch
at u
Ġb ant
Ġb ib
Ġb anan
Ġm atch
Ġm yc
is ers
Ġt etr
ic ial
Ġf t
Ġf it
Ġf est
Ġg ott
Ġw eed
il ic
Ġl il
Ġl ag
ab ol
id en
ot yp
ent ion
ec o
Ġv ibr
Ġin ex
st s
iz ations
ub a
ra ins
ill ian
ian o
Ġtr ic
ish ness
Ġsc al
ath e
ef or
ok a
ort un
att a
ev en
az ing
uk a
ink ed
ym ph
Ġhe av
ump ing
uh r
esc ent
Ġid ent
yst em
Ġinv est
press ion
ao ao
Ġfam il
Ġmax im
enst ein
Ġauth or
f g
f y
i ing
i ah
k f
l ins
n am
p i
s ed
w arm
in as
in ary
Ġs ou
Ġc raz
ar ians
Ġp aw
Ġp ont
Ġp etr
Ġb um
Ġb rown
Ġm all
Ġm end
Ġm ish
Ġm ater
Ġm uth
is a
or f
Ġd ust
Ġt oo
Ġt ip
Ġt enn
it ating
Ġr od
Ġr uss
Ġf inn
Ġf unk
Ġf eel
Ġh eeee
el ia
Ġw eek
Ġl ee
Ġl un
Ġl uck
ch arg
Ġn as
re x
ot om
ag ue
ess or
Ġj av
Ġst on
Ġst ro
Ġst yl
Ġch o
Ġch ip
Ġa ft
ib il
oc o
art y
ew ork
Ġcr unch
Ġal c
ier e
Ġad min
ink le
uff s
Ġbe aut
ert y
oom s
br idge
Ġinter r
Ġse ver
gh gh
Ġap pl
Ġu w
Ġthe or
Ġmus c
Ġyo ung
e as
g d
g ro
g ifs
h ar
i ates
m or
m il
o ug
p at
u ary
y an
Ġ ud
Ġs ap
Ġs yl
Ġs ong
ee ing
al izing
al ities
Ġp all
Ġb igg
Ġm inn
is ions
Ġd aw
Ġd ogg
Ġr ud
le h
Ġh t
Ġh w
aaaa ay
ac on
Ġw aa
Ġw itch
us ts
Ġl ou
Ġl aur
ol t
om ic
om eter
ab or
ly n
os ing
Ġe w
id ity
ag ers
ag ain
ent r
ent y
Ġv il
Ġo ce
Ġun sp
Ġj on
Ġj ess
Ġj enn
Ġj izz
Ġj ourn
op ing
op ter
qu is
Ġth es
Ġth is
Ġth row
ib ut
Ġz h
Ġwh ate
ens ive
Ġcr ed
Ġle m
Ġle arn
ong er
bo at
Ġac com
hhhhhhhh hh
cl ass
Ġmar sh
Ġpar ad
air ed
enc ies
be ard
ott om
Ġtrans l
utt ers
Ġmor g
Ġspr ing
load s
Ġbatt le
oooooooooooooooooooooooooooooooo oooooooooooooooooooooooooooooooo
Ġanth rop
ubw ubw
b g
b al
c ase
g ard
g round
j obs
k as
l ish
m ic
n f
p m
p ool
r un
x y
y ss
z ed
er p
es n
Ġc uck
en ic
ed ed
Ġp av
Ġb oss
Ġb ody
Ġm aa
Ġd m
Ġt ir
Ġt ant
Ġr az
Ġf ed
Ġh od
Ġh ep
Ġg an
Ġw ish
Ġw ank
Ġw igg
us er
ur u
Ġl ord
ol y
ab o
ot ing
ot ch
ul us
Ġv it
Ġv ig
Ġun ivers
ah u
Ġin it
Ġj ar
Ġj ab
and ing
and ers
Ġch at
Ġre le
Ġre pr
Ġa fr
Ġsp ect
ell ers
oc ial
ast r
igh th
ik s
Ġbl ind
ew h
Ġwh er
Ġwh eel
Ġgr im
app ers
Ġqu int
ry p
of l
uuuuuuuu uu
Ġgl ass
Ġres h
ger y
oph ilia
yc le
imm er
onn a
Ġcle ar
Ġnut r
c el
c ock
d m
l iest
p c
p n
q s
t i
u ate
w omen
in ations
Ġs it
Ġs ag
Ġs uuuu
Ġs eb
Ġs add
Ġc att
en w
Ġp f
Ġp i
Ġp end
Ġp ne
Ġb aj
Ġb ald
Ġm ull
or ia
Ġd unk
Ġt oy
Ġf uuuu
Ġf ind
Ġf unn
Ġw ed
Ġw ack
us ted
am en
et es
Ġn ak
ol in
om o
om at
em i
Ġv r
Ġv oc
Ġj et
Ġj os
ow ow
Ġa ustr
ub lic
all a
Ġsp orts
ey es
Ġcon gr
ep end
ast a
eb ox
Ġz e
Ġbl ank
ath s
our t
tt e
eh ead
ok ing
Ġpl ant
Ġqu al
eth e
ment al
ann er
Ġmar g
Ġover h
act iv
Ġme as
Ġant iv
Ġmon st
nnnn nn
Ġwe ird
Ġmet al
Ġcomm un
Ġsal t
pos ed
Ġtur b
tttt tttt
Ġfre ak
Ġexpl ain
augh t
raf ts
ocal ypse
uuuuuuuuuuuuuuuuuuuuuuuuuuuuuuuu uuuuuuuuuuuuuuuuuuuuuuuuuuuuuuuu
uberuberuberuber uberuberuberuber
ylglut aminyl
h ouses
j r
j w
l on
m od
m aking
n it
q q
t ons
w an
z illa
Ġ atr
er rrr
in v
Ġc umm
ee ps
oo per
Ġp u
Ġp opp
Ġb aa
Ġb oooo
Ġb und
Ġb ach
Ġb az
Ġm ex
Ġm ond
or der
Ġd idd
Ġt b
Ġf og
Ġh ag
Ġh ash
Ġh ook
el i
Ġw om
Ġw inn
Ġw inter
am us
Ġl ur
Ġl itter
ch ch
Ġn eb
Ġn ons
Ġk in
ig a
im an
ir ing
Ġv erm
Ġun tr
Ġj ob
Ġst ay
Ġth eb
Ġtr i
ass e
ish ment
ov es
Ġdis g
Ġcom ment
ev il
Ġam ph
bl er
Ġad vent
Ġsn eak
ann ing
iss e
ith er
oh n
ont in
old ing
Ġgl ut
Ġstr at
ign s
iff s
Ġbar n
Ġaut ob
unn ing
Ġdep end
Ġir on
con n
Ġgre at
Ġob ject
pro d
rain ed
gggg g
Ġmed ic
org an
iiiiii i
lock s
Ġemb arr
Ġpub lic
Ġsac r
Ġfant as
a an
b ody
c os
c ap
d ad
h n
l ights
p ol
u ar
w al
er ry
in is
es ia
at ives
ar oo
Ġp add
Ġb aw
Ġb ark
Ġb ung
Ġm n
Ġm oooo
Ġm az
or ting
Ġd onn
Ġt ac
Ġt ear
Ġr d
Ġr oom
Ġr estr
Ġf als
Ġf ert
Ġh aa
Ġh aaaa
Ġh oooo
Ġh ij
Ġg est
ac le
Ġw ear
am on
et ter
Ġl m
os oph
Ġk om
Ġk iss
ut z
ent e
ec raft
ess er
Ġj oy
iv a
Ġst ill
op er
ist h
ist ers
and ed
Ġth re
if ting
if ier
Ġsp ort
Ġcon ce
ick ers
Ġtr y
Ġtr ee
uck ed
Ġwh or
pl ace
Ġal g
Ġph ill
af ter
Ġper p
olog ies
Ġpar as
uuuuuuuu uuuu
Ġstr eet
enc ed
aj aj
uss ed
Ġint ens
Ġup d
Ġev ent
Ġinc ons
ugg ed
Ġpe ac
Ġcle an
irc le
room s
adad adad
Ġjoh n
Ġelect ro
a el
c ode
e i
f in
f ight
h ard
l iness
p al
p oints
t ob
w ee
x s
z n
z one
Ġ oooooooo
er ia
Ġs ah
Ġs oph
an nn
en ers
at io
ar u
ar io
al ot
Ġp ier
Ġb ev
Ġb rom
Ġb amb
Ġm l
Ġm ail
Ġm uh
Ġm unch
or th
Ġd s
Ġt d
it on
it ut
Ġr is
Ġr ib
Ġr ust
Ġr ect
le igh
Ġf ors
Ġh ood
Ġh ome
el on
Ġg at
Ġg el
Ġw aff
Ġw tf
us ions
am ic
et ime
ro te
ad v
ch ick
Ġn arr
ly ing
os aur
Ġk et
um n
ir on
em t
Ġv id
Ġv erd
Ġv irt
Ġun ch
ow l
st icks
Ġst eel
ck s
est ers
Ġch amp
Ġsh op
Ġsh ower
ip er
og y
up h
Ġth ick
Ġth read
ud ing
ous ness
Ġsp erm
oc on
Ġsc and
ov en
Ġpr act
Ġcr ap
Ġfl oor
Ġfr at
Ġfr ench
Ġle w
ok u
per t
Ġsl av
att y
Ġph ant
Ġsup pos
Ġcar b
Ġper t
oh oh
eed ed
ont e
Ġpre v
uff in
atch er
atch ed
Ġmc m
Ġinter c
Ġpol ic
igg le
yt es
ition ed
ition al
ific ations
udd y
Ġhand s
Ġit al
eph al
Ġmast urb
friend s
xd xd
iiiiiiiiiiiiiiiiiiiiiiiiiiiiiiiiiiiiiiiiiiiiiiiiiiiiiiiiiiiiiiiiiiiiiiiiiiiiiiiiiiiiiiiiiiiiiiiiiiiiiiiiiiiiiiiiiiiiiiiiiiiiiiiiiiiiiiiiiiiiiiiiiiiiiiiiiiiiiiiiiiiiiiiiiiiiiiiiiiiiiiiiiiiiiiiiiiiiiiiiiiiiiiiiiiiiiiiiiiiiiiiiiiiiiiiiiiiiiiiiiiiiiiiiiiiiiiii iiiiiiiiiiiiiiiiiiiiiiiiiiiiiiiiiiiiiiiiiiiiiiiiiiiiiiiiiiiiiiiiiiiiiiiiiiiiiiiiiiiiiiiiiiiiiiiiiiiiiiiiiiiiiiiiiiiiiiiiiiiiiiiiiiiiiiiiiiiiiiiiiiiiiiiiiiiiiiiiiiiiiiiiiiiiiiiiiiiiiiiiiiiiiiiiiiiiiiiiiiiiiiiiiiiiiiiiiiiiiiiiiiiiiiiiiiiiiiiiiiiiiiiiiiiiiiii
b at
c m
f it
i ens
j ay
l f
m other
n ews
o ids
p re
p ack
w eb
x t
y ll
z el
er i
er es
in ers
Ġs ang
Ġc ir
Ġc ort
Ġc anc
Ġc raw
ar ly
ar ks
ed y
Ġp ec
Ġb c
Ġb uk
Ġb eck
Ġb unn
Ġb agg
Ġm orr
Ġm yth
ing o
is l
Ġd ab
Ġd ont
Ġd add
Ġd etr
Ġt ast
Ġt ool
Ġt amp
ic ted
Ġf aaaa
Ġf ug
Ġf ill
Ġh ul
Ġh ub
Ġh ind
Ġh eck
Ġg erman
Ġw ir
Ġw ast
ro ke
Ġl act
Ġl amb
ch o
ch ron
Ġn ah
Ġn az
re ak
ut a
ot ted
st h
iv id
op t
ak k
Ġsh el
Ġre j
Ġre en
ation ally
og o
ib g
Ġsp oon
ob l
ass ing
Ġwh ist
Ġpr ior
pl ed
Ġfr ied
Ġbr ig
Ġar s
Ġar th
ef r
app ro
ok ed
Ġpl ag
ich i
ink y
gr and
ert on
amm y
enn e
ung s
ump ed
uss ion
oop ing
xx x
ty ros
Ġent h
Ġgen eral
Ġmor ph
Ġref er
Ġge org
Ġsec ret
Ġche er
Ġche ap
Ġut il
olol olol
Ġtot ally
lett e
Ġmech an
udamudamudamudam udamudamudamudam
Ġtales from
a ug
b irds
e ing
f an
l ook
m it
n eck
o ir
p ain
r in
Ġs yr
an as
aa m
at us
at ics
ar b
ar f
ed a
Ġp aul
Ġb in
Ġm d
Ġm ord
Ġm cl
Ġm ild
Ġm add
ing le
Ġd oof
Ġr eeee
Ġr ail
Ġf if
Ġh obb
Ġg oos
ac ies
Ġw ould
us k
il der
ur l
am ps
ad ian
Ġl od
Ġl oos
ol as
ab oo
os ter
Ġk as
id ay
ag i
im o
st uff
Ġst ev
and y
est y
aaaaaaaa a
Ġch ic
Ġa ver
Ġa ww
od a
ub ber
iiiiiiii iiii
Ġcon spir
eeeeeeee eee
ish a
Ġwh oo
ov ich
Ġcr y
Ġfl ow
Ġar b
Ġgr ap
Ġim pr
ind a
Ġsk etch
Ġco ver
Ġdr ug
own s
Ġover ex
Ġpar am
Ġem bar
Ġrec ogn
Ġres c
led ge
ult ure
au ce
ott o
Ġap olog
oop ed
nnnn nnn
land er
Ġdef in
Ġbre ast
Ġbo ard
Ġbur g
ough ts
Ġcor on
Ġacc ident
Ġid i
ient ly
Ġimm ed
Ġmeg al
press ed
Ġang el
ucc i
Ġmod ern
Ġos tr
Ġpo int
Ġovers t
Ġsa uc
Ġdom in
eheh eheh
cccc cccc
eeeeeeeeeeeeeeeeeeeeeeeeeeeeeeeeeeeeeeeeeeeeeeeeeeeeeeeeeeeeeeeeeeeeeeeeeeeeeeeeeeeeeeeeeeeeeeeeeeeeeeeeeeeeeeeeeeeeeeeeeeeeeeee eeeeeeeeeeeeeeeeeeeeeeeeeeeeeeeeeeeeeeeeeeeeeeeeeeeeeeeeeeeeeeeeeeeeeeeeeeeeeeeeeeeeeeeeeeeeeeeeeeeeeeeeeeeeeeeeeeeeeeeeeeeeeeee
Ġcust om
b w
b ell
b ait
c n
c hh
f ields
h ist
j ang
k id
k ids
l r
l ot
l ier
p ark
r um
Ġc ig
Ġc ott
Ġb ugg
Ġb rav
Ġb ask
Ġm asc
or able
Ġd estr
Ġt g
Ġt u
Ġt ell
Ġt ank
ic ts
Ġr idd
Ġf y
Ġf ear
Ġh d
Ġh ib
Ġh ass
Ġh urr
Ġh eter
Ġh awk
un ct
el yn
Ġg ut
Ġg oss
Ġg oof
Ġw ool
us i
ro sc
Ġl os
Ġl ith
ab ab
Ġe at
Ġk um
Ġk enn
id el
id ence
ap a
ul u
Ġun for
Ġin sp
Ġj udg
st ation
Ġsh ark
Ġre as
Ġth ed
if ts
ey er
end r
ang s
Ġcr uc
Ġfr ag
Ġal tern
Ġgr at
Ġan esth
eh ouse
Ġqu es
Ġmar c
Ġpar k
Ġrec e
uff le
atch ing
be at
ott y
ound ed
Ġunder t
llll ll
he art
Ġtrans f
Ġob v
ogr am
Ġsom eth
ograph ic
rog en
agr am
anan anan
bre ak
ersh ip
Ġsoc i
Ġje ff
ye ah
Ġdoc ument
Ġfem in
onon onon
Ġtem per
Ġgirl s
b ank
e o
e u
f d
f old
g ame
k m
n os
p ower
r edd
t d
w ick
z es
er er
in form
Ġs j
Ġs uit
es que
an er
Ġc yn
Ġc aus
Ġc ogn
en ia
at y
ar on
al istic
Ġp n
Ġp ter
Ġp ens
Ġp ork
Ġp yr
Ġp oor
Ġb our
Ġb ett
Ġb ord
Ġb row
Ġb eef
Ġm aaaa
Ġm err
Ġm ake
Ġd op
Ġd ra
Ġd ump
Ġt es
Ġt et
Ġt art
Ġt az
Ġt omm
it ical
ic er
Ġr oman
Ġf uu
Ġf orn
Ġf anc
Ġh ung
Ġg ad
Ġg av
ac ious
ro gr
Ġl is
Ġl amp
ch an
Ġn ull
ol ar
ol ine
Ġe f
Ġk v
ut o
im on
um i
Ġj al
Ġj ol
Ġj unk
ow e
Ġch in
th ed
Ġsh ith
qu il
ip le
Ġth en
Ġy og
Ġy out
ill as
Ġsp ider
Ġcon g
ep p
ian g
oc a
end o
Ġtr ick
uck y
uc ted
Ġz omb
Ġsc ream
Ġsc rew
ex ist
Ġpr ett
Ġpr ono
Ġpro cr
Ġcr yst
Ġfl esh
Ġbr itt
gg h
man ship
ok er
ok en
Ġam er
Ġco unc
Ġco untr
Ġsup p
Ġover r
Ġem ph
ook ed
Ġas p
ond r
Ġsub m
Ġcomp ut
Ġkn if
str eet
Ġcol lect
agg y
Ġdi am
imm ieg
Ġrel ation
pos e
ios is
Ġep id
Ġpur s
Ġhyp ers
Ġdiss ap
Ġnec ess
Ġbull sh
Ġsym path
ogen ic
down s
sch ool
lad y
Ġciv il
Ġvap or
jjjjjjjjjjjjjjjjjjjjjjjjjjjjjjjj jjjjjjjjjjjjjjjjjjjjjjjjjjjjjjjj
Ġincr ed
myg od
b p
b ros
f oot
f eld
g ers
h u
k u
l os
m akers
n is
o ys
p ock
r il
u ously
Ġs z
Ġs ill
Ġs ass
an us
Ġc p
al er
Ġp att
Ġp uff
Ġb uu
Ġb ey
Ġd os
Ġd ok
Ġd orm
Ġt ens
Ġr on
Ġr as
Ġf uzz
Ġg umm
Ġl ed
Ġn ur
Ġn um
Ġn erv
Ġn eph
ol ves
om ing
Ġe ph
Ġk ee
Ġk ob
ap ers
ig t
um d
em pt
Ġv ex
Ġv ern
Ġo ur
Ġun ic
Ġin fr
Ġj aw
Ġst ab
Ġst ere
Ġsh ov
od ies
ub l
Ġy ah
Ġsp ong
end a
ov ie
Ġpr on
Ġcr an
tr ee
ach y
ys is
Ġgr ind
Ġgr aph
Ġcl oud
Ġqu ad
az y
bl ade
Ġsk in
Ġen erg
Ġsw e
Ġsw eat
Ġsm ooth
ond o
atch es
Ġor ch
Ġor ang
arm s
inn ed
oop y
Ġint im
Ġbar bar
by e
Ġimp ort
izz le
Ġhom eb
Ġdi agn
Ġsur f
imm y
Ġsal es
Ġrel ig
lin ed
ij a
Ġkr ist
wr ong
Ġbu ild
roll s
Ġext rem
res p
ocr acy
Ġbus iness
crib ed
opath y
Ġobl ig
mmmmmmmmmmmmmmmm mmmmmmmmmmmmmmmm
Ġrub ber
Ġsudd enly
thef uck
Ġpne um
b ers
b ies
b ill
c ake
c eption
d ays
g ay
l g
m ot
m ont
m obile
n ers
o up
u ated
v t
w n
es qu
Ġc n
Ġc yb
en b
en en
en is
ar ium
oo ow
al ists
Ġp m
Ġp ist
Ġp ew
Ġp anc
Ġb am
Ġb ann
Ġb oll
Ġb oh
Ġb ios
Ġm h
Ġm ack
Ġm uff
or ic
Ġd irect
Ġt il
Ġt ag
Ġt ig
Ġt rop
Ġt arg
it ual
Ġr r
Ġr t
Ġr abb
Ġf arr
Ġh err
un o
Ġg org
Ġw av
il ar
ro man
Ġl i
Ġl oad
ch ange
Ġn n
Ġn aa
Ġn ee
Ġn ess
Ġn ord
Ġn uk
Ġn ights
ol is
os o
Ġk el
Ġk ok
Ġk oh
ag le
im in
im ed
ul ly
um es
Ġo ak
st ones
Ġst a
Ġst an
ist ics
aaaaaaaa aaaaaa
Ġsh ap
ant a
Ġa ust
Ġth ef
ub by
Ġy ork
Ġy ellow
ud o
ib a
ob ber
ep e
oc ation
Ġtr ack
ass ion
Ġsc ot
Ġsc ient
Ġpro l
Ġfr eed
Ġal leg
our ing
Ġle af
Ġcom ed
Ġan x
Ġan yth
ou f
Ġsk e
ich e
Ġab b
itt e
Ġsup ern
ith s
ook ie
Ġbe an
ush ed
be er
Ġel s
Ġhe ath
Ġmis d
umb ers
Ġag r
Ġwe ak
ugg ing
Ġsuper c
oin ted
Ġovers h
Ġlo ud
Ġfir st
Ġtro ub
iev ed
mem ber
Ġesc al
Ġshitt y
umbl ed
comm unic
eful ly
Ġfav or
a ing
b m
c up
c ont
d raw
f i
f m
f ast
i ary
j et
k it
m ant
m ail
n al
o ub
p iece
s d
t ail
w orm
Ġ ons
Ġs ie
es a
an ian
on ers
Ġc w
Ġc ay
Ġc ous
en ge
ar en
ar rrr
al in
Ġp eg
Ġp ear
Ġp uk
Ġp ound
Ġp omp
Ġm p
Ġm yl
Ġm ock
Ġm ash
Ġm udd
ing ed
Ġd uk
Ġd read
Ġt ed
Ġt ah
Ġt itt
Ġt orr
Ġr im
Ġr if
Ġr aj
Ġr ational
Ġf aa
Ġf ell
Ġf ail
as is
Ġh ir
Ġh ah
el m
el ves
Ġg ib
Ġg arr
ac les
Ġw ah
Ġw ant
us ive
ur rr
ro pp
Ġl ah
ch s
Ġn op
Ġn od
Ġe z
Ġk inder
ap on
ent a
ig mat
ess ional
ah an
st e
Ġch il
Ġch ik
th a
Ġsh its
od er
ug en
ill es
ick le
eg e
sh sh
Ġex s
ik ing
Ġz oo
ew ay
Ġwh ats
Ġcr ab
Ġfl ag
Ġar c
our ce
Ġan k
ting s
yn d
Ġac ad
ev ille
az i
Ġsk ull
oth e
oth s
Ġdr ink
edd ing
oph obic
oot y
ott a
ump t
Ġcomp ar
Ġkn ock
iff er
ahahahah a
Ġev angel
Ġsuper b
Ġsuper v
izz y
Ġsur pr
Ġmic ros
Ġdel ic
Ġcap ital
wr iting
Ġaw es
ogg ing
Ġleg al
eless ly
Ġmot iv
kkkk kkkk
mar ks
Ġaud i
Ġmach in
Ġhall uc
hhhhhhhhhhhhhhhhhhhhhhhhhhhhhhhh hhhhhhhhhhhhhhhhhhhhhhhhhhhhhhhh
Ġinfl u
Ġkid n
Ġfet ish
immieg immieg
a ult
b ull
c all
d ie
g ames
i is
i ors
j t
j ng
k eeper
n atch
p ac
p ay
p ie
r ap
w it
z m
Ġ aph
Ġs is
Ġs as
Ġs ak
Ġs ib
Ġc m
Ġc t
Ġc ac
Ġc uc
Ġc oor
Ġc udd
Ġc ream
en berg
at is
at ting
al ine
Ġp ak
Ġp ra
Ġp ale
Ġp igg
Ġp uzz
Ġb s
Ġm ens
Ġm eh
Ġd v
Ġd aaaa
Ġd ag
Ġd ah
Ġd ov
Ġt ad
Ġt ib
it ory
it arian
Ġr ab
Ġr ess
Ġr amp
Ġf eed
Ġh m
Ġh over
un ge
Ġg d
Ġg eh
Ġw ass
Ġw ax
am o
et al
et ts
et ted
ro ad
Ġn r
Ġn oooo
Ġn nn
ol ved
om ed
Ġe uth
ot ting
ent al
ul f
ul um
um ed
Ġv agin
Ġv iew
Ġo u
Ġun int
Ġun sc
aaaaaaaa aaa
Ġch all
th r
th ere
Ġsh ay
ip ing
Ġre im
Ġa hh
if orm
ra il
Ġy ess
Ġsp ar
Ġsp id
ell es
ard y
eeeeeeee eeee
ang le
uck le
Ġex pected
uc ts
Ġsc or
ew e
Ġbr u
Ġal e
Ġgr ay
ood les
Ġcl am
Ġcl im
ash ion
Ġsl im
Ġim ag
orn ing
Ġsk id
Ġen ch
oll s
Ġem ploy
mmmm mm
erm other
Ġgl or
Ġas pir
ix ed
ert ain
Ġstr etch
sp ace
inn y
Ġant ip
Ġout r
Ġass h
Ġup per
wwww ww
Ġrep os
Ġwe as
Ġcol our
Ġind ustr
Ġtrans m
aff e
Ġscr atch
Ġback st
eez y
Ġmag net
ept ic
Ġwr ong
Ġmult ic
Ġdet erm
Ġben ef
Ġpos it
augh ter
por ts
bor o
Ġbeh av
Ġblu eb
Ġobs c
Ġfut ur
Ġhist or
Ġns fw
ewor ld
b ul
e on
g m
g am
l as
l ia
p f
v n
z s
Ġ eee
Ġ edd
Ġ eeeeee
Ġ other
er ate
es es
at z
at os
al oo
al ph
Ġb ip
Ġb erg
Ġb bb
Ġm k
Ġm uk
Ġm omm
is o
or an
Ġd ug
Ġd egr
Ġt um
Ġt ack
Ġt act
ic ly
Ġr ah
Ġr ak
Ġr ough
Ġf us
Ġf inal
as ion
Ġh ak
Ġh itch
un ce
Ġg arn
Ġw end
am ily
et on
ro ps
Ġl ion
Ġl ud
Ġl ack
Ġl ine
Ġn umber
os ion
Ġe k
Ġe ast
Ġe arn
Ġk it
Ġk ad
Ġk ink
Ġk itch
ot omy
ap f
im ents
ul in
ul ent
ec e
um at
um ing
ir k
Ġv amp
Ġun pro
Ġj ord
op r
ak in
Ġsh ell
ant o
Ġre pres
Ġth ought
Ġy as
Ġy ank
ill i
ib ble
ob i
Ġcon sc
ian na
Ġtr uth
eb re
art ing
uc ed
yl and
Ġpr est
Ġpro gress
Ġal d
Ġgr en
Ġgr iff
Ġan a
ash er
ich t
Ġco uns
Ġcar p
uk o
Ġmar s
Ġem erg
Ġem path
Ġpre gn
act yl
fl ow
ile y
se qu
Ġmc n
be ing
arm a
ipp le
Ġint ro
Ġup v
idd en
dr ive
Ġpe op
Ġhyp not
ograph er
lock ed
Ġast ron
Ġsu icid
go ing
Ġsep ar
Ġlang u
aptapt aptapt
tyros yl
a ed
b ob
c f
c akes
d ogs
f air
g i
g as
h ill
h orn
h old
l h
l oo
l ink
t z
v ide
x c
y u
Ġ ie
Ġ uber
er ts
in z
Ġs ov
Ġs ugg
Ġs unn
ee ling
al ised
al ty
Ġp itch
Ġp urr
Ġb d
Ġb enn
Ġb obb
Ġm ee
Ġm aw
Ġm uc
Ġm ugg
Ġm uch
Ġm mmm
is in
Ġd aa
Ġd ul
Ġd ak
Ġt as
Ġt ough
ic y
Ġr rr
Ġr ug
Ġr eee
le th
Ġf m
Ġf oc
Ġf ond
Ġh id
Ġh uff
Ġh umm
Ġg t
Ġg onewild
ac r
Ġw add
il ized
am el
ad ers
Ġl ast
Ġl ights
ch ie
ch rist
ch eese
Ġn ig
Ġn ud
Ġn ast
ol on
ol or
Ġe cc
re v
ag ons
ent ric
ig ans
im i
ec a
um per
ess ions
Ġv ocal
Ġj ee
Ġj ug
Ġj azz
Ġst o
ck ed
Ġch al
ter y
od or
if ted
Ġy ours
ous ed
Ġsp ook
oc t
Ġtr iv
ang es
uc tions
Ġwh isk
pl ing
Ġcr isp
Ġfr app
Ġle th
Ġcl o
der ed
ok o
ash a
ting ly
yn g
ight y
Ġac et
Ġac count
ssss sss
Ġad ul
Ġad vert
ness es
pr et
Ġcar bon
uk u
Ġmar r
Ġsw ord
ats u
Ġsm ith
Ġem br
act ors
ym e
Ġrec ip
Ġrec omm
err ed
fr ied
com e
ild ing
Ġel d
oph ile
Ġant ic
ound ing
Ġpol itic
Ġdef en
umm y
Ġinf ant
Ġsal v
Ġcal if
Ġcons ol
Ġsom et
Ġes pec
Ġhar v
Ġinv is
abb ed
Ġtre m
Ġsex ual
Ġsec ond
Ġchar acter
bre aker
Ġabs olut
Ġphot os
lec tion
Ġdam n
Ġwat ers
Ġbet ter
ju ice
Ġsurv iv
aaaaaaaaaaaaaaaaaaaaaaaaaaaaaaaaaaaaaaaaaaaaaaaaaaaaaaaaaaaaaaaaaaaaaaaaaaaaaaaaaaaaaaaaaaaaaaaaaaaaaaaaaaaaaaaaaaaaaaaaaaaaaaaaaaaaaaaaaaaaaaaaaaaaaaaaaaaaaaaaaaaaaaaaaaaaaaaaaaaaaaaaaaaaaaaaaaaaaaaaaaaaaaaaaaaaaaaaaaaaaaaaaaaaaaaaaaaaaaaaaaaaaaaaaaaaaaaa aaaaaaaaaaaaaaaaaaaaaaaaaaaaaaaaaaaaaaaaaaaaaaaaaaaaaaaaaaaaaaaaaaaaaaaaaaaaaaaaaaaaaaaaaaaaaaaaaaaaaaaaaaaaaaaaaaaaaaaaaaaaaaaaaaaaaaaaaaaaaaaaaaaaaaaaaaaaaaaaaaaaaaaaaaaaaaaaaaaaaaaaaaaaaaaaaaaaaaaaaaaaaaaaaaaaaaaaaaaaaaaaaaaaaaaaaaaaaaaaaaaaaaaaaaaaaaaa
aspart yl
Ġille g
b j
b ly
b eh
b aby
c as
c op
d ong
f ather
g f
i in
l ip
m ir
n k
o er
p w
q i
r ate
r ise
w ed
y ard
Ġ ian
Ġ ont
in j
Ġs ey
Ġs ew
Ġs oy
Ġs ole
an ing
on ly
Ġc aut
en os
en sh
at en
ar rr
al ization
Ġp d
Ġp ott
Ġp imp
Ġp uls
Ġb m
Ġb ump
Ġb eet
Ġb urr
Ġb raw
Ġm yn
Ġm ids
or ge
Ġd oooo
Ġd ink
Ġd ox
Ġd opp
Ġd war
Ġr i
Ġr asp
Ġr ibb
Ġf ath
Ġf rom
Ġh s
Ġh is
Ġh ahahahah
Ġh onk
el ig
Ġg oooo
Ġg ear
Ġg ust
Ġg igg
Ġg olf
aaaa h
ac er
ac ion
ur er
am or
et own
Ġn aw
Ġn ost
Ġn umb
ol v
om ies
ers ch
ab itch
Ġk ub
Ġk idd
re me
ent ially
ig i
im ps
ul g
ec ond
ess a
em pl
Ġv oy
Ġj igg
st ed
st ock
st ream
Ġst raw
Ġst eph
and e
and r
Ġch or
ff er
ant in
iz en
Ġa u
od ed
if iable
Ġy osh
ib us
Ġsp h
Ġsp ank
ell as
Ġcon ver
end e
ass er
ang ers
ll ly
Ġwh o
Ġwh is
ath ing
yl es
ens es
ens on
pl ain
Ġfl our
ef ace
Ġgr ac
app a
ok s
ong o
bl ood
bl bl
pr int
Ġsk yl
ment ed
Ġsn e
ann on
oth y
hhhhhhhh hhh
Ġdr um
Ġas ian
Ġsub d
row ing
aph obia
yd e
Ġdec om
wh eel
Ġant id
Ġmon opol
Ġman ip
Ġgu ar
fuck ed
fuck ermother
esc ence
idd le
Ġcor por
Ġid ol
Ġgro ss
Ġtur t
eek ing
head ed
Ġmil it
pe ak
Ġsim pl
Ġpal m
ogg ed
Ġoff ic
Ġsex t
work ing
Ġben z
Ġterr or
Ġha em
Ġdar ks
Ġsus pic
Ġprop ag
ahahahahahahahah ahahahahahahahah
Ġhos p
ateg or
Ġchoc ol
crip tion
Ġquest ion
Ġprocr ast
a hhh
b in
b ra
b ase
b read
b omb
b ands
c b
f ic
f ighter
g b
g hh
j h
l n
l it
l ah
l ove
m all
m atic
n r
n ar
p ussy
q r
r ent
v c
w eed
Ġ umb
Ġ aaaaa
er h
Ġs op
Ġs ys
Ġs ett
Ġs ax
Ġs itu
Ġc aa
Ġc ou
en burg
ar ious
oo on
oo ting
al on
Ġp aint
Ġb t
Ġb id
Ġb eth
Ġb umb
Ġb unk
Ġb apt
Ġb ench
Ġb alls
Ġm ab
or er
Ġd ut
Ġt umbl
ic it
Ġf d
as u
Ġh ate
Ġh ier
Ġh aaaaaa
Ġh ahahah
un ks
Ġw eeee
Ġw oooooo
Ġw oman
Ġw reck
ad as
Ġl ick
Ġl ive
Ġl ink
ch w
ch ik
Ġn ol
Ġn umer
ol er
os exual
Ġk ry
Ġk ev
re a
re f
id n
id ate
ag ement
ent o
Ġv erg
Ġun th
Ġun he
Ġin her
Ġj us
Ġj im
Ġj ok
st ad
st ep
iv ly
Ġst ew
Ġst ern
Ġst iff
Ġst ream
Ġch ant
Ġch ev
th eb
Ġsh aw
qu al
up ted
Ġy h
Ġsp read
Ġsp agh
ob es
Ġcon fl
oc s
Ġtr ich
eeeeeeee eeeeee
ang o
ish er
eb er
Ġex cr
ik er
aw ays
uc a
Ġz oom
Ġbr ad
ys c
Ġgr ab
Ġcl in
Ġsl ee
Ġim b
Ġqu iz
Ġam ar
Ġsk ee
Ġco inc
hhhhhhhh hhhh
Ġdr am
ith e
int o
uff ed
ore an
ark ing
err ing
Ġse al
ipp in
Ġdec l
Ġapp rec
alk ing
fuck s
Ġsqu ir
Ġinc or
atr ix
Ġdem ocr
Ġinv ent
Ġsim p
Ġep ic
abb ing
atur es
Ġrh in
roll ed
roll ing
Ġhel p
Ġcre m
Ġhol ly
Ġto ile
Ġvol unt
yyyyyyyy yyyyyyyy
par ents
Ġno is
Ġmeth yl
Ġpun ct
Ġsug ar
born e
Ġjap an
Ġcount ers
fol k
asparagin yl
fuckermother fuckermother
b ing
b ab
c um
c ars
f k
f ed
f ights
g ot
g ob
h ub
i ations
j on
j ar
j or
l ig
l ords
p ics
r h
u ly
u ating
w est
Ġ yy
Ġ oog
Ġ ooooo
Ġs i
Ġs inc
an h
on ts
Ġc ot
Ġc aw
Ġc ors
Ġc inn
ar in
ar ar
oo ter
al am
al right
Ġb ok
Ġm ole
is i
or um
or ry
Ġd ie
Ġd ies
Ġd enn
Ġd ict
Ġd arn
Ġd yst
Ġt ul
Ġt ik
Ġt eh
Ġt ong
Ġt ender
Ġt odd
Ġr ath
Ġr ais
le f
Ġf as
Ġf ang
Ġf att
Ġf ung
Ġh ick
Ġg and
Ġg ill
Ġg ord
ac et
et it
ad el
Ġl iiii
Ġn ational
ol ed
om i
om ething
ly d
ly nn
uu m
Ġk ot
id t
id an
ap r
ul i
ec ut
Ġun im
Ġun fl
Ġin eff
ay ers
Ġj d
Ġj es
Ġj ag
Ġj ail
st ra
st ore
Ġst im
ist ant
Ġch ir
Ġch arm
Ġch oos
th ec
Ġsh all
qu el
Ġre vers
up e
if iers
Ġy aa
ill in
ib s
ous t
Ġsp it
ey n
ep orn
eb y
eb ag
eb ack
Ġex ter
Ġex erc
Ġex press
uc es
uc ing
Ġbl ast
Ġwh ack
ens it
Ġcr on
Ġcr ist
Ġbr idg
Ġal s
Ġar ach
Ġdis cl
der ing
tion al
ier a
Ġsk ill
Ġco ugh
ust ers
cl ap
Ġcar c
Ġper v
ink er
int end
amm ers
air es
eee en
au er
be es
be an
ign ing
Ġse at
sp ect
Ġde al
Ġant is
Ġcomp os
Ġcomp let
Ġsqu irr
Ġcol leg
llll lll
Ġinc re
he a
me at
erv ed
Ġdi ab
Ġpe ople
Ġinf init
Ġps yc
eez er
we ight
lin ing
Ġele v
dddd dd
Ġtur k
Ġed uc
Ġref orm
ias is
Ġaw k
Ġatt end
Ġhyp n
oman ia
wood s
Ġmill ion
Ġpap er
Ġcum ber
Ġsat isf
iec es
pppp p
Ġvis ual
walk er
crib e
Ġcard i
Ġdoub le
Ġthey did
esy esy
odododod odododod
Ġster il
Ġcin em
Ġneut ral
Ġaccom pl
b k
b en
b id
f unction
j n
j p
j er
j an
l m
l w
m ay
p rom
p oop
r id
r ant
r uit
t ies
v l
v m
v et
w eet
x m
y ers
z t
Ġ iiiiiiii
Ġ oom
Ġ oss
er ie
in x
Ġs d
Ġs hh
Ġs ut
Ġs ort
Ġs old
Ġs amm
an al
an nnn
Ġc k
Ġc us
Ġc ah
Ġc ater
en ger
at ar
ar us
ar ound
Ġp es
Ġp og
Ġp ump
Ġb em
Ġb if
Ġb yr
Ġm aur
Ġm osh
ing a
is ons
Ġd t
Ġd ot
Ġd ill
Ġd ia
Ġd ong
Ġd ou
Ġd ild
Ġt m
Ġt p
Ġt ard
Ġt ox
ic ating
Ġr s
Ġr ut
Ġr ack
Ġr app
Ġr out
Ġr oss
Ġr oof
Ġf n
Ġf izz
Ġf uuuuuu
Ġh in
Ġh ern
un es
Ġg le
Ġg ame
ac ity
Ġw es
Ġw itt
il ation
ur m
am eric
Ġl t
Ġl ig
Ġl ass
Ġl oll
Ġl anc
Ġl imp
Ġn c
Ġn g
Ġn ad
Ġn im
Ġn igh
Ġn ich
Ġn ugg
Ġn igg
om g
om bs
ion e
Ġk op
Ġk aw
ut in
ag us
ent ai
ess e
Ġv eh
Ġv ari
Ġo il
Ġun pr
Ġj imm
Ġj uv
st a
Ġst abil
op ot
est a
est ar
Ġch an
Ġch ol
Ġch ain
Ġch eez
th ers
ak y
Ġsh ee
qu in
ant es
Ġre w
ie ver
Ġy l
ug a
ud er
ell ar
uuuu uuu
eg er
Ġwh ere
ath ed
ov ed
ov ic
pl ant
Ġcr ank
tr on
Ġfl ood
Ġbr ook
Ġal k
ef e
Ġgr ee
Ġle tt
Ġle mon
ph ere
Ġcl ay
per ed
Ġac cr
att ers
orn e
Ġad r
Ġad apt
Ġsn iff
cl ick
Ġsch iz
oh ol
Ġpre vent
ical y
Ġgl ad
Ġas ph
arr ed
Ġstr ateg
fl u
enc ing
ush es
ush ing
Ġass hol
unk y
unk ed
Ġpol ym
ft ft
Ġdef init
orr h
te en
unn ers
agg ers
Ġdep l
Ġhom es
Ġmet all
pos ts
Ġmag ic
wr iter
Ġbab ys
itz er
gggg gg
Ġunc ons
iqu es
Ġhel ic
ubb ed
ubb ing
Ġsyn d
Ġpen is
iev ing
iot ic
Ġing en
osc ope
lys yl
Ġveg et
Ġrom antic
Ġeth n
Ġpatr on
Ġnorm al
anth rop
Ġstup id
Ġvict im
Ġprinc ip
Ġameric an
Ġost e
Ġpock et
Ġlg bt
Ġgover n
b ug
b ys
d n
d ead
f le
f ac
f ur
f ix
g ang
j ection
k iller
l oc
p ur
r us
r iend
s ide
v d
w oo
w agon
y te
z k
z w
Ġ ooo
er in
er ation
Ġs uz
Ġc ens
Ġc ouch
ee er
oo ch
ed o
Ġp c
Ġp us
Ġb eeee
Ġb ail
Ġb udg
Ġm ig
Ġm um
Ġm und
Ġm af
or ian
Ġd l
Ġd ex
Ġd igg
Ġd anger
Ġt aa
Ġt ec
Ġt up
Ġt oll
Ġt read
ic ans
Ġr aaaa
Ġr up
Ġr end
Ġr ans
Ġr oth
Ġr obb
Ġf en
Ġf ap
Ġf iv
Ġf uj
as n
as aurus
Ġh et
Ġh art
Ġh ann
Ġh ide
Ġh atch
Ġh ero
Ġh urt
Ġg ing
Ġg ew
Ġg arg
Ġg amb
ac ial
Ġw ot
Ġw ag
Ġw ick
Ġw oof
ur able
ur ance
ro se
Ġl ut
Ġl uk
Ġl yr
Ġl ymph
Ġn oth
om on
Ġe man
Ġe ct
ag ic
ag ag
im at
ec c
ir th
ess ss
ess ive
Ġv es
Ġv ind
Ġv aj
Ġj ed
Ġj ugg
st rom
st ories
and el
Ġch eet
th ro
ak o
ss h
qu es
qu it
Ġre ason
od ay
Ġth ec
Ġth ough
ub t
Ġy ay
Ġy ell
Ġsp ear
Ġsp eak
ob a
oc ol
ast roph
eb ra
uck ers
Ġex pos
art ment
Ġz d
Ġbl ur
Ġbl az
Ġsc rot
ew olf
Ġwh oooo
Ġpro h
Ġpro tr
pl us
Ġcr ash
tr ess
ach able
Ġbr ight
ef est
Ġgr ass
Ġdis pos
Ġdis cover
zz y
Ġsl ut
ial ity
bo ats
Ġsn ak
ins ki
Ġco ul
hhhhhhhh hhhhh
cl oud
iss a
Ġper iod
oy a
Ġpar s
ook ing
ull s
ern al
ond a
Ġbe ast
arr i
Ġor ient
au f
be ast
Ġinter d
Ġhe at
Ġde af
Ġmis re
Ġant im
Ġmon key
Ġgu y
Ġgu ard
Ġpol ar
Ġmin ut
Ġsuper h
yc les
Ġdep os
Ġimp rov
con c
Ġcont ro
Ġcont ext
Ġgre g
Ġent er
Ġob st
Ġacc eler
dddd d
erc ial
Ġbab y
Ġimm ort
work ers
Ġleg it
atter ing
Ġtra ff
Ġpop ular
board ing
reg n
Ġsym bol
Ġesc ap
ivers e
Ġcas ual
Ġsan ct
Ġther ap
glut amyl
Ġcos m
Ġcann ib
Ġopp os
Ġobl iv
Ġcour t
Ġarg ent
ienc ed
Ġnin j
Ġlet ter
Ġalph ab
quaresquaresquaresquares quaresquaresquaresquares
b oss
b elt
c art
d in
f at
f ro
g hhh
g uns
h art
i our
m eth
m oon
o it
o ise
p ole
p ipe
q a
r p
r el
r ick
t m
w orms
Ġ ion
Ġ one
Ġ erm
Ġ ahahahah
Ġ osh
er ated
er ve
in ally
Ġs uu
Ġs atur
an ie
an ey
on ium
Ġc ag
Ġc ity
Ġc of
en an
at isf
al ian
Ġp ys
Ġp eck
Ġp eng
Ġb uc
Ġb ond
Ġb add
Ġb ogg
Ġb ubb
Ġb egg
Ġm ew
ing u
or ate
Ġd c
Ġd uu
Ġd ock
Ġd icks
Ġd inos
Ġt ch
Ġt ime
it ates
it ute
Ġr an
Ġr oh
Ġr ole
Ġf ot
Ġf ern
Ġf urr
Ġf udg
Ġh hh
Ġh ahh
un i
el or
Ġg im
Ġw ann
Ġw orm
Ġw ald
am ous
Ġl ys
Ġl ust
Ġl ittle
ch air
Ġn ep
Ġn ause
ab ad
ab oy
Ġe aster
Ġk em
Ġk ings
Ġk ron
re ams
Ġv s
Ġv ed
Ġv om
Ġun le
Ġun cr
rr y
Ġj ung
Ġst ing
Ġst air
Ġst amp
Ġst aff
ist ry
est im
th ey
ak is
Ġsh ir
Ġsh ock
Ġsh ould
Ġre ally
od i
Ġth el
Ġth ous
ub le
Ġy a
Ġy uu
ill ions
Ġsp ot
Ġsp ont
ob il
ey ed
Ġtr ig
Ġtr ist
Ġtr ust
av a
aw ks
Ġsc ro
Ġsc ul
ew r
Ġwh ir
Ġwh eat
ath an
Ġcr itic
Ġfl ip
Ġbr an
Ġbr id
Ġar n
Ġar ab
Ġar ist
ys e
ef l
our se
ain er
Ġle ver
Ġdis ass
Ġcom pr
oooooooo ooo
ph ant
ated ly
Ġcl ip
Ġcl own
zz le
Ġsl ack
Ġqu iet
att le
orn o
Ġam m
ord ing
Ġab st
itt ies
hhhhhhhh hhhhhhh
Ġsm ell
cc ck
Ġpre par
ax ed
int on
pp ed
ond e
Ġres ur
ling ly
Ġor b
unt ers
rom b
eep y
sp ot
inn g
Ġdec e
aj a
Ġcomp le
Ġag ain
oop ers
ue ing
Ġtw ent
Ġman uf
Ġgu id
Ġgu ild
Ġapp end
Ġaut op
etr ic
umm ing
Ġbre w
idd ing
ane ous
aur s
sk in
Ġu z
Ġq w
Ġbro k
uch i
Ġps y
Ġis lam
osh i
we en
eek er
ns fw
Ġep is
oog le
work er
Ġcam el
Ġfre qu
Ġsyn chron
Ġfur n
Ġchar l
Ġdisc ip
Ġdiv ers
iev able
load er
play ing
Ġact ual
Ġgo at
mo unt
Ġbir ds
Ġinn oc
Ġunb el
Ġocc up
abil ities
Ġaer os
Ġdish on
Ġtyr ann
oraoraoraora oraoraoraora
Ġej ac
Ġmoist ur
ircle jerk
adv ice
redd its
b ay
b les
b itch
b ars
b rain
b oob
c ity
f ill
f art
f und
f ect
f ox
h ing
h ow
h unter
k ar
k ah
l ut
l ick
l eep
l uts
n ick
r upt
u eh
v u
y ed
z b
z ers
er os
in us
Ġs ock
Ġs orr
Ġs urr
es i
on ians
Ġc c
Ġc es
Ġc yst
Ġc amb
Ġc ategor
at as
at tr
at ted
ar ys
ed es
al ise
Ġp am
Ġp iv
Ġp ach
Ġb ored
Ġm ch
Ġm ost
Ġm esh
Ġm yr
is co
or ient
or ship
Ġd ans
Ġd ork
Ġd ais
Ġd ynam
Ġt imm
Ġt ask
it ution
ic ut
ic ting
Ġr n
Ġr ul
Ġr ach
Ġr ash
Ġr enn
Ġr oot
Ġr aff
Ġr iver
Ġf s
Ġf idd
Ġh ig
Ġh ast
Ġh ok
Ġh ump
Ġh opp
un ed
Ġg og
Ġg if
aaaa y
Ġw s
Ġw an
Ġw ii
Ġw eh
Ġw omen
ur ger
am ents
ro x
ro ids
Ġl ond
Ġl oom
Ġl ump
Ġl arg
Ġl ocal
Ġn m
Ġn ih
ol der
ol ve
om atic
ab it
Ġe is
Ġk ush
re k
ot en
ap l
ig ate
im us
Ġv or
Ġv ib
Ġj ing
Ġj ak
Ġj ock
Ġj oj
Ġst ip
ist ent
ist ance
th en
ak t
ak ak
Ġsh out
ss on
Ġre aaaa
og l
ub es
Ġy ard
Ġy uk
Ġy eeeeee
ib i
Ġsp o
ver ts
Ġtr if
av or
igh s
ik an
ik ed
uc ting
pl ays
tr ans
Ġfr eel
Ġal ien
ef ore
Ġle b
Ġle on
Ġle av
Ġcl ub
Ġsl ap
ou h
ks ks
bl ah
bl ue
ating ly
Ġsn ugg
Ġen ne
ins on
Ġdr amat
Ġsup pl
Ġmar v
Ġmar gar
olog ic
oll a
oh o
Ġsm ack
ank ed
Ġover re
ax es
gr ad
ark ed
Ġstr ess
air y
be ans
edd ed
ung a
Ġse ab
Ġde leg
Ġdec on
uss ing
Ġant agon
Ġap ocal
Ġout l
Ġmon et
Ġfor b
Ġag n
Ġsqu eak
Ġev en
Ġaut of
Ġtrans form
Ġins an
dr ess
Ġhom est
yt ime
Ġcor rect
aaa hhh
Ġmet am
Ġmet abol
imm ing
eez ing
Ġacc ept
Ġcap s
Ġcat al
uct or
Ġinst ant
Ġpur pos
Ġcur t
utter ed
utter ing
Ġleg itim
Ġcre w
Ġann oy
Ġsyn thes
Ġpart icip
Ġos c
ift ers
Ġso up
Ġtra il
Ġok ay
Ġphil osoph
Ġdig it
miss ion
Ġvir g
Ġexper iment
child ren
Ġexh ib
ffffffff ffffffff
Ġbast ard
osph ere
brbr brbr
Ġthere al
Ġflu or
Ġchur ch
Ġmater ial
appro pr
a uc
b x
b ugs
c orn
c ape
f et
f inger
h ad
h ands
j c
j am
j okes
k le
n w
n ames
p as
p ig
r ub
r ine
u ity
u ana
v ey
v ania
w ings
w ars
w ait
Ġ eeeee
er l
Ġs b
Ġs f
Ġs ach
Ġs uk
Ġs eem
Ġs arc
Ġs ieg
es k
es ed
Ġc z
Ġc aaaa
Ġc ours
at em
Ġp ans
Ġp ett
Ġp udd
Ġb ound
Ġb onn
Ġb acter
Ġm ii
Ġm ug
Ġm ine
Ġm int
Ġm eet
Ġm umm
is ations
or us
Ġd art
Ġd amp
Ġd aaaaaa
Ġd ipl
Ġt c
Ġt yl
Ġt arr
Ġt ake
Ġt ourn
ic on
ic ians
Ġr idg
le ge
Ġf i
Ġf ool
Ġf ork
Ġf ffff
Ġh im
Ġh our
Ġg eb
Ġg ov
Ġg oth
Ġg ild
Ġg imm
Ġg osh
Ġg oz
Ġw ard
Ġw orr
il ian
ur ch
ur ate
am os
et or
Ġl eeee
Ġl ess
Ġl ug
Ġl enn
Ġl umber
Ġe ck
Ġk ro
Ġk iw
id os
id oc
ag og
ul as
oooo ow
em in
Ġv est
Ġo ph
Ġun ion
Ġun se
ah t
Ġj s
Ġj eb
Ġj eh
Ġj acks
Ġj esus
ow itz
iv able
Ġst om
Ġst ag
Ġst ard
ck ing
est ation
Ġch ok
th el
Ġsh iv
Ġre ap
Ġre plic
iz a
iz able
od el
Ġth ir
Ġth eg
ie ves
Ġy el
Ġy est
Ġy ous
ver n
ard i
ey our
Ġcon gress
ep lay
ick t
eb ooks
eg en
ik en
aw h
aw ing
art en
Ġz w
Ġz en
Ġz ab
Ġz ip
Ġz eal
Ġbl as
Ġsc en
Ġwh oop
ex uals
Ġpr ic
Ġpro ff
pl ate
tr y
tr uck
Ġfr ik
Ġal m
Ġar rr
ef t
Ġgr am
Ġgr oom
Ġle gg
Ġle ct
Ġcom f
ph ones
Ġcl ap
Ġcl av
Ġcl ock
eh eads
ead ed
Ġph o
Ġph ar
pr ay
Ġsk inn
ich es
Ġen h
Ġco al
ank ing
ax e
Ġx y
ern ame
gr am
Ġrec ord
Ġbe z
ert a
amm a
unt y
br ook
ush er
Ġinter net
oph ren
ott en
sp ec
Ġde ff
yd ay
wh en
Ġap r
gl ers
Ġman if
unk ing
oss ed
vers ion
Ġup t
Ġwe ight
Ġsqu e
Ġind epend
he arted
Ġsuper cal
Ġtrans c
Ġdep r
Ġdep rec
Ġbur ger
Ġrem em
Ġinf in
Ġmet e
Ġmet aph
ition ing
Ġacc um
och rom
Ġcap it
eek ed
wor thy
ular ly
wr ap
Ġdo ug
Ġmeg ap
Ġgh os
Ġexp ed
Ġdev elop
la ugh
Ġfac ep
Ġcam er
Ġair b
upp ort
uuu un
Ġrob oc
Ġdog s
Ġcond em
Ġnec roph
Ġbut th
Ġact u
Ġarch it
urn ed
Ġyo un
lec ted
Ġren eg
Ġchrist ian
Ġwat erm
Ġjoh nn
walk ing
Ġdemon str
dddddddd dddddddd
ylglut amyl
Ġvo ic
stand ing
mus ic
Ġack now
Ġsod om
Ġneigh b
Ġbub ble
Ġharm on
Ġengl ish
othing wrong
Ġderm at
b oo
b uck
c ards
d ot
d oll
f alls
g re
h as
i ents
k an
l p
l is
l ty
l ds
m ine
p id
p ies
r ace
t ra
u os
v p
w itch
z d
Ġ ort
Ġ aaaaaaaaaaaaaaaaaaaaaaaaaaaaaaaa
Ġ ump
Ġ itch
Ġ estr
Ġ uuuuuu
er able
in in
in ia
in als
in fl
in nnn
Ġs oo
Ġs oooo
Ġs ell
Ġs ard
aa at
Ġc og
Ġc yr
ed ing
Ġp ly
Ġb ard
Ġb ong
Ġm j
Ġm uu
Ġm og
Ġm ood
Ġm ons
Ġm ight
Ġm itt
Ġm oll
Ġm mmmm
Ġm och
Ġm atur
Ġm igr
Ġd uff
Ġd err
Ġt j
Ġt ann
it ious
ic z
ic ism
ic tions
Ġr ok
Ġr uff
Ġr ox
Ġr yth
Ġf j
Ġf ier
Ġf uuuuuuuu
Ġf unction
Ġh p
Ġh ort
Ġg um
Ġg ate
Ġg ain
aaaa at
Ġw j
Ġw u
Ġw ink
Ġw aaaaaa
ur k
ur ts
ad on
Ġl up
Ġl af
Ġl oon
Ġn i
Ġn oo
Ġn est
Ġn ucle
ab er
ab ra
ly ph
Ġe uph
Ġk c
Ġk ell
Ġk yr
id or
ot iv
ap aw
ent iv
ul ars
Ġv all
Ġo ber
ah am
ay in
Ġj ub
ist e
ist as
and i
aaaaaaaa aaaaa
ak h
ak ov
Ġsh oul
qu et
og a
od ing
if ically
Ġy aaaa
Ġy ug
Ġsp y
Ġsp ic
ver ed
ey ou
ep tions
Ġtr am
ish i
eb alls
eg an
ik ers
aw ed
Ġz eb
ew ood
Ġwh ee
Ġwh al
ath on
ens is
Ġpr actic
Ġcr us
Ġcr ip
Ġcr app
Ġcr ust
ach ers
Ġbr y
Ġgr oo
gg hhh
Ġan h
Ġcl a
per ing
Ġsl am
ber ger
Ġim g
Ġqu ack
Ġac r
Ġac cl
Ġph all
Ġam pl
bl ind
eth yl
pr ing
Ġsn ack
Ġab and
cl ips
Ġdr ess
Ġper pet
oh mygod
ank a
ank y
Ġover th
Ġpar ap
Ġpar aph
Ġem ot
ax ing
uuuuuuuu u
Ġgl ow
Ġres erv
amm it
fl ower
eee er
ush y
edd on
Ġinter view
Ġhe al
let es
Ġse as
sp eak
inn ers
Ġmis st
aj i
uss es
wh y
Ġap ar
ual ity
Ġmon og
Ġfor c
Ġfor ce
Ġag on
Ġtw itch
add le
Ġdes ign
Ġint egr
Ġint ellig
Ġup st
wwww www
Ġrep t
Ġwe ather
Ġsqu ish
Ġaut o
te ch
Ġind ivid
he it
Ġsuper d
erv ille
oad s
for c
Ġu v
Ġat om
Ġrem ember
Ġback p
Ġund es
Ġcomm od
Ġmic row
Ġmic rop
Ġgre as
Ġcro tch
Ġdel iver
Ġcat astroph
lin er
ij k
pro t
Ġdo es
Ġmed i
uts ch
Ġsim il
abb a
abb it
Ġexp ect
Ġunc ont
Ġtim et
abl eness
Ġconc ept
Ġcock s
Ġunf ortun
ress ed
Ġext ra
atter ed
Ġmur d
Ġplay t
omp ing
Ġhyd roc
yyyyyyyy yy
bre aking
load ed
Ġlib r
Ġlib er
Ġbra z
Ġenc our
Ġresp ect
Ġdom est
Ġsan it
Ġlad yb
Ġdoc t
fer ence
Ġobs erv
Ġcart oon
amer ica
Ġju ic
Ġign or
Ġaug ust
Ġdiffer ent
Ġpharm ac
Ġfore ver
Ġfert il
Ġcalif orn
b ec
b ones
b uster
c tion
c ience
d am
d ark
d rop
e us
f ing
f eed
g on
g old
h is
h ur
h op
h awk
i om
j ing
k el
k ie
k ies
m and
m atter
p ill
p art
p oon
r c
r k
t ag
u is
u ates
u ve
w ide
w reck
y k
Ġ ern
Ġ ork
Ġ ugg
Ġ aaaaaaaaaa
in ted
Ġs aa
Ġs end
Ġs eed
Ġs ect
Ġs err
Ġs ams
Ġs sss
Ġs ooth
an ed
an ol
aa k
on ne
Ġc ic
Ġc umb
Ġc aff
Ġc aul
Ġc raft
at an
oo ted
ed g
ed ge
al and
al one
Ġp est
Ġp ff
Ġp ard
Ġp eep
Ġb oth
Ġb aff
Ġb itter
Ġm orm
Ġm ct
Ġm oor
Ġm irr
is sss
or ig
or ation
Ġd eeee
Ġd eth
Ġd ough
Ġd uch
Ġd imm
Ġt n
Ġt ing
Ġt oooo
Ġt able
Ġt ons
Ġt omb
it ely
it ics
it led
it ure
it utes
Ġr w
Ġr aa
Ġr iiii
Ġr oc
Ġr eeeee
le ase
Ġf ay
Ġf rog
Ġh ahah
Ġh ust
Ġh agg
Ġg end
Ġg ett
Ġg uns
ac us
Ġw m
Ġw im
Ġw iz
il k
ur rrr
et i
Ġl aaaa
Ġl oop
Ġl ma
ch os
Ġn h
Ġn un
Ġn ib
os p
Ġe ug
Ġe ps
Ġk u
Ġk ard
Ġk ath
Ġk ash
Ġk ern
id on
ot ics
im en
em aster
em ploy
Ġv et
Ġv ot
Ġv og
Ġv od
Ġv err
Ġv alk
Ġv isc
Ġv axx
Ġun it
Ġun ob
Ġun dr
Ġin qu
Ġin quis
ay t
ay y
st ant
st ory
Ġst ark
op in
Ġch ow
Ġch ast
Ġch anc
Ġch ains
th rough
Ġsh a
Ġsh eep
Ġre aa
Ġre un
Ġre ich
Ġa irl
up le
Ġth al
Ġth anks
if ter
iiiiiiii iiiiii
Ġy ol
Ġy aaaaaa
ib o
Ġsp art
Ġsp ons
ard ly
Ġcon cl
Ġcon cr
Ġcon vert
oc ate
Ġtr ium
ang u
Ġex tern
Ġz o
Ġz er
Ġz an
Ġbl am
Ġbl oom
Ġsc out
ex p
ov ing
Ġcr ay
tr ip
Ġfl ab
Ġfr ustr
Ġal ter
our ces
Ġle mm
app s
app in
tt y
tt ing
Ġsl ug
ber ing
Ġpl a
Ġpl ural
ind ing
ind ers
ial ism
ev a
bl ow
bl ades
Ġad am
Ġad ol
Ġad ult
Ġen joy
Ġco ch
cl othes
Ġdr ac
Ġper man
Ġmar i
Ġsch ed
Ġover p
cr ack
old ers
ail y
int egr
Ġgl as
Ġas st
Ġres on
fr uit
rom agn
enn ec
Ġmc cl
ole m
be am
Ġel der
Ġel ong
oot ers
Ġmis pr
umb a
Ġant on
Ġant ib
Ġap plic
Ġcomp an
Ġag gress
Ġman ag
Ġgu ill
ih ih
Ġwe in
urr ed
eng ine
yb ody
Ġbo at
Ġbo unc
Ġins ign
Ġimp ro
Ġscr ib
yt ic
Ġbro ck
que en
Ġon ly
aaa an
Ġcons ist
eeeee er
ros is
wr ite
Ġsom ething
rain ing
read ing
pe op
tttt tt
ouch e
leg s
uct ure
Ġcur s
apt or
Ġever yth
ench ing
Ġla und
Ġsol id
Ġsyn th
Ġhol y
Ġol ig
Ġpen etr
Ġto ast
Ġcond esc
ba um
elle ct
play er
vent ion
Ġbul let
Ġrock et
Ġmiss p
Ġpow ers
Ġsym b
world problems
Ġmol est
Ġdoc tor
Ġca es
Ġsumm er
wwwwwwww wwwwwwww
Ġvir gin
Ġpa ed
ebo ard
Ġrav en
Ġcompl ain
char ge
Ġcapt ain
Ġquar ter
Ġneigh bor
Ġdro pp
Ġpress ur
Ġecon om
Ġinvest ig
Ġadmin istr
Ġoce an
tob er
Ġfrat ern
Ġhosp ital
Ġproh ib
b v
b est
b eck
b oobs
c us
c ro
c ious
c unt
d os
f ar
f ors
f ighting
g ent
h ee
h air
h ammer
i ative
j udg
k eys
k eeping
l k
l ap
l ips
m ad
m ath
m ade
n av
n ote
n eys
o unt
p u
p unch
p upp
q d
q w
r l
r ide
t om
v ee
w ald
x r
y on
z ie
Ġ ire
er ious
in et
in ent
in ous
in ian
in ting
Ġs es
Ġs ack
Ġs ik
Ġs ans
Ġs ear
Ġs ust
Ġs ail
Ġs earch
Ġs ystem
es on
on ald
on omy
Ġc oooo
Ġc ak
Ġc af
Ġc unn
en ko
ar re
ar gh
oo h
al ising
Ġp ing
Ġp ud
Ġp ey
Ġp oc
Ġp awn
Ġb j
Ġb ess
Ġb ash
Ġb itt
Ġb alk
Ġb org
Ġb isc
Ġm ow
Ġm iz
Ġm cr
Ġm its
Ġm ade
Ġm uj
is d
is n
is an
Ġd as
Ġd if
Ġd ens
Ġd ign
Ġd utch
Ġt v
Ġt ink
Ġt idd
Ġt eeth
it le
it ations
Ġr ous
Ġr ang
Ġr eed
Ġr he
Ġr unn
Ġr rrr
Ġr och
le gg
Ġf on
Ġf ah
Ġf ow
Ġf and
Ġf az
Ġf ake
Ġf ather
as ant
Ġh uu
Ġh eb
Ġh ans
Ġh ight
Ġh ect
Ġh oop
Ġh unn
Ġh ouse
Ġh ahahh
el es
el ier
el ike
Ġg g
Ġg m
Ġg in
Ġg om
Ġg oooooooo
Ġg ull
Ġg aff
ac ular
Ġw en
Ġw ig
Ġw az
Ġw af
Ġw oll
il in
ur ious
ro st
Ġl c
Ġl oy
Ġl yc
Ġl obb
ch l
ch est
Ġn ip
Ġn ann
ion ing
ab us
Ġe ul
Ġk un
Ġk os
Ġk ra
Ġk eb
Ġk erb
id ad
ap le
ag t
ul ators
ec om
um ans
um bo
em et
Ġo y
ah olic
Ġj p
Ġj ad
Ġj eeee
Ġj ah
Ġj ell
Ġj ov
ow ered
st aff
Ġst ubb
Ġst ein
op ian
ist y
ist le
Ġch and
Ġch est
Ġch att
Ġch ore
Ġsh i
Ġsh ut
Ġre ve
Ġre inst
Ġa uf
od en
od ynam
Ġth in
Ġth an
ie vers
all l
Ġy m
ill ary
Ġsp or
Ġsp ro
Ġsp lin
ver ything
Ġcon sequ
ep r
Ġtr il
eg ar
eg ger
eg irls
sh ed
sh aw
art e
Ġbl itz
ew ith
Ġpro w
Ġpro cl
und s
tr ump
ach ine
ock er
Ġfr ight
Ġbr ah
ef ull
Ġgr eed
Ġdis par
Ġan at
zz a
Ġpl ot
yn a
ors es
att i
att o
Ġph osph
Ġam ate
Ġad ren
Ġsk yd
ann el
Ġen l
Ġen light
Ġab us
ins ky
Ġco uld
iss y
Ġsup erst
Ġsup rem
Ġcar ol
Ġper form
uk t
Ġmar in
Ġsch r
Ġsch war
Ġover g
Ġpar ent
Ġem otion
Ġx t
Ġx xxxx
ym p
ym en
Ġgl itch
ern s
Ġas per
Ġrec k
Ġrec om
uff ing
its u
Ġbe le
ert z
co ugh
Ġor ph
fr ame
enn a
row ed
ild a
oph one
ott e
sp eed
ump y
uh n
uss ian
ful s
Ġfor es
Ġag u
Ġag gr
add a
Ġgu ac
Ġkn ee
Ġapp e
Ġapp ear
iel s
alk er
ih u
Ġrep air
Ġrep ublic
Ġwe ath
Ġev ac
Ġaut os
llll ly
Ġind ic
atr on
urr ing
yb ack
Ġop in
opp y
Ġins ur
Ġimp erson
Ġbur d
Ġbur gl
Ġscr ipt
arn a
arn ing
Ġrem in
Ġback s
Ġret ard
Ġcons ider
Ġtur d
Ġbel ly
Ġur eth
ald i
read y
uth er
Ġnot m
Ġpur ch
ogg ers
Ġexp ir
Ġatt en
Ġmus ic
Ġoff s
Ġcur v
Ġkh al
Ġrev olution
erst and
Ġang lic
Ġleg isl
ograph ers
Ġcan ad
ench es
bar bar
eless ness
oj i
oj o
eld a
Ġfir m
agr aph
Ġpos ter
rec tion
asm ic
Ġbut ts
Ġequ iv
Ġneg ot
Ġjust ic
lll ly
aar d
Ġeff ic
ggg hh
bor ough
Ġlad y
ament e
pppp pppp
Ġsubs id
Ġegg s
Ġroll er
Ġthem s
Ġenv iron
wash ing
Ġath e
Ġtemp or
opol is
Ġmother f
Ġdir ty
ahahah ahh
Ġphys i
alal alal
Ġunderst and
Ġvel oc
Ġunr el
Ġpill ow
Ġdup lic
Ġdrag ons
Ġles b
Ġling u
bour ne
Ġexec ut
uberuberuberuberuberuberuberuber uberuberuberuberuberuberuberuber
itut ional
Ġplag iar
Ġcig ar
alright alright
b ath
b ots
c u
c re
c ess
c est
c ell
c ry
c ream
c uts
d ude
e ating
e ater
f re
h ound
i ee
i ately
j oe
k c
l c
l ors
m ob
m asters
n as
n ap
r ig
r ip
t ap
u ish
v id
v ie
w ad
x n
z ip
Ġ iiii
Ġ ith
Ġ ott
er on
er ted
er ting
in en
Ġs g
Ġs ic
Ġs au
Ġs amb
Ġs uns
es w
an ism
aa hh
on f
on st
Ġc g
Ġc en
Ġc un
Ġc ec
Ġc yl
Ġc out
Ġc ush
Ġc aj
Ġc igg
en i
en as
at c
ar as
ar ion
ee x
ee ting
al ong
Ġp ss
Ġp enc
Ġp aj
Ġp ants
Ġb f
Ġb om
Ġb ent
Ġb rr
Ġb up
Ġb eb
Ġb out
Ġb eng
Ġb uch
Ġb ait
Ġm f
Ġm ec
Ġm op
Ġm ey
Ġm ick
Ġm ead
Ġm of
Ġm anc
Ġm oos
Ġm iy
Ġm erk
is st
or ial
Ġd und
Ġd ear
Ġd ich
Ġd af
Ġt ep
Ġt unn
it g
ic ion
Ġr ent
Ġr ik
Ġr ump
Ġr igg
Ġr agn
Ġr aid
Ġr anch
Ġf h
Ġf is
Ġf ii
Ġf um
Ġf uc
Ġf eh
Ġf ok
Ġf ett
Ġf ashion
Ġh amp
Ġh hhh
Ġg rop
Ġg ene
Ġg ift
Ġg ender
ac ement
Ġw ad
Ġw ab
Ġw eg
il ating
ur v
et erm
Ġl aa
Ġl ii
Ġl ill
Ġl ok
Ġl ater
Ġl ips
ch ester
Ġn aaaa
Ġn ach
Ġn of
Ġn ail
Ġn ext
Ġn ether
Ġn intend
ers e
ab an
Ġk ed
id ents
ot ype
ap ol
ent w
im er
im pl
ul ant
ec ent
ec ast
ess sss
em at
Ġv w
Ġv iet
Ġun k
Ġun en
Ġun comp
Ġin ev
Ġj n
Ġj r
Ġj em
Ġj elly
st art
st ands
st yle
Ġst ee
Ġst em
Ġst all
Ġst ell
ist o
Ġch eek
th read
Ġsh ib
Ġsh ack
ip her
ant i
ant on
ant is
ter r
Ġa q
Ġa irc
up ts
od on
od ont
Ġth i
Ġth irst
ub i
ub en
if ty
Ġy t
Ġy oooo
ver ted
Ġcon qu
ep rot
end ent
Ġtr ap
av irus
eeeeeeee eeeee
eeeeeeee eeeeeee
ang led
eb oy
sh e
sh s
sh ell
Ġex pec
aw are
Ġz ig
ew ed
ew ise
ens ional
Ġpr el
Ġpr oof
Ġpr eem
Ġpro pr
Ġpro pos
ans l
aaaaaaaaaaaaaaaa aa
tr ic
ach s
Ġfl irt
Ġfr en
Ġfr ed
Ġfr act
Ġfr eez
Ġfr anch
Ġbr as
Ġbr ay
Ġar gu
ys on
Ġan onym
ph r
ph y
ph et
Ġsl ip
Ġim press
Ġpl ate
Ġpl umb
Ġqu ot
ind ed
ier t
ev ers
ich er
Ġsn ot
Ġen cl
Ġab l
Ġab sc
itt o
Ġcar th
Ġper d
uk ew
Ġmar y
Ġsw ing
Ġsw amp
oy ed
oh olic
Ġem pt
cr atch
ook y
act ory
old ed
erm en
Ġgl itter
anc ies
Ġrec ol
Ġbe er
arr ing
co ats
Ġstr ugg
br and
fl ix
fl oor
com ing
Ġinter rog
ott i
arm ed
esh a
Ġmis con
umb les
Ġant ih
Ġap ost
Ġass oc
Ġmon ster
Ġcomp reh
Ġtw ink
Ġman h
Ġdes per
Ġgu ess
Ġapp ra
ton es
Ġwe apon
ines is
Ġinc est
Ġsuper f
umm er
eng ers
Ġimp oss
Ġhy ster
Ġscr ap
erg y
Ġcomm and
Ġcomm unic
ball ing
Ġsal am
bb b
Ġgre ens
Ġrel ax
Ġret ro
Ġis ol
Ġdel iber
Ġacc us
och ondr
ij i
ular ity
wr iters
Ġref in
yg en
kn ight
zzzz z
Ġrev iew
Ġtim es
Ġah ukew
Ġgod s
iqu ette
Ġann ihil
berg s
Ġwor th
Ġey eb
Ġsand wich
Ġmay b
Ġlab r
burg ers
arian ism
play ed
Ġabs orb
Ġprec ip
Ġcirc le
Ġcirc ums
Ġet ern
Ġpass ion
Ġsym ph
ibr ill
Ġpor tr
Ġbec aus
Ġmen str
ibb les
arch y
Ġbod ys
Ġsumm ar
opath s
iat ly
Ġhab it
Ġwith draw
Ġdim in
Ġsucc ess
bow l
Ġmaster b
Ġrefr esh
Ġmother fuck
cent er
Ġquar ant
Ġsy ll
Ġcrim inal
Ġadm ir
Ġcircum c
undund undund
Ġnoc t
Ġlub ric
ometr ic
Ġfoll ow
ssssssssssssssssssssssssssssssss ssssssssssssssssssssssssssssssss
Ġtotally not
Ġsugg est
Ġarach n
Ġenne ennec
Ġsupercal if
ohmygod ohmygod
b ender
c ation
d ee
d em
d ont
d eck
f inder
f aced
h ome
k v
l ion
m ass
m eg
m ode
n ake
o ic
p es
p ant
p od
p ick
p aw
p ear
q l
r ik
r ys
r unner
t est
u est
v w
w at
w ire
w aff
w ife
x h
x im
y un
y be
z ies
Ġ ore
Ġ ery
Ġ yyy
er at
er ly
Ġs ide
Ġs idd
es ive
Ġc ach
Ġc ym
Ġc rom
Ġc ze
en in
at l
ar an
ar bon
al u
Ġp ets
Ġb ert
Ġb ened
Ġb onk
Ġb acc
Ġb illion
Ġm ing
is y
or ex
or ity
Ġd b
Ġd ac
Ġd ib
Ġd uuuu
Ġd yn
Ġd az
Ġd amm
Ġd eter
Ġd irec
Ġt ill
Ġt orn
Ġt rom
Ġt eet
Ġt oad
it in
it ly
it als
it ively
ic ent
ic ult
Ġr m
Ġr us
Ġr ank
le z
le es
le en
Ġf ag
Ġf oss
Ġf oul
Ġf erg
Ġf itz
Ġf idg
as ms
Ġh ew
Ġh aul
Ġh ims
Ġh ahahahahahahahah
Ġh ammer
un nn
el ight
el ord
el ife
Ġg aa
Ġg ag
Ġg of
Ġg oon
Ġg aur
Ġw l
Ġw ier
Ġw agg
il ess
il ate
il ty
ur ation
et ion
et able
ro up
ro be
Ġl v
Ġl al
Ġl ul
Ġl oot
Ġl ike
Ġl ife
Ġl ength
ch ers
Ġn t
Ġn ex
Ġn ots
Ġn ymph
ol os
ers k
ab outs
ly p
os i
Ġk art
Ġk eep
Ġk ids
Ġk omm
re ally
re pr
re ality
ut an
id ian
ot on
ap or
ig ated
ul ously
ec onom
Ġv ik
Ġv egg
Ġv lad
Ġun ab
Ġun gr
Ġun inter
rr t
ah o
Ġin b
Ġin k
Ġin p
ay e
Ġj ib
Ġj ets
Ġj osh
Ġj umps
st y
st ars
Ġst ef
Ġst ead
Ġst ars
est ly
est one
Ġch up
Ġch av
Ġch arg
th eh
th oughts
Ġsh w
Ġsh oo
Ġsh iz
Ġsh utt
ant z
Ġre x
Ġre ins
iz on
Ġth y
Ġth et
Ġth om
Ġth reat
ub d
ub ble
Ġy es
Ġy oo
Ġy os
Ġy ep
ug ar
ug ger
ill ers
ud i
Ġsp el
Ġsp end
ell for
ian i
ast ically
eb a
sh ift
Ġex agger
Ġz or
Ġbl ue
Ġsc oo
ew ater
Ġwh atch
Ġwh ole
ath a
ex y
ex ed
ov s
ens ed
ens ible
Ġpr en
Ġpro g
Ġpro ud
Ġpro ct
pl ess
pl ane
Ġcr edit
und a
tr ap
Ġfl att
Ġfr ig
Ġfr igg
Ġfr eem
Ġbr ack
Ġbr agg
Ġar e
Ġgr y
gg hh
ain able
ain ted
ain ment
Ġle ad
Ġdis ap
Ġdis ney
Ġdis bel
Ġcom press
man ia
Ġan yw
Ġcl iff
Ġcl uster
Ġqu art
Ġqu izz
ism o
yn c
Ġac comp
ev ol
Ġph s
Ġph yl
of a
Ġsk yw
Ġab h
cl ock
orm al
yp s
yp ants
Ġsup press
Ġover c
ect ors
act ly
act ively
mmmm mmm
pp ing
gr en
gr ade
ator ial
ator ium
ix es
Ġsub c
Ġsub l
Ġbe ach
Ġstr uct
enc ial
enn ah
enn ial
ere al
au e
ush a
ign ment
Ġel im
Ġinter l
Ġinter m
Ġhe ff
Ġse lect
uh l
Ġdec or
ai j
ai y
Ġass ass
Ġkn uck
Ġapp le
iff e
ane ously
off ice
yc at
sc ape
Ġins ert
for th
ips y
Ġfuck ing
izz a
ict ive
ene z
que aks
Ġmic ron
Ġcons ult
Ġacc ord
Ġid iot
pos ting
wr ight
Ġur ban
Ġmil itar
Ġmac ro
tttt ttt
Ġmo z
Ġimm obil
Ġconf orm
kn ife
oin ting
ask et
aul ts
Ġend e
Ġhyp oth
Ġhyp ocr
box ing
roll er
Ġleg ion
Ġrad ical
Ġchr is
Ġcan v
ubb ies
obb ing
Ġdet on
Ġmicro b
Ġdown s
Ġpart icul
Ġpo ison
Ġpot ter
Ġexpl o
agr ee
Ġye a
Ġsem ic
Ġpsych oan
Ġlib ert
Ġnec es
Ġabs ent
Ġill ustr
Ġinn ov
Ġsat ir
Ġpow erb
Ġphil ipp
osc opy
Ġren ov
Ġprof ession
Ġox id
ylalanyl alanyl
esth etic
inh o
crib ing
Ġpun ish
opath ic
Ġmist r
Ġcorr esp
mark et
Ġchick en
Ġthro ugh
did n
Ġperf ect
Ġultr as
Ġplan et
Ġauth ent
Ġliqu id
Ġrandom acts
open open
Ġnarc iss
Ġrein v
Ġfab ric
Ġphen omen
Ġgra ff
rrrrrrrrrrrrrrrrrrrrrrrrrrrrrrrr rrrrrrrrrrrrrrrrrrrrrrrrrrrrrrrr
Ġfamil iar
ibil ities
gro up
mil k
Ġwhate ver
Ġcongr at
onte ennah
iiiiiiiiiiiiiiiiiiiiiiiiiiiiiiiiiiiiiiiiiiiiiiiiiiiiiiiiiiiiiiiiiiiiiiiiiiiiiiiiiiiiiiiiiiiiiiiiiiiiiiiiiiiiiiiiiiiiiiiiiiiiiiiiiiiiiiiiiiiiiiiiiiiiiiiiiiiiiiiiiiiiiiiiiiiiiiiiiiiiiiiiiiiiiiiiiiiiiiiiiiiiiiiiiiiiiiiiiiiiiiiiiiiiiiiiiiiiiiiiiiiiiiiiiiiiiiiiiiiiiiiiiiiiiiiiiiiiiiiiiiiiiiiiiiiiiiiiiiiiiiiiiiiiiiiiiiiiiiiiiiiiiiiiiiiiiiiiiiiiiiiiiiiiiiiiiiiiiiiiiiiiiiiiiiiiiiiiiiiiiiiiiiiiiiiiiiiiiiiiiiiiiiiiiiiiiiiiiiiiiiiiiiiiiiiiiiiiiiiiiiiiiiiiiiiiiiiiiiiiiiiiiiiiiiiiiiiiiiiiiiiiiiiiiiiiiiiiiiiiiiiiiiiiiiii iiiiiiiiiiiiiiiiiiiiiiiiiiiiiiiiiiiiiiiiiiiiiiiiiiiiiiiiiiiiiiiiiiiiiiiiiiiiiiiiiiiiiiiiiiiiiiiiiiiiiiiiiiiiiiiiiiiiiiiiiiiiiiiiiiiiiiiiiiiiiiiiiiiiiiiiiiiiiiiiiiiiiiiiiiiiiiiiiiiiiiiiiiiiiiiiiiiiiiiiiiiiiiiiiiiiiiiiiiiiiiiiiiiiiiiiiiiiiiiiiiiiiiiiiiiiiiiiiiiiiiiiiiiiiiiiiiiiiiiiiiiiiiiiiiiiiiiiiiiiiiiiiiiiiiiiiiiiiiiiiiiiiiiiiiiiiiiiiiiiiiiiiiiiiiiiiiiiiiiiiiiiiiiiiiiiiiiiiiiiiiiiiiiiiiiiiiiiiiiiiiiiiiiiiiiiiiiiiiiiiiiiiiiiiiiiiiiiiiiiiiiiiiiiiiiiiiiiiiiiiiiiiiiiiiiiiiiiiiiiiiiiiiiiiiiiiiiiiiiiiiiiiiiiiiii
Ġarb itr
Ġprono unc
resp ons
Ġrepres ent
Ġenneennec onteennah
a ids
b ike
b ending
c reen
d j
d an
d al
d ies
d aw
f its
f are
f illed
f ires
g end
g iving
h all
h ate
h elp
j es
j acks
k et
l ug
l ast
l ide
l ift
m ap
m ill
m ash
m ort
n ip
n ud
p ent
p ots
q o
q v
r ah
r itis
u et
u ild
v ii
v ision
w ow
w ist
w ins
x b
x ed
y in
z c
Ġ ia
Ġ ally
Ġ oll
Ġ ush
Ġ ome
Ġ oooooooooooooooo
Ġ aaaaaaa
in ol
in nnnn
Ġs ind
Ġs ull
Ġs onn
Ġs uv
an ist
aa y
on ce
Ġc et
Ġc th
Ġc ull
Ġc ork
Ġc asc
at um
at ine
ar ent
ar ius
ee y
ee ed
ed on
al le
al us
al ous
al ds
al izes
Ġp ah
Ġp app
Ġp unk
Ġp oof
Ġb n
Ġb ure
Ġb aaaaaa
Ġm b
Ġm i
Ġm ett
Ġm ats
Ġm ank
Ġm agg
Ġm eek
is ss
Ġd p
Ġd ess
Ġd ix
Ġd inn
Ġt i
Ġt os
Ġt ie
Ġt ass
Ġt ach
Ġt ier
Ġt aj
Ġt aur
it ous
it ary
it ler
ic as
ic ient
Ġr ant
Ġr ast
Ġr amb
Ġr uth
le men
Ġf p
Ġf aaaaaaaa
Ġf ff
Ġf ight
Ġf uf
Ġf ucc
as ian
Ġh j
Ġh oooooooo
Ġh af
Ġh oy
Ġh oh
Ġh ott
Ġh ound
Ġh abl
Ġh iro
el b
Ġg ef
Ġg our
Ġg ong
Ġg asp
Ġg raf
Ġg lyc
ac ad
Ġw ur
Ġw re
Ġw att
Ġw ins
Ġw eep
Ġw izz
Ġw oul
Ġw ien
Ġw azz
Ġw alt
us ively
il ers
ur ge
hh e
ad ow
Ġl ax
Ġl add
Ġl oooooo
Ġl awn
ch al
ch uck
Ġn k
Ġn ac
Ġn ab
Ġn ub
Ġn ear
Ġn ond
Ġn nnnn
Ġn oob
Ġn urs
Ġn othing
ab led
ab aby
os n
Ġe in
Ġe ag
Ġk s
Ġk ent
Ġk ep
Ġk yl
Ġk etch
re qu
ut ton
id h
id al
id as
id ently
ig ator
im ing
ec s
ec es
em o
em aker
Ġv a
Ġv old
Ġo e
Ġo ft
Ġun app
Ġun res
Ġun rec
ah aa
Ġin acc
st ud
st roke
iv en
Ġst rom
Ġst eak
Ġst igmat
and om
Ġch air
Ġsh t
Ġsh y
Ġsh an
Ġsh ant
Ġsh ik
Ġsh az
Ġsh imm
Ġre arr
og i
og ist
Ġa unt
up on
od ia
od ge
Ġth icc
ie z
if l
if ed
if ing
ra id
Ġy ar
Ġy um
Ġy od
Ġy ok
ug er
Ġsp an
Ġsp ag
ia e
ia o
oc us
oc tor
Ġtr ac
Ġtr ades
ass hole
eg h
sh ake
Ġex ac
aw ak
Ġz s
Ġz y
Ġz el
Ġz ak
Ġsc raw
Ġwh e
Ġwh en
ov ies
ens en
ens ions
Ġpr er
Ġpr ag
Ġpr ud
pl er
Ġcr ush
tr ack
ach o
Ġfr edd
Ġfr eef
Ġbr end
Ġbr ush
Ġbr ief
Ġar rrr
Ġgr is
Ġgr ump
Ġle f
Ġdis com
Ġdis miss
Ġcom plic
Ġan ch
Ġan om
Ġcl oth
Ġpl ast
Ġqu icks
ier re
att e
bl ers
bl ast
Ġad or
Ġad op
Ġen f
cl er
Ġcar e
Ġmar ij
Ġover wh
Ġem er
Ġpre fer
io x
Ġx er
int ig
ical ity
anc o
ern er
Ġrec ruit
arr ied
co in
err ies
Ġte ach
Ġne k
Ġmc s
au ch
ole t
oph iles
ung us
Ġse ag
Ġse af
Ġse ason
uh uh
Ġdec ap
aj o
uss ions
wh ite
Ġout p
ual y
Ġmon oc
Ġcomp lex
Ġag ress
Ġint ent
fuck fuck
Ġrep roduc
Ġunder p
Ġsqu irt
str uction
land ers
Ġdef orm
ines c
ines e
Ġind ian
Ġimp e
Ġu f
aus en
Ġmal t
arn ed
Ġpe an
Ġund ersh
Ġcomm em
Ġcro c
Ġcro s
Ġcro ch
oe ver
Ġcat ap
amb a
ssssssss s
Ġbel g
Ġav ail
Ġom g
yth e
Ġhum ans
Ġnot ic
Ġsim ult
Ġpur p
other apy
Ġhead s
Ġreg ener
Ġrad io
Ġchr ys
Ġdown v
Ġdiss app
Ġext rav
Ġpres ent
Ġtra umat
Ġgrand p
Ġcoll abor
Ġro ast
Ġbas ic
Ġphot osh
rew s
por ted
ward ly
Ġresp ond
Ġpow der
uls ion
Ġbor der
idg es
Ġfa ith
Ġcann on
Ġopp ortun
Ġmeth od
opl asty
ware zm
Ġsens ational
Ġmich ael
Ġadv oc
Ġmom ent
Ġgig ant
Ġdeg ener
Ġrid icul
char acter
Ġque ens
Ġmidd les
Ġfig ur
Ġflav or
pen is
Ġgast ro
Ġagg rav
Ġpix el
Ġincon ven
atat atat
Ġincomp et
oooooooooooooooooooooooooooooooooooooooooooooooooooooooooooooooo oooooooooooooooooooooooooooooooooooooooooooooooooooooooooooooooo
Ġanthrop omorph
Ġvig il
Ġprior it
Ġostr ac
Ġcong reg
jjjjjjjjjjjjjjjjjjjjjjjjjjjjjjjjjjjjjjjjjjjjjjjjjjjjjjjjjjjjjjjj jjjjjjjjjjjjjjjjjjjjjjjjjjjjjjjjjjjjjjjjjjjjjjjjjjjjjjjjjjjjjjjj
Ġcyb ers
Ġeuth an
apf apf
clap clap
Ġcontext ual
meth ion
Ġosc ill
entw intig
b yn
b eds
c aster
c ept
c aps
c ases
d ers
d addy
f b
f ound
g asm
h ou
i ams
j esus
j ohn
k ick
l ite
l ists
m g
m el
m ond
m are
n in
n ic
n ig
r ats
s im
s ite
t ly
u id
v h
v ar
v ah
w ant
w ipe
w urst
z an
Ġ uuu
Ġ oooooooooo
er ous
er ence
Ġs aaaa
Ġs ly
Ġs ok
Ġs oll
Ġs enn
Ġs aur
Ġs uf
Ġs eph
an ium
on ally
on aut
Ġc i
Ġc ack
Ġc rav
Ġc abb
Ġc ums
ar ter
ar ie
oo w
al ad
Ġp ess
Ġp ug
Ġp ob
Ġp ou
Ġp oot
Ġp ays
Ġp ffff
Ġp iec
Ġp icc
Ġb uuuu
Ġb oc
Ġb uh
Ġb oooooo
Ġb etr
Ġm g
Ġm oc
Ġm ok
Ġm orn
Ġm yp
Ġm old
Ġm au
Ġm edd
Ġm oss
Ġm etr
Ġm urr
is ive
is cr
or as
or ter
or row
Ġd f
Ġd all
Ġd ous
Ġd oy
Ġd ull
Ġd unn
Ġd rain
Ġt x
Ġt z
Ġt iiii
Ġt ian
Ġt oc
Ġt ost
Ġt urr
Ġt ops
Ġt yph
Ġt oxic
it ably
it udes
Ġr c
Ġr p
Ġr af
Ġr iff
Ġr azz
le ad
Ġf aw
Ġf ann
Ġf ont
Ġf uh
Ġf ars
Ġf actor
Ġf eels
as i
as ic
Ġh ull
Ġh umb
Ġh add
Ġh erc
Ġh ersh
Ġh isp
un ger
el ers
el se
el ines
Ġg j
Ġg ass
Ġg und
Ġg ou
Ġg yr
Ġg onn
Ġg inger
ac in
ac re
Ġw aw
Ġw arg
Ġw aaa
Ġw ooo
us ch
il ated
ur ity
ur ry
am ble
et ies
ro e
Ġl h
Ġl s
Ġl ung
Ġl oog
Ġl iver
ch u
ch in
ch rom
ch ief
ch ecks
Ġn w
Ġn al
Ġn ir
Ġn oon
Ġn ame
Ġn oooooooooooooooo
ol ing
ol ving
ly t
os ity
Ġe uc
Ġk m
Ġk ang
Ġk ik
Ġk uk
Ġk amp
Ġk omb
Ġk ais
re ated
ut ting
ap ons
ig es
ig ation
ul er
ul ed
ul ts
ec d
ec at
ec onds
um en
um ph
em ble
em akers
Ġv h
Ġv t
Ġv asc
Ġv agu
Ġo j
Ġun us
Ġin oc
ay an
Ġj arr
Ġj oin
st an
st ain
st erd
Ġst uff
Ġst ory
ck kk
est ion
Ġch it
Ġch ard
Ġch au
Ġch alk
Ġch ubb
th ep
Ġsh al
Ġsh ur
Ġsh oot
Ġsh amp
qu ad
ip ers
Ġre a
Ġre ff
Ġre app
og ical
Ġa ub
Ġth ep
Ġth eh
Ġth isis
ub ing
ie u
if a
if ers
Ġy or
Ġy uuuu
Ġy umm
ob o
ob er
ver b
ard en
ey ing
ey ard
oc tr
Ġtr amp
Ġtr ipp
Ġtr ench
ass ic
av i
nn e
eb ob
eb acks
eb omb
sh i
sh are
ik in
Ġz amb
Ġbl acks
Ġsc at
Ġsc ap
Ġsc av
ew ing
ew ays
ath ered
Ġpr ank
Ġpr int
Ġpro te
pl aces
ans e
Ġfl ick
Ġfl ight
Ġfl oat
Ġbr at
Ġbr is
Ġal f
Ġal ab
Ġal tr
ys ics
Ġle p
Ġdis k
Ġcom fort
oooooooo ooooo
Ġcl ing
Ġcl air
eh a
per ience
Ġsl id
ons on
Ġpl ays
ind le
ou x
ial ist
yn th
ear th
ead y
Ġac id
att ack
ev elop
az a
Ġam p
bl in
bl ack
Ġsk ate
af s
Ġsn uff
Ġsn ork
Ġsn ipp
oth ers
out e
Ġab n
Ġab str
Ġco le
Ġco un
cl ip
cl oth
Ġsup ple
Ġper ce
Ġper me
ost ic
Ġsw ear
Ġsm oo
Ġsm eg
Ġsm ash
int y
Ġgl amor
Ġas ter
Ġrec o
Ġsub j
Ġbe ac
Ġres id
Ġstr ing
br ed
fl ies
enc er
com a
ace ous
Ġhe in
let a
amp ton
uh d
Ġme ats
itch ed
Ġdec rim
ets u
wh o
wh ich
Ġant ig
Ġant iqu
Ġcomp at
Ġag ree
gl asses
bur gh
Ġgu it
Ġgu ine
iff y
Ġup h
Ġup r
eck er
ih ad
fuck ers
Ġsqu eez
Ġmin i
str ing
Ġev ey
te ens
Ġred neck
igg a
igg ers
Ġtrans p
Ġbre x
sc reen
rrrrrrrr rr
erv ice
Ġop press
opp in
Ġhy g
Ġir reg
oor s
Ġmal d
Ġhom er
ict or
Ġbro t
Ġrem ed
ble m
Ġon c
Ġnon con
Ġcor ps
Ġund ec
Ġmet ast
Ġcomm on
ball ed
Ġcal m
unc tions
unch ing
eez us
Ġacc ess
Ġele ment
ogr ams
wr itten
Ġur b
aps es
Ġbab yb
Ġsom n
Ġmo zz
Ġimm igr
erk ing
Ġinst inct
Ġdev ast
uv a
aul s
Ġtim ber
Ġdist urb
de ath
Ġdet ox
Ġdown t
Ġval u
Ġval id
Ġmel an
Ġgar b
Ġart icul
Ġol iv
Ġpres erv
Ġpers u
Ġrob ot
form ed
form ing
Ġtro l
Ġhyd r
mon ey
Ġpop c
load ing
Ġro ug
Ġfil m
Ġcent ral
Ġped ic
Ġfin anc
Ġpet ro
Ġwind ow
war ts
iii ing
ocr atic
Ġprot ect
Ġdig ital
Ġask reddit
Ġmer ch
Ġcontr ad
Ġprof ess
ige on
Ġlev ios
Ġson of
Ġtot al
Ġwa ist
walk ed
Ġcand y
eful ness
Ġnos tr
Ġeh r
Ġoct op
Ġpub l
Ġsing le
Ġsucc es
Ġdest abil
Ġvac ation
Ġliv est
Ġthro at
Ġdistr ibut
met al
Ġbest of
Ġpuss y
Ġvict or
alg ia
Ġkir k
Ġacqu aint
col or
Ġagg reg
Ġmean ing
Ġmount ain
Ġtay lors
Ġgoog le
Ġcham ber
Ġdiscr im
aspart ylalanyl
Ġsubst ant
coolcool coolcool
charg ed
ubwubw ubwubw
Ġmarg inal
uuuuuuuuuuuuuuuuuuuuuuuuuuuuuuuuuuuuuuuuuuuuuuuuuuuuuuuuuuuuuuuu uuuuuuuuuuuuuuuuuuuuuuuuuuuuuuuuuuuuuuuuuuuuuuuuuuuuuuuuuuuuuuuu
wal ks
eeeeeeeeeeeeeeeeeeeeeeeeeeeeeeeeeeeeeeeeeeeeeeeeeeeeeeeeeeeeeeeeeeeeeeeeeeeeeeeeeeeeeeeeeeeeeeeeeeeeeeeeeeeeeeeeeeeeeeeeeeeeeeeeeeeeeeeeeeeeeeeeeeeeeeeeeeeeeeeeeeeeeeeeeeeeeeeeeeeeeeeeeeeeeeeeeeeeeeeeeeeeeeeeeeeeeeeeeeeeeeeeeeeeeeeeeeeeeeeeeeeeeeeeeeeeeeee eeeeeeeeeeeeeeeeeeeeeeeeeeeeeeeeeeeeeeeeeeeeeeeeeeeeeeeeeeeeeeeeeeeeeeeeeeeeeeeeeeeeeeeeeeeeeeeeeeeeeeeeeeeeeeeeeeeeeeeeeeeeeeeeeeeeeeeeeeeeeeeeeeeeeeeeeeeeeeeeeeeeeeeeeeeeeeeeeeeeeeeeeeeeeeeeeeeeeeeeeeeeeeeeeeeeeeeeeeeeeeeeeeeeeeeeeeeeeeeeeeeeeeeeeeeeeeee
Ġbask et
oca ust
Ġorch estr
Ġana esth
Ġreee aa
Ġadul ter
Ġrecip roc
Ġasph yx
Ġmanuf act
Ġmetam orph
Ġcorresp ond
Ġrandomacts of
Ġenneenneconteennah ect
a uth
b ah
b end
b ier
b ite
b ush
b oop
b ows
b oots
c ad
d t
g ia
g ender
h y
h ot
i ou
j ak
j oke
k g
k ad
k om
m und
m ong
n ant
n ew
p ah
p ads
p aper
r one
r idge
t os
t ops
t ube
u ks
w en
w alls
w aves
z oned
Ġ ix
Ġ uss
er as
er ating
in qu
Ġs ist
Ġs ssss
Ġs ink
es ome
an et
on en
on is
Ġc ess
Ġc ok
Ġc air
Ġc inc
Ġc inder
en ant
at al
at ra
ar ine
oo oon
ed ent
al ic
al os
al ie
Ġp b
Ġp k
Ġp v
Ġp ang
Ġp ine
Ġp our
Ġp az
Ġp atch
Ġp aus
Ġp yth
Ġp onder
Ġb im
Ġb ie
Ġb ish
Ġb ich
Ġb af
Ġb old
Ġb uss
Ġb are
Ġm v
Ġm eeee
Ġm ile
Ġm mmmmmmmm
Ġm ask
is u
is able
or is
or ec
Ġd us
Ġd oh
Ġd ail
Ġd row
Ġd ih
Ġd ext
Ġt oot
Ġt ipp
Ġt oss
ii it
ii ir
it en
it ant
it ud
it ism
ic all
Ġr igh
Ġr eth
Ġr ush
Ġr asc
Ġr oz
Ġr ule
Ġr ofl
Ġf b
Ġf od
Ġf ord
Ġf ace
Ġf ield
as ers
Ġh c
Ġh mm
Ġh uuuu
Ġh uck
Ġh eg
Ġh ong
Ġh ord
Ġh orm
Ġh ail
Ġh ark
Ġh ugg
Ġh off
Ġh oof
Ġh nnn
Ġh eheheheh
un ism
el n
el en
el iv
el ter
el ian
Ġg p
Ġg ed
Ġg aaaa
Ġg ung
aaaa ah
ac an
ac ia
Ġw ang
Ġw ww
Ġw ors
Ġw ond
Ġw idd
il ts
il ize
il istic
il iar
ur ally
am ines
et us
ad ay
ad der
Ġl ash
Ġl oth
Ġl amin
Ġn iiii
Ġn eeee
Ġn og
Ġn ix
Ġn oooooo
Ġn ihil
ol ith
om et
om eters
ion ic
ab ies
os se
os ure
Ġe ight
Ġk j
Ġk ac
Ġk us
Ġk ann
Ġk ins
ut ation
id id
id ness
ap o
ap an
ap ist
ap se
ag ne
ig l
im as
um ents
oooo on
ess en
ess ssss
Ġv ery
Ġv inc
Ġo le
Ġo hh
Ġun ib
Ġun kn
Ġun acc
Ġin ad
ay o
Ġj as
st ate
iv ist
iv ism
Ġst u
Ġst ad
Ġst ack
Ġst ates
Ġst agn
ck kkkk
ist ical
est e
Ġch app
Ġch ann
Ġch ipp
th al
th ink
th alm
Ġsh n
Ġsh im
Ġsh ou
Ġsh irt
ip ot
ip ated
Ġre gg
Ġre gress
Ġre lev
Ġa uss
up id
up ting
Ġth o
Ġth ur
Ġth orn
Ġth ings
Ġth ird
all er
ra i
ra el
ra ve
Ġy u
Ġy ow
Ġy add
ug u
ill os
Ġsp awn
ey ey
ick et
Ġtr ache
Ġtr igger
Ġtr iang
ass i
ate ver
av an
av al
av ia
eg al
eg uy
sh ark
sh ows
Ġex orc
Ġz ar
Ġz ool
Ġsc am
Ġsc ler
Ġwh itt
Ġwh ipp
ath y
yl s
Ġpr i
Ġpr ick
Ġpr esc
Ġpro per
ans on
ach us
Ġfl ak
Ġfl oss
Ġfl ower
Ġfl utter
Ġbr ing
Ġbr ood
Ġal ch
Ġle ather
Ġdis orient
Ġan arch
Ġcl ose
Ġcl itor
Ġcl aud
eh ole
ok in
ok ay
Ġsl urp
ons e
Ġim plic
Ġqu een
ks k
bo is
ead ing
ev el
ev ent
Ġam o
Ġam put
Ġad h
Ġad mon
ment ing
Ġen qu
out ing
Ġab out
Ġab cd
Ġco z
hhhhhhhh hhhhhh
cl an
Ġsup ert
uk es
Ġmar ri
Ġsch e
Ġsm e
Ġsm ug
Ġover dr
Ġpar r
Ġpar th
ax is
Ġx an
age ous
ps y
Ġgl en
Ġgl oss
Ġrec ept
ore al
led g
co on
Ġte k
Ġstr ip
unt a
com b
com s
Ġmc f
Ġmc gr
au h
ign on
aph one
Ġel on
Ġinter est
Ġinter pr
oph ag
ott le
let ter
Ġse am
Ġde le
inn a
aaaaaa h
ump f
esh it
esh op
Ġdec im
umb s
wh eels
Ġant icip
Ġout g
Ġass hole
Ġmon olog
Ġmon arch
bur s
bur st
Ġdes ensit
Ġint uit
Ġint erst
Ġint oxic
ahahahah aha
els on
Ġrep et
Ġrep eat
Ġunder r
Ġsqu ar
Ġsqu ee
Ġmin or
Ġmin ip
Ġdef l
Ġinc ap
ugg et
Ġind ent
me ow
eng es
Ġins ec
ake up
dr agons
sk a
for ge
con f
yt own
Ġdi arr
uch t
Ġcont ra
Ġback sl
Ġall erg
Ġgre y
Ġrel at
Ġent repr
Ġob t
ae a
ae us
udd ing
unch ed
osh a
Ġhand ic
oe k
ma id
ma ids
Ġgro uch
Ġbel iev
Ġkr ak
Ġav oid
Ġsom eh
Ġmac ar
Ġref urb
Ġaw ak
ogg y
Ġdev el
Ġdev il
Ġcur sed
Ġtre as
Ġconf ig
iiiiii t
Ġfac et
roll ers
ograph s
Ġbi od
Ġsil vers
Ġaf gh
Ġann ounc
oman iac
Ġic ec
omm y
Ġspl end
Ġspl ash
Ġmem e
Ġdiss oc
ress es
Ġso ap
Ġlo ung
Ġoo h
Ġvol t
Ġfir est
Ġexpl os
Ġast rol
Ġspr ay
Ġcond ens
bre akers
Ġest im
Ġcop y
Ġcop per
par ent
Ġtele v
Ġbull shit
fish ing
Ġphot oc
urn ing
ocr at
Ġder p
med ia
osc op
ogen esis
Ġhow d
illion aire
Ġho ard
ypt ic
ypt oph
Ġox yc
Ġextr ac
glut aminyl
hol der
umbl ing
walk ers
Ġeg ypt
Ġum br
Ġreh abil
Ġhall ow
ifer ous
Ġobl iter
leucyl leucyl
wash ed
Ġcorr el
right y
Ġpriv at
Ġans w
Ġmes mer
Ġinh ib
Ġcoo per
Ġrid ic
cover ed
Ġfund ament
Ġvide oc
Ġtran quil
zzzzzzzz zzzzzzzz
Ġfal con
Ġcult iv
Ġtatt oo
heim er
Ġfra ud
Ġcarm el
lele lele
Ġuncom fort
Ġgym n
run run
udamudamudamudamudamudamudamudam udamudamudamudamudamudamudamudam
Ġgoos eb
Ġunfor g
Ġcryst all
epe ople
Ġkinder g
Ġcoor d
Ġtriv ial
Ġspagh ett
Ġexter min
fet ish
Ġblas ph
Ġsupercalif rag
queaks queaks
b ish
b its
b oom
b ane
b utter
c le
c amp
d le
d ream
e ers
e art
f am
f ut
f ax
f eet
f acts
g aming
h al
h igh
h arm
h uman
h aven
i eth
j g
j ud
j ew
k z
k is
l ash
m ac
m ur
m ys
m ax
n or
n ir
n ail
o um
p ts
p ens
p ong
p ocalypse
p ieces
r est
r ia
t ic
t as
t ags
t imes
t ails
u all
v ol
w u
w om
w ap
w art
x l
x z
y v
z j
Ġ able
Ġ ugh
Ġ eeeeeeeeeeeeeeee
Ġ atch
Ġ ooooooo
in m
in em
in ite
Ġs ot
Ġs ow
Ġs all
Ġs app
Ġs out
Ġs ush
Ġs yd
Ġs aut
Ġs iph
Ġs yph
an on
an or
an ity
Ġc f
Ġc ip
Ġc app
Ġc yt
Ġc itr
en ium
at err
at ement
at oes
ar ey
ar se
ar oos
ar coma
ed ay
ed uc
ed evil
al ien
Ġp aa
Ġp oooo
Ġp iz
Ġp sh
Ġp oth
Ġp amp
Ġp utt
Ġp eek
Ġp egg
Ġb rrrr
Ġb orn
Ġb yp
Ġb ork
Ġb eel
Ġb ux
Ġb ooo
Ġb ooks
Ġm ism
Ġm ox
Ġm uss
Ġm oul
ing t
is che
or h
or ah
or st
or rrr
Ġd g
Ġd aaaaaaaa
Ġd ian
Ġd ik
Ġd uc
Ġd eed
Ġd ere
Ġd ung
Ġd ipp
Ġd oop
Ġd uel
Ġd rown
Ġd ifer
Ġt us
Ġt uck
Ġt oh
Ġt ark
Ġt opp
Ġt iny
ii ing
ic ist
ic ia
ic ates
ic ists
Ġr l
Ġr und
Ġr ott
Ġr ams
Ġr isk
Ġr alph
le ader
Ġf old
Ġf ile
Ġf uuuuuuuuuuuuuuuu
as st
as aur
Ġh iiii
Ġh iv
Ġh ool
Ġh eee
Ġh enn
Ġh oot
Ġh uss
Ġh unk
Ġh oooooo
Ġh ots
Ġh ubb
Ġh eheh
un h
el as
el st
Ġg b
Ġg os
Ġg ub
Ġg au
Ġg umb
Ġg unn
aaaa hhhh
Ġw n
Ġw p
Ġw ob
Ġw ach
Ġw eee
Ġw arn
Ġw obb
il o
il us
il ater
ur ers
ur ns
am az
et c
et ical
ad in
Ġl id
Ġl ant
Ġl ate
Ġl of
ch r
ch lor
ch anging
Ġn j
Ġn v
Ġn z
Ġn es
Ġn ation
Ġn yl
Ġn ort
Ġn oh
Ġn orr
Ġn aught
ol ig
ol ow
ol ia
om ics
om antic
ab by
ab ble
uu ug
os up
Ġe un
Ġe id
Ġk ut
Ġk th
Ġk ans
Ġk ong
Ġk ook
Ġk arn
Ġk uz
ot us
ot rop
ap ital
ent ive
im ic
ec ess
ir y
ir ate
ir med
ess el
em ean
Ġv ie
Ġv ast
ah ed
Ġin spir
ay yy
Ġj f
Ġj ux
Ġj uj
st ing
iv o
iv ley
Ġst am
Ġst if
Ġst ry
Ġst abb
Ġst omp
op ard
Ġch i
Ġch oo
Ġch ad
Ġch ub
Ġch ich
th an
Ġsh akes
qu atch
qu ito
ip a
ant ine
Ġre ac
Ġre yn
Ġre organ
ter m
iz o
og on
og yn
Ġa im
Ġa fl
Ġa ird
up tion
Ġth ew
Ġth ats
ie fs
if u
Ġy s
Ġy eeeee
ud en
ib uted
ous ing
Ġsp re
Ġsp ill
Ġsp ace
Ġsp azz
Ġsp eech
ob by
ep ts
ick i
ian n
ian ism
oc aine
end ant
Ġtr ess
Ġtr ape
ass a
av age
nn a
nn g
eb t
eb and
ll ing
eg ame
sh a
sh ack
sh ops
Ġex ting
aw w
uc er
Ġbl eed
Ġbl ues
Ġsc all
Ġsc our
Ġsc iss
Ġsc ott
Ġsc ienc
ew are
Ġwh ol
Ġwh isp
ex es
ov ol
ov ey
ity s
Ġpr iest
pl osion
Ġcr yp
Ġcr esc
Ġfl o
Ġfl ee
Ġfl int
Ġfl ipp
Ġfr eeee
Ġfr ick
Ġbr ak
Ġbr eez
Ġal z
Ġal le
Ġar o
Ġar che
Ġgr ant
Ġgr izz
Ġgr imm
gg hhhh
ain es
ain ts
ain ting
Ġdis em
Ġdis gu
Ġan aly
ph ia
eh t
eh am
ok i
Ġsl ing
Ġsl ur
Ġsl ov
ber ts
Ġpl ut
Ġpl um
Ġqu er
bo ut
yn thes
ier i
ier es
ight ly
Ġac co
ev iew
Ġph t
Ġam n
bl og
of r
ment e
ment ally
Ġsn o
Ġen r
Ġab ol
Ġcar s
Ġcar amel
ith m
Ġper for
Ġsw ind
oy d
oy ing
Ġsch ol
Ġsm ir
eed le
Ġpar aly
Ġem ber
ook ies
act ually
act ivity
Ġx d
Ġx l
erm ic
int el
gr ass
Ġrec over
Ġsub tr
Ġbe ard
Ġbe aur
Ġor a
Ġor eg
Ġor der
fr ank
Ġne on
com ments
oon ing
Ġel iz
Ġel ast
Ġinter pret
oph ones
oph obe
Ġse k
Ġse aw
Ġde j
inn i
Ġme al
Ġmis er
Ġdec re
wh ore
wh oles
Ġout door
Ġass im
Ġass em
Ġfor eg
gl ass
Ġtw os
Ġtw eet
Ġman ic
Ġdes k
oss a
Ġapp et
Ġpol ys
Ġpol yn
Ġpol yg
ft y
ahahahah ahaha
Ġrep e
Ġev il
Ġinc ub
Ġinc entiv
te enth
ugg in
Ġind ec
ale k
igg y
Ġtrans port
idd y
yc in
yc ats
Ġbo ul
inc es
inc ess
Ġimp regn
con tr
aff ed
Ġat mos
Ġhom os
Ġhom ogen
Ġscr ee
uch e
Ġcont ent
Ġi ro
aaa hh
Ġps ued
erd e
Ġret ail
och e
Ġcat alog
lin ks
yst ems
dddd ddd
ssssssss ss
ient e
ij n
iy ah
itz el
pt ic
Ġref lex
Ġref lect
Ġhum id
Ġge oc
ux es
Ġmo ons
Ġthe od
Ġsim ps
Ġaa r
Ġep it
Ġinst agr
ait ing
Ġexp ans
Ġdev al
Ġcle m
Ġcle ver
Ġcle ans
Ġtre at
Ġconf irm
Ġunc le
work ed
acc a
Ġfre es
Ġser en
irt z
estr uct
Ġgam er
Ġgam es
Ġconc ert
Ġmicro man
Ġval ent
Ġmel t
Ġhem orrh
vv v
Ġthr ee
Ġlo an
Ġpot ent
mon ster
Ġpop ul
yyyyyyyy y
yyyyyyyy yyy
Ġlov e
Ġlov el
Ġut er
Ġspec if
Ġneur od
Ġgal ax
Ġunp op
Ġcent r
udg ing
Ġill um
Ġill umin
Ġprot est
Ġenc ycl
lec ting
ggg hhh
Ġboo z
odd y
raf ted
Ġeng ine
Ġchrist m
Ġwa ver
Ġamb ul
Ġfo unt
Ġelect roc
ading dong
Ġdisp ens
Ġforg et
Ġmich a
Ġmich el
Ġperc ent
Ġpy ro
Ġfav our
Ġposs ib
Ġnov el
Ġrefr iger
Ġredd its
Ġfrank en
Ġstand ard
Ġsul ph
quest ion
di agn
Ġappro pr
Ġdeh uman
Ġbrit ish
Ġquadr up
Ġplat yp
Ġcarn iv
Ġcrow ds
Ġiw ant
mith s
ayay ayay
lif ting
Ġxxx t
Ġshre k
Ġmaint ain
ici ency
iatr ic
Ġparad ox
Ġhep at
Ġinit ial
Ġperp lex
Ġbamb ooz
hist ory
Ġhib ern
Ġemph as
Ġske let
Ġawes om
immiegimmieg immiegimmieg
Ġunint ellig
Ġindustr ial
Ġbehav ior
Ġmete or
Ġarchit ect
apaw apaw
Ġconcept ual
Ġtrium ph
eprot ips
Ġtaylors w
a um
a ign
b un
b op
b atch
b oot
b ears
b elly
c w
c ers
c ery
c yst
c raw
c asts
c ycle
d oz
f ah
f act
f unk
f iction
f reak
g ee
h en
h om
h ey
h orse
i ag
i ak
i ator
i ology
j ee
j aw
k eep
k eepers
l io
l ays
l aps
l icker
m ers
m ia
n x
n z
n ee
n om
o ia
o uc
p v
p ile
p anda
q e
q t
r n
r aph
r ights
s hh
t ar
t ie
v est
w eg
w ine
x p
y ay
z ee
z eb
z eg
Ġ ice
Ġ aaaaaaaaaaaaaaaaaaaaaaaaaaaaaaaaaaaaaaaaaaaaaaaaaaaaaaaaaaaaaaaa
Ġs iiii
Ġs ce
Ġs eth
Ġs onic
Ġs uuuuuu
es ian
an ine
an ite
aa am
aa hhh
on ically
on line
Ġc v
Ġc ed
Ġc il
Ġc ly
Ġc id
Ġc able
Ġc oop
Ġc add
Ġc upp
en al
en ial
en ings
en za
at ons
ar os
ar ity
ar ry
ee es
ee der
oo om
ed ia
al ts
al thy
Ġp ool
Ġp ole
Ġp edd
Ġp ept
Ġp atter
Ġb ii
Ġb iv
Ġb ov
Ġb orr
Ġb izz
Ġb erk
Ġb illy
Ġm one
Ġm aaaaaa
Ġm aul
Ġm ais
Ġm aid
Ġm uzz
Ġm ourn
ing es
ing ham
is or
or ce
Ġd yl
Ġd arr
Ġd umm
Ġd azz
Ġt f
Ġt ou
Ġt ors
Ġt oom
Ġt oon
Ġt edd
Ġt eng
Ġt inder
it ur
it ol
it ent
it ized
ic ides
Ġr g
Ġr amm
Ġr eeeeee
Ġr iiiiii
Ġr ubb
Ġr iot
le berry
Ġf iiii
Ġf id
Ġf ec
Ġf ck
Ġf ans
Ġf erm
Ġf ps
Ġf aaaaaa
Ġf eder
as in
as ss
as ions
Ġh i
Ġh ef
Ġh iss
Ġh ank
Ġh ere
Ġh ux
el h
el ot
Ġg f
Ġg ee
Ġg rr
Ġg ian
Ġg ond
Ġg ator
Ġg orr
Ġg ogg
Ġg aud
Ġg raz
Ġg abr
ac ost
Ġw od
Ġw ey
Ġw oooooooo
Ġw ats
Ġw oop
Ġw ars
Ġw oooooooooooooooo
Ġw isc
Ġw ester
il ot
il ine
il tr
il ator
ur ur
ur gh
am id
et en
ro ut
ro ach
ad ors
Ġl er
Ġl ent
Ġl igh
Ġl ans
Ġl att
Ġl eel
Ġl iving
ch m
ch ee
Ġn l
Ġn el
Ġn nnn
Ġn itr
ol and
ab as
ab el
ab eth
Ġe ach
Ġe ith
Ġe arm
Ġk b
Ġk d
Ġk ow
Ġk ip
Ġk od
Ġk ud
Ġk its
Ġk och
Ġk eys
re ens
id ia
id ated
id ger
id ae
eeee en
ot ions
ap ine
ag irl
ig m
ig ating
im ages
ul ted
ec y
ec an
ir u
em as
em ate
Ġv end
Ġv ax
Ġv eng
Ġv eter
Ġo pr
Ġun ac
Ġun ass
Ġun equ
Ġun know
Ġj t
Ġj uu
Ġj ot
Ġj ost
Ġj ones
Ġj obs
ow a
st en
iv an
Ġst y
Ġst ap
Ġst oooo
Ġst ation
Ġst eep
Ġst alk
Ġst arg
Ġst irr
and t
and re
and wich
est ic
aaaaaaaa aaaaaaa
Ġch u
Ġch is
Ġch ess
Ġch op
Ġch art
Ġch imp
th ough
ak ia
Ġsh ah
Ġsh uff
Ġsh eet
Ġsh eph
Ġsh orth
qu a
qu ette
ant y
Ġre up
Ġre press
Ġre occ
og an
og ies
og ue
Ġa is
Ġa il
Ġth ic
ie b
if r
all ll
ra u
Ġy outh
ug ed
Ġsp inn
Ġsp oil
ell en
ob acter
ard e
ard ia
Ġcon sp
ep ress
ep oint
oc ated
oc ating
end i
end ous
end able
Ġtr ay
Ġtr end
Ġtr esp
av ille
eb ro
sh irt
aw ww
Ġz ah
Ġbl a
Ġbl o
Ġbl at
Ġbl und
Ġsc orp
Ġwh ip
Ġwh oooooo
Ġwh ites
ath ering
ov o
Ġpro bl
pl ied
pl aining
Ġcr itis
tr es
tr um
tr esses
ach u
ock et
ock ey
Ġfr y
Ġfr is
Ġbr ist
Ġbr ill
Ġbr uc
Ġbr oom
Ġal arm
Ġar sen
Ġgr id
Ġgr und
gg gh
Ġle ts
Ġdis l
Ġdis m
Ġdis gr
Ġdis eng
Ġdis qual
Ġcom ic
Ġan aph
Ġan yh
ph ot
ood ood
Ġcl imb
ok ers
ive able
zz o
ong a
ong e
Ġsl ash
Ġpl ur
Ġpl aint
Ġpl astic
Ġqu at
Ġqu etz
ry er
Ġac comm
ett le
az er
az ine
Ġph yc
Ġam el
bl a
bl aster
Ġad der
of en
eth is
Ġsk imp
af i
Ġen ough
oth or
Ġab bre
Ġab yss
itt in
Ġco y
iss ance
Ġsup r
Ġsup port
Ġcar l
Ġper g
Ġper r
Ġper ic
Ġper miss
oy o
oy le
oh ns
Ġsm ol
own ed
ank en
Ġover com
Ġover comp
Ġpar ac
Ġpar atr
Ġem pir
ps ps
Ġgl uc
Ġrec re
ore a
Ġres ist
Ġte let
amm e
amm ered
Ġstr ict
fl ight
eee errr
be k
be ams
Ġel abor
oph er
Ġhe im
amp le
ump tion
itch ing
esh ip
Ġmis inter
Ġmis beh
yd ick
Ġdec id
Ġdec ent
gh e
Ġap l
Ġap art
Ġcomp art
Ġcomp ens
gl in
Ġtw el
Ġdes cr
Ġint ra
Ġgu ilt
Ġapp rent
iel le
Ġbar g
fuck ery
Ġrep uls
Ġunder c
Ġsqu id
Ġmin ec
str ong
Ġev ry
oooooo ow
Ġaut or
Ġaut od
Ġdef ec
Ġdef ens
te in
me al
eng ing
yc am
Ġdem ol
rrrrrrrr r
erv es
Ġbo ud
Ġins uff
inc ol
Ġdep art
dr ink
dr unk
oor d
Ġer ect
Ġmal ef
Ġdi et
Ġbro s
Ġbro ther
Ġsur g
uch en
Ġrem ov
Ġcont amin
ene ur
Ġcor p
imm ers
Ġcomm iser
Ġcomm ercial
Ġmic rom
Ġcal ibr
Ġrel ativ
Ġcro ck
unc le
Ġob d
unch es
Ġacc ent
Ġgen uin
Ġcap ac
Ġcap ric
pos ition
lin ers
Ġwr est
Ġav oc
Ġsom ew
ald o
Ġuns cr
Ġom eg
Ġmed ical
Ġinv al
Ġinv ig
Ġnot all
uts u
Ġmeg ac
Ġmeg ad
mmmmmmmm mm
oog a
ari at
onk ing
Ġbu y
Ġreg ular
Ġconf us
Ġmult it
Ġmult im
Ġexc av
kn g
atur al
Ġit em
Ġrev el
Ġfac ebook
Ġhyp othes
Ġrh yth
Ġleg end
Ġbi om
Ġbi ot
Ġsil ly
Ġfre er
Ġcre v
Ġmel od
Ġpart ic
Ġsec ur
upp et
Ġext ro
Ġdisc ern
emp tion
rog s
Ġpres ident
ours elf
Ġhon or
ete er
Ġast on
etch ed
Ġspr ink
alt a
Ġcoll oqu
inter esting
Ġnec ro
Ġabs ol
Ġabs urd
Ġbas il
eat ers
augh ters
Ġpost p
Ġwind s
por ting
iar ies
Ġet ym
Ġeff ect
Ġsym pt
urt z
Ġorg asm
Ġweb s
Ġshr ink
raf ting
olol ol
Ġca uc
pir acy
Ġra ised
Ġeth i
alm art
Ġwest ern
lad ies
Ġcats in
Ġrat em
ser ylalanyl
Ġpoo ps
lev el
Ġlat est
oosh ed
Ġmath em
Ġdid ger
Ġhit chh
Ġans wer
Ġinh ab
oped ia
Ġbac on
Ġvan ill
Ġhipp op
Ġseg reg
Ġserv ic
Ġmidd le
Ġsent iment
onym ous
Ġvill ain
Ġprinc ess
Ġrepl en
cut ting
bad ger
Ġprod uct
Ġprost h
Ġkle pt
Ġpip er
Ġtail g
Ġimmun osup
olut ions
fil m
Ġjac ob
Ġthor ough
Ġchuck le
Ġinstr ument
ucle ar
abar ber
otyp ical
aoao aoao
Ġvirt ual
Ġvex ill
Ġpneum on
Ġupv ot
vide os
aaaaaaaaaaaaaaaaaaaaaaaaaaaaaaaaaaaaaaaaaaaaaaaaaaaaaaaaaaaaaaaaaaaaaaaaaaaaaaaaaaaaaaaaaaaaaaaaaaaaaaaaaaaaaaaaaaaaaaaaaaaaaaaaaaaaaaaaaaaaaaaaaaaaaaaaaaaaaaaaaaaaaaaaaaaaaaaaaaaaaaaaaaaaaaaaaaaaaaaaaaaaaaaaaaaaaaaaaaaaaaaaaaaaaaaaaaaaaaaaaaaaaaaaaaaaaaaaaaaaaaaaaaaaaaaaaaaaaaaaaaaaaaaaaaaaaaaaaaaaaaaaaaaaaaaaaaaaaaaaaaaaaaaaaaaaaaaaaaaaaaaaaaaaaaaaaaaaaaaaaaaaaaaaaaaaaaaaaaaaaaaaaaaaaaaaaaaaaaaaaaaaaaaaaaaaaaaaaaaaaaaaaaaaaaaaaaaaaaaaaaaaaaaaaaaaaaaaaaaaaaaaaaaaaaaaaaaaaaaaaaaaaaaaaaaaaaaaaaaaaaaaaaaaaaaa aaaaaaaaaaaaaaaaaaaaaaaaaaaaaaaaaaaaaaaaaaaaaaaaaaaaaaaaaaaaaaaaaaaaaaaaaaaaaaaaaaaaaaaaaaaaaaaaaaaaaaaaaaaaaaaaaaaaaaaaaaaaaaaaaaaaaaaaaaaaaaaaaaaaaaaaaaaaaaaaaaaaaaaaaaaaaaaaaaaaaaaaaaaaaaaaaaaaaaaaaaaaaaaaaaaaaaaaaaaaaaaaaaaaaaaaaaaaaaaaaaaaaaaaaaaaaaaaaaaaaaaaaaaaaaaaaaaaaaaaaaaaaaaaaaaaaaaaaaaaaaaaaaaaaaaaaaaaaaaaaaaaaaaaaaaaaaaaaaaaaaaaaaaaaaaaaaaaaaaaaaaaaaaaaaaaaaaaaaaaaaaaaaaaaaaaaaaaaaaaaaaaaaaaaaaaaaaaaaaaaaaaaaaaaaaaaaaaaaaaaaaaaaaaaaaaaaaaaaaaaaaaaaaaaaaaaaaaaaaaaaaaaaaaaaaaaaaaaaaaaaaaaaaaaaaa
fuckermotherfuckermother fuckermotherfuckermother
americ an
Ġpys ch
Ġindivid ual
Ġextrav ag
methion yl
Ġdecrim inal
a er
a ub
b es
b um
b uds
b usters
c ans
c rew
d u
d is
d et
d ate
d ash
d amn
e j
e ah
f ork
f ore
f aces
f avor
g um
g ah
g ear
g reen
h um
i ences
j in
j ourn
l af
l ox
l ery
l ene
m w
m ile
n ox
n acks
p age
q h
r g
r m
r oo
r ive
r iver
s is
t astic
u ard
u ite
v ac
v ies
v ill
w ag
w ig
w ah
w ang
x o
y ear
y oud
z on
z us
Ġ ick
Ġ ism
Ġ uuuuuuuu
Ġ ify
Ġ ahahahahahahahah
er en
er ra
er ver
in um
in ist
in ey
in ance
in ators
Ġs igh
Ġs hhh
es o
es no
an ies
aa c
aa p
on ee
on ent
on nnn
Ġc rafts
en r
en et
en ie
en zo
at ized
ar ro
ee h
ee ver
ed el
al ibr
al icious
Ġp g
Ġp um
Ġp ann
Ġp out
Ġp pp
Ġp eet
Ġp unn
Ġp eel
Ġp lex
Ġb ep
Ġb iss
Ġb als
Ġb atch
Ġb oon
Ġb eep
Ġb ucc
Ġb ears
Ġb obs
Ġb rows
Ġb umble
Ġb bbbb
Ġm iiii
Ġm oooooooo
Ġm ors
Ġm ore
Ġm oom
Ġm ung
Ġm erg
Ġm ening
Ġm rs
is en
is ingly
or ated
or ps
or por
Ġd z
Ġd and
Ġd ost
Ġd ual
Ġd urr
Ġd izz
Ġd uv
Ġd oob
Ġt hh
Ġt ug
Ġt ont
Ġt uss
Ġt ict
Ġt raw
Ġt actic
ii k
it ives
Ġr f
Ġr ii
Ġr add
Ġr apt
Ġr eem
le af
Ġf ew
Ġf enn
Ġf eet
Ġf eck
Ġf agg
Ġf aul
Ġf ebr
Ġf iber
as el
as ure
Ġh att
Ġh nnnn
Ġh eel
Ġh iph
Ġh awa
un un
el ab
Ġg ly
Ġg uu
Ġg utt
Ġg eek
Ġg obb
Ġg ibb
Ġw hh
Ġw iiii
Ġw ew
Ġw ett
Ġw eeeeee
Ġw omb
Ġw eld
Ġw oud
Ġw inst
Ġw edding
us ias
il ion
il ent
il ization
am ac
am ation
ro th
ro ads
ro aches
ad an
ad oo
Ġl d
Ġl j
Ġl ous
Ġl ll
Ġl und
Ġl ach
Ġl oooooooo
Ġl ich
Ġl oh
Ġl aaaaaa
Ġl oss
Ġl omb
Ġl ands
Ġl ift
Ġl izard
ch ain
Ġn ef
Ġn ood
Ġn eh
Ġn eth
Ġn unch
Ġn uts
Ġn aut
Ġn iger
ol k
ol ini
ers c
ab d
ab ber
ab ytes
os en
os ts
os por
Ġe q
Ġe asy
Ġk f
Ġk i
Ġk ul
Ġk av
Ġk eg
Ġk ov
Ġk ach
Ġk ats
ut y
ut or
ut ic
ut able
id ine
id ium
eeee er
ot z
ot ally
ap i
ap ot
ap ples
ag m
ag ina
ent ence
ig al
ig ent
ig th
ig ious
ig ma
im y
im ar
im als
ul o
ec ar
ir ty
em ans
em emes
Ġv n
Ġv ee
Ġv ard
Ġv oll
Ġv ouch
Ġv oid
Ġv ener
Ġo zz
Ġun ad
Ġun qu
Ġun pl
Ġun bl
Ġun ins
Ġun be
Ġin m
Ġin com
ay as
Ġj m
Ġj um
Ġj amm
ow el
st ro
st tt
st own
st eak
Ġst ank
Ġst unt
Ġst opp
op ods
ist ered
and ra
est ra
est ry
Ġch l
Ġch es
Ġch ak
Ġch ib
Ġch ef
Ġch unk
Ġch opp
Ġch iro
Ġsh ep
Ġsh ind
Ġsh err
Ġsh orts
Ġsh opl
Ġre als
Ġre ign
Ġre inc
Ġre iter
ation ist
Ġa e
Ġa ii
up a
Ġth urs
ie ux
iiiiiiii i
all en
ra e
Ġy up
Ġy oh
Ġy eet
ud u
ib el
ib ur
ib ers
Ġsp at
Ġsp oof
ob ot
ob od
ard on
Ġcon gl
ep ar
ep ting
ep ort
ick a
ian ces
end ale
ass y
ass holes
av el
ang i
ish k
ish ments
eb urg
ll s
sh oot
sh eet
Ġex empl
ik u
aw ar
Ġz ach
Ġz we
Ġz zzzz
Ġbl ah
Ġbl ond
Ġbl anch
Ġbl inds
Ġsc an
ew ww
ew ord
Ġwh y
Ġwh aaaa
Ġwh add
yl ene
ov el
ov sky
Ġpr is
Ġpr ison
Ġpro j
Ġpro ject
ans en
ans ky
Ġcr est
Ġcr iss
Ġfl oof
Ġfr i
Ġfr iv
Ġfr ug
Ġbr im
Ġbr ach
Ġbr eed
Ġal dr
Ġal way
Ġar p
Ġar ter
Ġar ms
ys m
our e
Ġgr amp
gg y
Ġle an
Ġle ak
Ġdis f
Ġdis ab
Ġdis sp
Ġdis inf
Ġdis fig
tt le
eh er
ort e
Ġsl iiii
Ġsl ipp
Ġsl utt
Ġsl ipper
Ġsl obber
ber y
Ġpl umm
Ġqu as
Ġqu eb
ial y
yn x
ry ph
att les
ev o
az o
Ġph y
bl b
Ġad s
Ġad en
Ġad ap
Ġad just
of th
of uck
pr iv
pr ints
Ġsk yr
ment ation
ich a
af a
Ġsn oo
Ġsn or
Ġsn iv
Ġsn ick
Ġsn ark
Ġsn eez
ann as
Ġen list
Ġab c
Ġab ras
itt a
Ġco el
ust in
cl aw
yp ed
Ġcar ic
Ġcar ry
ost ers
Ġmar x
Ġmar ath
Ġmar vel
Ġsw ir
Ġsw ift
Ġsch le
Ġsch re
Ġsch we
oh er
own er
ont ext
Ġem il
Ġem be
ect ly
act able
Ġx r
erm ans
int ellig
Ġgl ac
ern t
Ġas ym
gr ams
Ġrec com
Ġrec onn
Ġrec lass
Ġrec ycl
Ġbe ver
err or
Ġte ab
amm able
Ġstr ength
air ing
ox in
fr ames
br ad
fl owers
enc ers
rom orph
rom antic
enn ials
Ġne at
Ġne op
com ment
Ġmc b
be ut
ater ial
oph age
Ġhe ight
Ġse ism
amp ed
Ġde odor
Ġde utsch
inn ie
uh e
Ġme z
esh ow
Ġmis p
wh ile
ound er
Ġmon os
Ġmon ot
Ġfor ec
Ġfor ef
Ġfor ward
Ġcomp rom
Ġcomp uter
Ġtw een
Ġman it
Ġman ch
Ġdes par
Ġint est
oss ible
Ġkn ick
Ġapp reh
iff le
Ġpol t
Ġpol ter
ahahahah ah
Ġrep oss
Ġwe ir
Ġev al
Ġcol le
te am
te acher
ugg a
umm ed
off er
aster n
Ġdem otiv
agg in
inc ed
Ġir respons
for ward
Ġmal ad
oul s
Ġdi aph
Ġrem ot
Ġrem od
Ġrem ind
Ġcont empl
Ġback yard
Ġinf er
Ġon es
Ġcor ro
imm ed
Ġrel a
erd ay
Ġent ertain
unc ed
Ġcons um
ke it
ae k
Ġhand c
Ġgen i
Ġgen oc
Ġcat ac
Ġcat fish
gu ide
we igh
Ġele c
yst s
ssssssss sss
ino id
pro v
Ġed it
oos a
Ġwr ist
Ġwr ink
read s
read er
gggg ggg
Ġmed iev
ops ych
Ġhar b
Ġhar sh
erk in
leg ic
iend o
iend s
Ġep ile
Ġinst all
abb ers
onk ed
Ġunexpected d
Ġunexpected p
asc a
Ġcle v
Ġtre v
Ġreg istr
Ġmult if
Ġexc ers
Ġexc ell
Ġit er
Ġever yb
Ġang r
Ġser ver
Ġser ious
ench ed
Ġgam ec
abl ity
Ġla ud
Ġhyper vent
Ġsol ic
ote chn
Ġdeb r
Ġconc entr
Ġdown st
aut iful
Ġsec r
itter y
itter ing
Ġfur th
Ġunf ort
Ġhol oc
atter y
Ġden is
Ġwor ks
Ġwor ship
emp or
Ġfe atur
ours es
Ġey e
Ġey ec
Ġoh m
Ġoh mygod
omp ed
agn et
Ġpers onn
Ġpers ever
Ġvol can
Ġgrand m
Ġsem if
etch ing
not es
ersh ire
Ġemb ry
inter est
Ġbon er
Ġrest aur
Ġtele path
Ġbut ton
Ġunp le
kkkk kk
Ġgo ats
Ġequ il
roph obia
Ġphot ob
Ġped oph
Ġport ug
mar ts
with out
Ġneg lig
icul ous
Ġbatt lest
Ġder eg
lec ts
Ġhous eh
Ġconv uls
Ġblood s
Ġtom at
Ġaff ord
Ġcontr act
Ġshr iv
Ġod yss
Ġpred ic
Ġgold en
umber ed
Ġach e
Ġextr aterr
Ġarr est
esth esia
kt kt
Ġproc ess
crib es
Ġmand al
Ġhor iz
Ġtem pl
Ġforg ett
init ely
Ġtam ag
like im
Ġmm h
Ġbay b
Ġbay on
Ġperc ept
pres ent
ebo ys
Ġment ion
Ġpros ec
Ġkam ik
ho ids
Ġmagn ific
Ġcompl iment
Ġhoney moon
quest ions
ylglut amin
Ġholl ow
Ġmark et
Ġsy mm
ding ding
aaay yy
edr ine
Ġpleas ant
Ġhed g
Ġhus band
Ġspir itual
Ġboom er
Ġkitt ies
odo ubt
Ġbik in
ounc ed
Ġtown s
Ġincon v
plan et
Ġbron ch
Ġjen kin
Ġpict ures
Ġhund red
Ġconj ug
Ġrever ber
Ġcelebr ity
Ġbib li
Ġlou is
gard en
ground s
Ġmeas ur
Ġital ic
Ġrej uv
Ġanesth et
Ġrelation ship
pock et
Ġnights h
Ġfreed om
Ġtroub lesh
Ġhalluc in
Ġcaut er
Ġguar ant
Ġpropag and
Ġincor por
gob lin
Ġawk ward
Ġdisass oc
Ġamate ur
didn othingwrong
Ġdisem bow
a oo
a ic
b ach
b row
b enders
c ult
c utter
d or
d as
d ow
d ance
d icks
f n
f arts
g k
h og
h ell
h elm
i ard
i enne
j unk
j ones
k x
k os
k iss
l ib
l ate
l ane
l eness
l over
l ave
l ives
l ighting
l eeping
m atch
m erc
n u
n ad
n um
n ets
o ire
p ine
p ted
p ets
p unk
p acks
p eter
p icks
q n
r ib
r ite
t u
t al
t one
t ards
t ooth
v iii
w t
w ly
w ack
w ew
w yn
w ink
w ax
w ere
w inds
w olves
x v
y i
y z
y eh
z ones
Ġ ett
Ġ ats
Ġ ips
Ġ iiiiii
er tion
in ely
in cl
Ġs art
Ġs ef
Ġs ith
Ġs ark
Ġs ult
Ġs izz
Ġs uch
Ġs over
Ġs abb
es ion
es ign
an is
an ov
an ese
an za
aa g
on h
on in
on ion
on ies
on ks
on ville
Ġc uuuu
Ġc oom
Ġc amm
Ġc rop
Ġc erv
Ġc uts
en ame
at ical
ed en
ed om
al ers
al ter
al isation
Ġp aaaa
Ġp im
Ġp uck
Ġp ash
Ġp les
Ġp au
Ġp inn
Ġp ops
Ġp eter
Ġp oin
Ġp aid
Ġp idge
Ġb ers
Ġb ith
Ġb ere
Ġb oop
Ġm uuuu
Ġm ia
Ġm ith
Ġm erm
Ġm ool
Ġm eee
Ġm umb
Ġm yb
Ġm aus
Ġm irc
Ġm ao
Ġm azz
or on
or ians
or ld
Ġd ile
Ġd oon
Ġd ai
Ġd oooooo
Ġd orr
Ġd eng
Ġd eem
Ġd rog
Ġd uuuuuu
Ġd awn
Ġd anz
Ġd inner
Ġd inkle
Ġt ii
Ġt ic
Ġt ous
Ġt ally
Ġt ev
Ġt of
Ġt iff
Ġt arn
Ġt amb
Ġt uv
Ġt aut
Ġt ables
ii c
it one
it ically
it ative
ic um
Ġr op
Ġr ation
Ġr iz
Ġr ies
Ġr ou
Ġr age
Ġr ums
Ġr abarber
le in
le on
le ck
le ju
Ġf ud
Ġf ash
Ġf ou
Ġf ats
Ġf ark
Ġf fff
Ġf uhr
Ġf oster
as ive
as ingly
Ġh ac
Ġh ev
Ġh of
Ġh ild
Ġh aus
Ġh amb
Ġh ave
Ġh ogg
un al
el k
el ion
el ist
el ong
el iness
Ġg it
Ġg ah
Ġg iz
Ġg ug
Ġg ive
Ġg eth
Ġg uff
Ġg oooooo
Ġg he
Ġg abb
Ġg ird
Ġg urg
ac io
Ġw art
Ġw ok
Ġw ou
Ġw ings
Ġw ail
Ġw int
Ġw ander
Ġw ords
us al
us band
il ians
il iac
am t
am u
am ate
et op
ad t
ad am
ad ine
ad dd
ad add
Ġl us
Ġl ost
Ġl ull
Ġl umb
Ġl och
Ġl aps
Ġl uv
Ġl imb
Ġl umin
Ġl olololol
ch af
Ġn en
Ġn ii
Ġn and
Ġn our
Ġn ym
Ġn ipp
Ġn utt
Ġn aus
Ġn uth
Ġn urt
Ġn aked
Ġn igger
Ġn erf
ol ly
ol ate
ol ysis
om ber
ers ey
ab h
ab ras
iiii in
uu h
uu t
uu gh
os ia
Ġe u
Ġk ii
Ġk ass
Ġk ew
Ġk ont
Ġk erm
Ġk els
Ġk ale
Ġk eel
Ġk osh
Ġk rem
Ġk ryp
ut ers
ut ical
ot ter
ot ional
ap ro
ap ap
ag ar
ag et
ag ec
ag ra
ent ers
ent ia
ent ry
im ony
ul ic
ul ia
ul ting
ul ative
ec ret
em n
em u
Ġv b
Ġv ad
Ġv ay
Ġv io
Ġv int
Ġv arn
Ġv erst
Ġv aul
Ġv ision
Ġo at
Ġo urs
Ġun v
Ġun co
Ġun fr
Ġun imp
Ġun inv
ah ol
ah ara
ah aah
Ġj k
Ġj od
Ġj ett
Ġj ax
Ġj uss
Ġj ames
Ġj ajaj
ow der
Ġst il
Ġst ol
Ġst ir
Ġst ub
Ġst uck
Ġst onew
and ar
est o
est orm
est abl
Ġch ing
Ġch ut
Ġch ock
Ġch inch
th or
th orn
ak now
Ġsh ul
Ġsh ud
Ġsh ard
Ġsh ang
Ġsh opp
Ġsh atter
ss st
qu at
qu ill
ff ee
Ġre z
Ġre at
Ġre att
Ġre ald
Ġre leg
Ġre anim
od actyl
Ġth n
all o
ra ff
Ġy n
Ġy ur
Ġy aw
Ġy oooooo
Ġy ears
ug es
ug ing
ud y
ud ent
Ġsp eck
ell in
ell is
ell or
ell um
ver ing
Ġcon front
ep ted
ick ly
oc om
oc ument
Ġtr in
Ġtr ag
Ġtr im
ass ment
av o
av y
ast ics
ang ar
ang ling
ang ement
eb us
eb ab
eg l
eg irl
sh in
sh ine
sh ield
Ġex as
Ġex os
Ġex act
Ġex amin
Ġex ager
ik um
art a
Ġz am
Ġz om
Ġz ap
Ġz ep
Ġbl ess
Ġbl end
Ġbl ok
Ġsc oot
Ġsc atter
ew all
Ġwh att
Ġwh ite
Ġwh irl
ath es
yl threonyl
yl vania
ex ts
Ġpro gn
pl acement
Ġcr is
Ġcr uel
und ed
und erst
tr yptoph
ach ts
Ġfr an
Ġfr am
Ġbr un
Ġal w
Ġal der
Ġar row
Ġar bor
ef uck
ef orm
ef ire
ef ucking
Ġgr ill
Ġgr unt
Ġgr ays
Ġle ch
Ġdis d
Ġdis ob
Ġdis co
Ġdis con
Ġdis conn
man ager
app en
app ened
ph er
Ġcl u
Ġcl int
Ġcl ums
Ġcl aim
Ġcl othes
eh and
ok ai
iiiiiiiiiiiiiiii iiiiiiii
zz i
ong us
ong ue
ort y
Ġsl ith
Ġpl ain
dd it
ou fl
ial idoc
ier ed
ry st
Ġac tion
Ġph r
Ġph one
Ġam in
Ġam en
Ġam or
Ġam ir
Ġam alg
Ġad el
Ġad vers
Ġad dr
of ucking
Ġsk ip
Ġsk ank
ann i
Ġco in
Ġco ud
Ġco ast
iss ed
Ġdr ugg
Ġcar ef
ost omy
Ġsw ee
Ġsw all
Ġsw iss
Ġsch t
Ġsch oo
Ġsch em
ink e
Ġsm il
Ġsm org
Ġsm urf
own ing
ank les
Ġpar l
Ġpar ab
Ġpar ach
Ġem oj
ect omies
Ġx m
Ġx p
erm e
ps e
Ġgl am
Ġgl oom
anc a
anc ers
ern e
Ġas th
Ġas df
Ġrec l
Ġrec ons
ond ition
Ġsub urb
Ġsub lim
err ys
ult ural
Ġstr en
Ġstr ug
ox y
fr ies
br ick
fl ip
enc ia
Ġne ig
ush i
ush ka
oon ed
Ġinter v
oph on
oph en
ung en
Ġhe ats
let ely
Ġse in
Ġse iz
arm ing
Ġde er
esh are
Ġmis inform
Ġant if
ai ro
Ġass ist
Ġmon k
Ġmon th
Ġcomp uls
Ġag a
Ġag ric
Ġtw ist
Ġman eu
bur ns
Ġint oler
Ġint ellect
Ġgu zz
Ġapp r
Ġpol yc
Ġup p
Ġrep ur
Ġrep ort
Ġsqu igg
Ġmin ig
Ġmin imal
ne ver
Ġcol umb
Ġdef er
Ġinc iner
te k
ugg ets
Ġind octr
he at
atr i
unn ed
Ġred istr
rop es
Ġtrans gress
esc ale
Ġdem ean
pec ting
sc i
sc ale
erv ing
Ġop ens
erb all
erb ack
Ġins ect
Ġdep erson
Ġimp uls
Ġimp lement
aur d
dr ama
oad ed
oad ing
Ġir aq
for ced
Ġu ch
Ġer ry
Ġer otic
Ġfuck ed
izz ard
Ġhom ep
Ġscr utin
ict ures
Ġbro th
Ġbro ken
Ġsur round
Ġcont ain
Ġpe as
erg ic
arg o
Ġinf iltr
Ġall ow
Ġon omat
Ġnon c
Ġnon com
Ġcor rec
Ġund is
Ġcomm er
Ġcomm iss
Ġcal vin
Ġret in
Ġent om
Ġent ir
Ġent ert
unc es
ke ke
Ġob j
udd ed
udd le
Ġhand w
och i
och em
oe a
oe ing
we ird
we ather
Ġele phant
onn y
Ġtur bo
ient ist
Ġbel ong
Ġmor bid
ios o
ios ity
Ġkr isp
ept ors
Ġbab ym
Ġwr it
Ġus e
Ġuns us
Ġes ch
Ġom m
Ġhum or
uth s
Ġhar ry
Ġimm id
Ġthe atr
Ġmeg am
Ġsim ple
leg al
uct ors
Ġinst itutional
Ġpal p
Ġexp end
oid al
Ġtre es
Ġreg urg
Ġconf er
Ġconf ection
Ġmult ipl
Ġexc it
kn ot
Ġrev ol
ask reddit
Ġfac il
Ġtim ec
Ġang ry
Ġsil ent
estr ian
lex ia
Ġgam ep
Ġdick head
Ġhyper t
ote ch
ubb a
Ġic ep
Ġdeb ilit
Ġconc ord
iw a
aaaaa an
obb ed
Ġmicro d
Ġmod er
Ġand rog
Ġhem mor
ele ctr
Ġart ific
Ġdisc ol
Ġdisc our
Ġdisc ontin
Ġovers impl
Ġdiv erg
Ġey es
Ġey ed
uuu us
Ġpers ec
azz a
form s
Ġast ro
Ġye ah
Ġkar en
Ġlab or
asm r
Ġest h
Ġsoc iet
board ed
Ġemb ell
Ġul cer
inter net
Ġlib eral
Ġneur os
Ġneur ot
li ament
rod uct
Ġtele port
Ġje opard
Ġequ ival
roph y
Ġarch ae
Ġcy an
udg ed
urb ation
Ġaqu ant
iii in
icul a
Ġyo ud
urg y
Ġlif es
Ġresp ir
uel a
Ġder iv
Ġhous ec
Ġhous ew
Ġconv ey
Ġconv ien
Ġarm ag
ggg hhhh
Ġdig est
Ġter ra
Ġing r
inf o
Ġste alth
Ġcontr ap
Ġcontr ibut
tf o
Ġts uk
Ġshr ie
cccc cc
rol ogy
Ġaz t
Ġocc ult
Ġbed s
Ġpred ict
Ġox ygen
zy k
itor ial
Ġgn ar
hol m
je ff
Ġcann ab
exual ity
Ġtar ant
Ġconst antin
miss ions
Ġdisp ers
Ġoc cl
Ġnar row
Ġadv ant
Ġboy c
rock et
Ġrap id
aby te
Ġree aa
Ġcorr upt
Ġunl ik
ross ing
Ġaaaaaaaa aaaaaa
xxxx x
view s
Ġbuck et
Ġdouch eb
Ġcoc on
Ġpenn s
Ġsul f
Ġpac if
Ġsle az
Ġbef or
Ġtel esc
Ġcath eter
Ġschw art
Ġdod g
Ġtax id
Ġrecon c
Ġrecon str
Ġlu ft
iful ly
Ġtrad ition
Ġhydro x
lov ing
Ġlap ar
Ġuncon c
Ġdeh ydr
Ġneigh bour
Ġelectr ic
Ġcurr ent
Ġtrav el
Ġneck beard
Ġattr act
Ġsudd en
des k
itc hh
prolyl leucyl
crip tions
Ġdepress ur
Ġamaz ing
Ġirre lev
oint ment
Ġcra zy
check ed
omn ia
Ġsoul s
icid al
Ġlic ens
Ġlux ur
ifi ably
Ġregr et
mind ed
Ġatl ant
gro ups
Ġfed eral
Ġaustr al
Ġexplain likeim
Ġadvent ur
Ġsacr ific
osoph y
isth is
Ġmechan ical
Ġmild ly
Ġidi ots
Ġdestr uct
rosc op
Ġstere otyp
Ġintim id
Ġshap esh
ropp ing
Ġacad em
Ġphotos ynthes
Ġmyn ame
Ġtoile t
opot am
fac ebook
Ġaeros ol
Ġagn ost
Ġexhib ition
spec ific
Ġaaaaaaaaaaaaaaaaaaaaaaaaaaaaaaaa aaaaaaaaaaaaaaaa
Ġtimet rav
Ġenl arg
itg oes
Ġende av
Ġpess im
Ġovercomp ens
b os
b st
b ak
b eg
b anger
b aked
b ottom
c ee
c ow
c ip
c ord
c ale
c ums
c odes
c lean
c ourse
d uck
d ef
d eep
d oing
e id
e ous
f un
f ie
f ying
f lys
f illing
f usc
f amily
g or
g ore
g row
h l
h ave
i ab
i ants
j ed
j aro
k ys
k ong
l um
l oss
l ake
l ots
m x
m ell
m int
m onkey
n an
n at
n aps
n ights
p ect
p its
p lex
p aint
p ipes
p owers
q f
r ab
r ons
r gr
r oot
r gh
r unners
t it
t ard
t able
u ah
u ya
v f
v ian
v eg
v oy
v ious
w ent
w ads
w igs
x i
z x
z oo
z ep
Ġ yyyy
Ġ ust
Ġ io
Ġ ise
Ġ ile
Ġ ily
Ġ eeeeeeeeeeeeeeeeeeeeeeeeeeeeeeee
Ġ oob
er oo
er age
in ic
in ly
in ism
in ence
Ġs os
Ġs eeee
Ġs ll
Ġs ash
Ġs oth
Ġs iss
Ġs aph
Ġs ung
Ġs ars
Ġs aff
Ġs arg
Ġs imm
Ġs yst
Ġs ave
Ġs eld
Ġs ister
an it
an ah
an ical
an ova
on ag
on ism
on ents
Ġc b
Ġc x
Ġc is
Ġc ud
Ġc az
Ġc act
Ġc au
Ġc ana
Ġc ather
Ġc ancer
en or
en ation
at ee
at ul
ar ous
ar ge
ar oon
ar ina
ee ll
oo ing
ed ict
al ted
al ier
Ġp ie
Ġp ell
Ġp mm
Ġp ian
Ġp itt
Ġp int
Ġp ile
Ġp ung
Ġp uh
Ġp umm
Ġp esc
Ġp ose
Ġp ais
Ġp ils
Ġp iled
Ġb ion
Ġb ly
Ġb aaaaaaaa
Ġb av
Ġb oooooooo
Ġb ons
Ġb ind
Ġb ism
Ġb ost
Ġb ats
Ġb air
Ġb eee
Ġb edd
Ġb oor
Ġb oof
Ġb ones
Ġb iiiiii
Ġb ows
Ġm ym
Ġm ai
Ġm alk
Ġm oooooo
Ġm aps
Ġm uns
Ġm uz
Ġm astic
Ġm ove
ing en
is g
or rect
Ġd k
Ġd ion
Ġd iiii
Ġd ap
Ġd ey
Ġd ass
Ġd dd
Ġd ors
Ġd ads
Ġd iph
Ġd umbled
Ġt ud
Ġt eb
Ġt sh
Ġt out
Ġt ire
Ġt ook
Ġt ern
Ġt uch
Ġt ogg
it it
it ans
it ize
it iously
ic orn
Ġr b
Ġr al
Ġr rrrr
Ġr ipp
Ġr eef
Ġr uin
le k
le ading
Ġf c
Ġf x
Ġf ic
Ġf eeee
Ġf ent
Ġf ock
Ġf let
Ġf alk
Ġf arn
Ġf erd
Ġf oof
Ġf ux
Ġf elt
Ġf iction
Ġf ingers
Ġf abr
Ġf ellow
Ġf unny
Ġf idel
Ġh n
Ġh ut
Ġh ec
Ġh eh
Ġh oth
Ġh ym
Ġh unt
Ġh igg
Ġh oor
Ġh och
Ġh ooo
Ġh ills
Ġh inder
Ġh icc
Ġh urd
Ġh ahahahh
Ġh endr
un ities
el ated
el ands
Ġg ok
Ġg ev
Ġg amm
Ġg enn
Ġg rrr
Ġg iant
aaaa hhh
ac ist
Ġw i
Ġw ac
Ġw ip
Ġw yl
Ġw ine
Ġw yn
Ġw oh
Ġw ire
Ġw ied
Ġw uss
il m
il ig
il and
il ver
il ence
ur ant
ur ian
ur ting
ur pr
ur se
am is
am ist
am ax
am ide
am ole
am oto
am phet
et ive
hh t
ad h
Ġl b
Ġl ia
Ġl ank
Ġl isc
Ġl oz
Ġl ocks
Ġl ament
Ġl ighth
ch ol
Ġn ed
Ġn id
Ġn ay
Ġn uc
Ġn ine
Ġn ok
Ġn ett
Ġn ats
Ġn ye
Ġn iq
Ġn imb
om ot
om ia
ion ally
ab re
ab la
iiii ing
iiii it
os omes
os lav
Ġe il
Ġe ust
Ġe yr
Ġe ject
Ġk is
Ġk ier
Ġk aj
Ġk onn
Ġk iy
Ġk ait
Ġk ara
re ach
re au
ut en
id is
id iot
ot v
ot y
ag gress
ig ators
im ation
im eters
im ensional
ul is
ul ary
ul iar
ec am
um mmm
ir in
ir ee
ir al
oooo oon
Ġv iz
Ġv ass
Ġv vvvv
Ġv enez
Ġo ck
Ġun iv
Ġun ter
Ġun av
Ġun att
Ġun str
Ġun rav
Ġun just
Ġun attr
Ġun employ
Ġin equ
Ġj j
Ġj in
Ġj ir
Ġj oc
Ġj ou
Ġj ank
ow y
st ead
st alk
st ering
st orms
st eps
iv i
Ġst en
Ġst ac
Ġst ur
ck k
ck kkk
op a
op al
op od
est on
est ory
est imate
Ġch aa
Ġch en
Ġch ee
Ġch as
Ġch aper
th ank
th row
Ġsh p
Ġsh en
Ġsh ii
Ġsh ew
Ġsh ake
qu i
qu id
ff e
Ġre act
Ġre int
Ġre for
Ġre inter
Ġre action
og e
og u
og ens
og ger
og lyph
Ġa et
Ġa id
Ġa ugh
Ġa ve
Ġa hhhhhhhhhhhhhhhh
Ġa ux
up d
up per
Ġth ee
Ġth ot
Ġth igh
Ġth esp
Ġth oug
ub ers
ub reddit
if es
if ig
all ion
Ġy om
Ġy oy
Ġy upp
Ġy esyesy
ill usion
ib es
ib an
ib al
ib re
ous h
Ġsp ee
Ġsp ind
Ġsp unk
ob y
ob ar
ob le
ob let
ts y
ts ch
mm ate
oc e
oc ations
oc urr
oc entric
end en
end re
ate able
av ian
ish able
ish ich
eb ly
eb erg
sh its
sh akes
sh ould
sh eets
ik ey
aw d
aw g
aw aw
aw ful
art es
Ġz ay
Ġz uc
Ġz ett
Ġz igg
Ġz imb
Ġz oro
Ġbl and
Ġbl ink
Ġbl unt
Ġbl urr
Ġbl udge
Ġsc ant
Ġsc uff
Ġsc umb
Ġsc utt
Ġsc yth
ew ell
Ġwh im
Ġwh od
Ġwh izz
Ġwh oops
yl a
yl ic
ex pl
ine es
ens ively
Ġpr id
Ġpro ble
pl a
Ġcr ee
Ġcr aaaa
Ġcr um
Ġcr ud
Ġcr uz
und o
tr acks
Ġfl oo
Ġfl uct
Ġfl aming
Ġfr on
Ġfr izz
Ġfr eder
ahah aah
Ġbr us
Ġbr ass
Ġbr uss
Ġbr ides
Ġal bert
Ġar sch
ef in
ef ish
our ous
Ġgr ate
Ġgr ann
Ġgr umb
ain a
Ġle ath
Ġdis reg
Ġdis emb
Ġdis loc
Ġdis integr
Ġcom for
Ġan as
Ġan nn
Ġan nnn
Ġan eur
ood led
tt a
tt o
Ġcl or
Ġcl ut
eh en
per ate
Ġsl u
Ġsl ay
Ġsl eez
Ġsl aughter
Ġpl ung
Ġpl aster
Ġqu in
Ġqu arr
Ġqu idd
Ġqu eef
Ġqu irk
tion ally
ear ts
Ġac om
Ġac ut
az ed
az is
az ard
Ġph al
Ġam e
Ġam ber
of o
of the
of reddit
Ġsk ib
Ġsk yn
Ġsk yh
ich ed
af r
Ġsn ug
Ġen m
Ġen z
Ġab ort
ins ide
itt al
Ġco x
Ġco erc
ely t
cl ed
iss on
iss en
Ġdr ed
Ġcar ib
ith ing
Ġper n
uk h
uk en
Ġmar ks
Ġsw im
Ġsw oll
Ġsw eep
Ġsch itz
ink a
oh u
Ġsm ugg
ank er
Ġover w
Ġpar c
Ġpar f
Ġpar an
Ġem uls
Ġpre gg
Ġpre pp
ire able
cr edit
cr itical
ook a
ook er
ax ax
Ġx ox
ge on
erm a
age able
ool ed
ull a
Ġgl ory
Ġas y
Ġas ss
ond ed
uff ins
ix s
Ġsub reddit
kk a
kk er
ert o
co x
co le
co aster
Ġte amm
Ġstr ik
fr anch
br ian
br eed
br inger
enn ed
ace ae
Ġinter conn
ott ers
Ġhe id
Ġhe yy
amp ing
arm e
sp e
sp awn
Ġde activ
inn es
aaaaaa ah
hhh t
Ġdec lar
wh it
gh ts
Ġap ath
Ġout man
Ġass ign
Ġag h
gl ings
Ġtw o
Ġtw ir
Ġtw ins
Ġman z
add led
Ġdes e
Ġdes cript
Ġint roduc
unk a
Ġgu ant
Ġkn ight
iff ed
vers ation
fuck in
Ġrep ar
Ġrep ubl
Ġwe ih
Ġsqu ad
Ġev id
Ġev isc
Ġcol omb
Ġdef ibrill
orr ent
Ġinc el
Ġinc arc
Ġinc ident
ugg s
ugg ers
Ġind ep
Ġind iscr
urr ent
Ġred is
rop e
eng ed
rrrrrrrr rrrr
rrrrrrrr rrr
Ġop i
opp ity
Ġins in
inc ing
Ġdep op
Ġu hh
Ġer as
Ġfuck s
Ġhom ew
Ġscr ub
Ġscr ubb
oul tr
Ġdi ar
Ġdi abol
Ġbro ads
arn t
Ġrem ain
Ġrem ark
Ġcont roll
Ġi od
Ġon ion
Ġnon onononon
Ġmet ac
Ġmet rop
imm el
Ġcomm it
rav en
Ġsal iv
Ġret urn
uit ar
Ġcons ent
Ġis ab
Ġob str
Ġob fusc
Ġgen eric
Ġcat c
pos ter
gu ards
we ights
Ġele g
Ġgro v
ient ific
Ġbab yl
Ġsom ers
Ġuns ubs
Ġmac l
Ġref err
Ġhum il
ops is
ffff fff
eter a
Ġep il
Ġep ith
Ġpur g
raw n
Ġatt ent
Ġatt emp
onk y
Ġcur ious
ini que
Ġconf isc
Ġconf eder
Ġmult is
Ġnew sc
Ġkh an
Ġkh warezm
oin ed
Ġrev ital
Ġfac ilit
Ġtim est
Ġang i
Ġang er
Ġrh od
sss st
ograph ed
ograph ical
oz i
Ġbi of
Ġfre est
Ġdist inct
Ġaf tern
Ġhyper f
aaaaa hhhh
Ġmicro f
Ġair s
omm ing
Ġmod el
Ġand re
Ġsec ular
Ġhem at
Ġhem ip
Ġfur ry
Ġpan hand
upp ed
ify ingly
Ġear l
Ġovers tr
Ġfe ather
Ġey er
Ġtra ins
Ġtra vers
aid en
Ġvol ks
Ġpot at
Ġhon est
Ġhon our
Ġexpl an
lock ing
ete en
Ġast roph
po ons
yyyyyyyy yyyy
Ġsem in
Ġbad ass
Ġest abl
ersh ips
ha ust
Ġfire h
Ġbut ch
Ġgal van
Ġje an
Ġtor ped
Ġhigh school
Ġcent er
Ġbul k
Ġfin ish
urb ate
Ġpat ern
ident ial
mem bers
comp any
Ġdar win
Ġenc aps
Ġros eb
Ġreb ell
iot ics
aar den
Ġconv en
egg s
Ġfar f
Ġsid eb
odd ed
Ġcontr ib
osc ience
osc opic
Ġbutt ers
Ġaud ios
Ġbec au
Ġwhat d
sch sch
Ġmut il
idg et
Ġfam ily
Ġextr ad
ped ia
lay ing
sm ith
Ġsor cer
Ġec st
Ġpep s
Ġmass iv
iling ual
Ġproc ast
Ġproc eed
Ġcounter fe
Ġsumm ers
Ġsab ot
Ġstep d
Ġstep s
Ġcast r
Ġpast eur
wwwwwwww ww
Ġadv is
hhhhhhhhhhhhhhhhhhhhhhhhhhhhhhhh hhhhhhhhhhhhhhhh
hood s
Ġenv iro
cast le
Ġdest roy
Ġbit c
Ġfant ast
Ġsep er
Ġchild s
pot ato
Ġmoth afuck
ebo at
Ġcomb at
watch ing
Ġpros ecut
hand ed
Ġmaj or
Ġlas er
Ġsuff er
Ġgir aff
Ġexh aus
uuuuu us
jack et
Ġpul ver
Ġconn ect
Ġns f
Ġperf ection
ienc ies
Ġtol er
Ġnick el
Ġdod ec
Ġcreep y
Ġce as
oi uh
Ġvide og
ibl ity
Ġacqu ies
Ġappro xim
Ġdeep thro
lov ed
Ġtran ss
Ġflav our
jf jf
Ġsouth ern
emb les
rous ly
Ġcha uff
Ġodd ly
Ġpreg an
Ġpreg anan
valyl tryptoph
Ġsuperm ark
ewor thy
iiiii ine
mith ing
Ġmong ol
occ up
Ġparal lel
bu ild
lif ts
Ġult im
seryl leucyl
fu ly
ortion ate
Ġmob il
bus iness
Ġchron ic
chem ical
Ġadj ud
alog y
Ġmaint en
Ġpolit ical
ifi ying
oun ce
Ġark ans
Ġcoh ab
charg es
ghgh ghgh
esn aked
Ġhod g
Ġnutr ition
Ġneb ul
Ġpadd le
fight ers
Ġhul k
Ġwhist le
Ġaccident al
Ġcott on
Ġdiam ond
Ġpurs u
Ġpanc re
cont ext
Ġench ant
Ġbbb b
Ġlud ic
Ġsepar at
gas ms
Ġdefen estr
Ġdwar f
chik chik
rant rant
Ġdepl oy
Ġhelic op
Ġalphab et
quaresquaresquaresquaresquaresquaresquaresquares quaresquaresquaresquaresquaresquaresquaresquares
Ġscul pt
Ġdiscip lin
ogl ob
Ġdecon str
ophren ia
Ġthal ass
Ġmispr ono
Ġguill ot
legg ed
Ġremin isc
Ġpsychoan al
Ġbure auc
Ġunrec ogn
Ġexac erb
Ġsupercalifrag ilistic
ahed ron
ovol can
Ġaccomm od
Ġabbre v
Ġratem yp
Ġchiro pr
Ġasym pt
Ġkryp ton
a hhhh
a unt
b od
b eth
b eep
b illy
b eef
b umps
b ikes
c ia
d b
d k
e ens
f en
f ot
f ang
f ry
f arm
f ingers
f ury
g ir
g ow
g ie
g hhhh
g ets
h b
h em
h und
h ail
h ydr
h urst
j m
j is
j us
k us
k ap
k op
k ak
k ai
k ha
l le
l iv
l ied
l ighted
m un
m ul
m ons
m ets
m ores
m onger
n m
n v
n en
n ell
n ds
n ado
p is
p am
p ans
p ins
p iss
p eed
p uff
p awn
p ools
p arty
p apers
q b
q c
q g
q k
r f
r ust
r io
r ush
r agon
r ange
t ak
t oth
t its
t ure
t ips
u en
u il
u hh
u em
u age
u ations
v x
v ig
v ins
v ote
w eek
w erk
w ould
y ah
z ig
z erk
Ġ eeeeeeee
Ġ ong
Ġ ors
Ġ ond
Ġ oot
Ġ esh
Ġ etr
Ġ itz
Ġ utter
Ġ oooooooooooo
er oy
Ġs x
Ġs ii
Ġs oh
Ġs erm
Ġs unt
Ġs oon
Ġs aaaaaa
Ġs uss
Ġs off
Ġs iiiiii
Ġs oz
Ġs ides
es ing
an u
an ly
an ada
aa an
on ite
on ica
Ġc j
Ġc ans
Ġc orm
Ġc oot
Ġc sp
Ġc iel
Ġc ame
Ġc ode
Ġc ephal
en p
en ingly
at d
at ian
at ars
ar et
ee able
oo op
ed i
ed own
ed ited
al as
al ive
al ry
al ittle
Ġp x
Ġp em
Ġp eb
Ġp und
Ġp oon
Ġp ipp
Ġp iqu
Ġp elle
Ġp ued
Ġb z
Ġb iiii
Ġb ick
Ġb one
Ġb eed
Ġb ole
Ġb arm
Ġb idd
Ġb rrr
Ġb eez
Ġb eek
Ġb zzzz
Ġb uuuuuu
Ġb esp
Ġb agh
Ġm x
Ġm our
Ġm oy
Ġm aaa
Ġm eph
is al
is man
or ro
or ant
or ism
or io
Ġd ii
Ġd iz
Ġd end
Ġd ied
Ġd oot
Ġd nd
Ġd ieg
Ġd adad
Ġd alm
Ġt eeee
Ġt ess
Ġt uc
Ġt ov
Ġt ys
Ġt app
Ġt eth
Ġt its
Ġt row
Ġt oph
Ġt ai
Ġt sk
Ġt ien
Ġt oes
Ġt ao
Ġt anz
it f
it all
it ons
it ance
ic l
ic os
ic able
ic ine
Ġr il
Ġr ins
Ġr ide
Ġr anc
Ġr umm
Ġr agg
Ġr omm
Ġr odd
Ġr umbl
Ġr itual
le ch
le ave
Ġf os
Ġf oooo
Ġf iss
Ġf ax
Ġf iest
Ġf ille
Ġf erv
Ġf iend
Ġf ogg
Ġf eld
Ġf tf
Ġf lem
Ġf rown
as sss
Ġh g
Ġh l
Ġh aaaaaaaa
Ġh ik
Ġh ugh
Ġh olog
Ġh ole
Ġh uh
Ġh aj
Ġh wh
Ġh rrr
Ġh erd
Ġh onn
Ġh eeeee
Ġh eeeeee
Ġh ait
Ġh azz
Ġh aar
un ion
el is
el ic
el ation
el ton
el ih
el ius
el ope
el ords
Ġg st
Ġg oh
Ġg eng
Ġg eez
Ġg ald
Ġg rain
Ġg utter
Ġg yps
aaaa r
aaaa t
aaaa ar
ac ch
ac ol
ac ers
ac co
ac count
Ġw d
Ġw g
Ġw and
Ġw aaaaaaaa
Ġw ert
Ġw ise
Ġw oj
us ic
us ly
il ous
ur ist
am d
am ned
am azing
et ra
et ails
ro tt
ad u
ad al
ad ak
ad ium
Ġl ies
Ġl eng
Ġl aff
Ġl over
Ġl itr
ch ip
ch ees
ch urch
Ġn em
Ġn iv
Ġn ash
Ġn one
Ġn ect
Ġn ice
Ġn arg
Ġn ase
Ġn osh
Ġn ept
Ġn iiiiii
ol it
ol om
ol ph
ol ite
ion ary
ers ons
ab use
uu uh
os ki
Ġe cl
Ġe pp
Ġe bb
Ġe aves
Ġe inst
Ġe ugen
Ġk g
Ġk es
Ġk aa
Ġk all
Ġk end
Ġk af
Ġk oy
Ġk arr
Ġk abl
Ġk uw
re ys
re ment
re ich
ut ut
ut ions
id et
id one
eeee et
ot i
ot ation
ag l
ag al
ag ey
ent ino
ig on
im eter
im oto
ec ost
um atic
ir ms
ir uses
em is
em os
em aking
Ġv v
Ġv on
Ġv ia
Ġv ort
Ġv ann
Ġv anc
Ġv onn
Ġv esp
Ġo uch
Ġun is
Ġun man
Ġun ited
Ġun not
Ġun reg
Ġun inst
Ġj i
Ġj at
Ġj aaaa
Ġj ig
Ġj ons
Ġj uk
Ġj oll
Ġj org
Ġj ude
st im
st age
st ered
iv or
iv ities
Ġst s
Ġst ain
Ġst imp
Ġst urd
ist on
ist ar
ist ory
and on
est ro
est ine
est ore
Ġch om
Ġch ass
Ġch aw
Ġch ach
Ġch lam
th th
th ump
ak ian
Ġsh iiiiiiii
Ġsh art
Ġsh ear
Ġsh ield
Ġsh enan
qu ake
ip se
ant asy
Ġre q
Ġre ar
Ġre ach
Ġre ps
Ġre alt
Ġre inh
Ġa in
Ġa ure
Ġa www
Ġa uction
up les
od ys
od one
ub stant
if ice
all ah
all ica
ra zy
Ġy er
Ġy an
Ġy arm
Ġy ipp
Ġy iff
ug r
ill on
ill ar
ill ic
ill ia
ill ery
ib it
ib ile
Ġsp iel
Ġsp ieg
ell us
ob ics
Ġcon fr
Ġcon vent
ep ro
ick en
oc occ
oc iety
end or
Ġtr as
Ġtr ue
av is
ang ler
ish in
eb i
eb el
eb ut
eb one
sh r
sh ock
sh orts
Ġex l
ik y
art ers
Ġz al
Ġz et
Ġz ul
Ġz ub
Ġz ack
Ġz zz
Ġz oot
Ġz he
Ġz ucker
Ġz ipper
Ġbl ad
Ġbl abl
Ġsc ary
Ġsc off
Ġwh il
Ġwh om
Ġwh ims
ov an
ov ski
Ġpr y
Ġpr ere
Ġpr ese
Ġpro cc
Ġpro sp
Ġpro gen
pl ug
pl anes
Ġcr ad
Ġcr ick
Ġcr ink
Ġcr umb
Ġcr apt
und ay
tr onic
ach ron
Ġfl in
Ġfl ander
Ġfl ims
ock y
Ġfr u
Ġfr et
Ġfr ies
Ġfr agr
Ġfr anz
Ġfr edr
Ġbr ont
Ġbr enn
Ġbr uh
Ġbr isk
Ġbr anch
Ġal n
Ġal p
Ġal r
ys ide
ef aced
our ced
Ġgr ig
Ġgr iev
gg e
gg s
Ġle l
Ġle op
Ġle wd
Ġdis r
Ġdis pl
Ġdis pro
Ġcom r
Ġcom unic
man e
man ce
Ġan us
Ġan ym
Ġan nnnn
Ġan yt
Ġan achron
oooooooo ooooooo
ph ole
Ġcl an
Ġcl ack
Ġcl unk
Ġcl ient
eh ere
zz er
Ġsl um
Ġsl osh
ber ed
Ġim ed
Ġpl ough
Ġpl asm
Ġpl atin
Ġqu il
Ġqu ik
ind o
ial ed
ial ized
ear ance
att en
ev al
orn y
orn ed
orn ey
orn ia
Ġam ort
bl u
bl ings
bl ower
of h
eth at
Ġsk ul
Ġsk ew
Ġsk ys
Ġsk idd
af l
Ġsn aaaa
Ġsn ip
Ġsn atch
Ġsn itch
Ġen rich
oth em
Ġab und
Ġab dom
Ġab orig
Ġco ag
cl iffe
yp ing
Ġdr ak
Ġcar v
Ġcar ri
uk er
Ġmar l
Ġsw ag
Ġsw iv
Ġsw ole
oll er
Ġsm ile
own ers
Ġpar rot
Ġpar enth
Ġem ac
Ġem et
Ġem igr
Ġpre quel
ire ment
cr u
cr ap
cr ust
Ġx f
Ġx ia
Ġx yl
ide a
ge al
ail ly
ern ed
Ġrec irc
Ġrec alc
ond ers
ond itioned
ator ies
ix el
Ġsub cons
Ġsub contr
Ġbe j
ore ans
arr on
kk o
Ġres ent
ert own
co unter
ling er
ult y
fr ed
fr esh
br ig
br ands
fl at
fl ag
fl ash
rom ats
Ġne oc
com be
au w
ize able
Ġel g
Ġel m
Ġel it
Ġel uc
ott es
Ġhe ir
let ic
Ġde k
Ġde esc
inn ey
ipp o
Ġme ath
Ġme ows
esh i
Ġmis ch
Ġmis lab
Ġmis judg
Ġmis diagn
Ġdec omp
wh ack
gh er
Ġant i
Ġant ich
Ġap ro
Ġout sp
Ġass as
Ġfor th
Ġfor ew
Ġfor esh
Ġfor ecl
Ġag or
Ġag grand
Ġtw at
Ġtw eed
Ġman oe
Ġint ub
oss om
Ġkn ot
Ġkn ob
Ġapp er
Ġapp al
Ġapp art
Ġpol yp
yr s
Ġbar be
ih t
Ġrep ut
Ġrep ost
Ġrep roc
Ġwe iss
Ġsqu el
Ġsqu eek
Ġsqu anch
Ġmin ib
Ġmin ecraft
str ess
str ings
str ike
Ġev olution
Ġev apor
Ġcol oss
Ġdef e
etr uth
orr hea
Ġinc ontin
ade qu
Ġred eem
eng a
esc ents
esc reen
yb ut
yb utt
Ġdem oral
sc ience
sc apes
Ġbo il
Ġins em
Ġdep ort
aur ant
dr iver
Ġhy br
Ġu y
Ġu ly
Ġu hhh
oor t
Ġat roc
Ġer ad
Ġer rrr
Ġbur s
Ġhom ec
Ġscr am
Ġscr ip
yt ict
Ġdi ah
Ġbro c
Ġbro d
Ġsur re
Ġsur ve
uch s
Ġcont ag
Ġpe ace
Ġback ped
Ġinf ur
Ġi q
Ġi ams
Ġnon cons
Ġcor v
Ġsal mon
Ġcal am
Ġret rof
unc iation
Ġis rael
udd ers
Ġacc es
Ġacc out
Ġcap tion
oe ff
Ġid ont
pos ing
we iler
ssssssss ssssss
ios ly
ios yn
ros esqu
iy e
Ġur g
Ġur s
aps ed
Ġav en
Ġsom eb
Ġsom ewh
Ġuns elf
Ġmil t
Ġmac d
Ġes k
Ġmed it
Ġmed ium
Ġinv ol
Ġimm ers
Ġmeg ab
Ġsim ul
Ġaa h
Ġaa s
Ġaa rd
mmmmmmmm m
Ġep iph
oog ie
Ġpal let
raw s
Ġmus e
aly zed
Ġunexpected s
Ġbu is
Ġtre b
Ġtre kk
Ġreg ist
Ġconf id
Ġmult ig
Ġexc eption
Ġkh a
atur ation
isc ip
isc uit
oin ing
Ġit was
Ġfac epl
Ġend oc
Ġang l
Ġblack m
eph one
ograph ies
ograph ically
oz a
Ġsil mar
Ġsil hou
acc i
Ġdist ingu
Ġah ahh
Ġcan on
lex es
Ġdet ro
Ġdet ect
Ġmicro bi
Ġdown load
aut ism
Ġsyn t
fs ch
Ġwar th
Ġhem or
Ġfur l
Ġdiss em
Ġdiss ip
Ġmot ion
Ġthr esh
Ġear ly
Ġovers tim
Ġwor st
Ġwor ry
Ġfe as
boy friend
Ġdiv in
Ġdiv orc
Ġoh god
Ġhell ll
Ġto ung
Ġhard c
Ġfir es
form e
Ġexpl or
Ġwater proof
agr ams
Ġhyd roph
Ġpos ts
Ġlov eb
Ġhot d
Ġay y
rec ting
Ġbad ger
Ġlab e
Ġlab yr
Ġcond ition
bre w
Ġcop yp
Ġcop roph
par ks
use um
Ġspec ific
Ġnec rot
Ġneur opsych
net work
Ġsu ic
Ġgood by
Ġtele ph
Ġgal act
Ġsam ar
Ġfil ip
eak s
Ġbull doz
Ġtor ch
Ġtor ment
Ġequ ip
Ġaqu aint
mem e
uj ah
Ġill ino
isk ey
Ġcirc uit
Ġunt ouch
Ġphil ip
Ġsid ew
Ġboo by
ision ing
Ġter ry
Ġjack r
Ġing red
Ġaff ect
Ġcross f
Ġmcc r
igr aph
Ġts un
osc opes
Ġwhit ew
eheh e
egr ad
Ġaud itor
Ġmol ly
Ġadd ict
Ġpok em
Ġshitt ym
Ġach iev
Ġda ik
Ġbol iv
Ġban j
Ġow n
Ġbod yb
iol i
Ġblu et
Ġmass ac
Ġug ly
Ġjoh ann
Ġcand le
Ġcand id
Ġproc ed
master race
Ġelect romagn
Ġmir ac
Ġcab in
Ġaer op
Ġnic ol
Ġtit an
Ġprob ably
oosh y
lett es
Ġbh ag
Ġbow l
cast ing
Ġdest ro
Ġdest igmat
Ġfer ment
Ġshe er
ross ed
Ġaaaaaaaa aaaa
ebo ards
itar ians
Ġvac uu
mark ed
shot ting
Ġfort un
Ġhit ler
Ġhors er
xxxx xxxx
Ġment al
Ġtyp es
Ġhur rr
angel o
Ġfriend s
Ġdistr ib
Ġrefr idger
Ġlob otom
Ġanal og
Ġanal ys
alist ically
Ġboot str
Ġvo ice
cover y
Ġcapt iv
Ġultr al
Ġbef riend
Ġsupers tr
but ts
Ġcul min
Ġstor yb
Ġstor yt
Ġcele b
Ġvill an
Ġstud ent
ehe art
lich e
Ġemp ty
aim ed
Ġthund erb
block er
Ġspir it
Ġany wh
Ġterm in
log ic
Ġfol k
Ġnap ole
Ġpseud o
Ġtog eth
Ġbank r
Ġhold m
anim als
Ġsky rock
bu ilt
Ġimpl ant
Ġbomb ard
Ġmyst er
Ġwol ver
Ġbic ycl
Ġmous t
Ġrequ is
fil ms
Ġorn ith
urf ing
Ġoth ers
Ġmann er
untr y
Ġincr im
Ġwit hh
Ġpit ts
Ġgyn a
brush ing
Ġord in
Ġsof ts
Ġwarr ant
Ġinj ur
Ġexist ential
Ġille gal
Ġhun ger
Ġges ch
aaaw ww
Ġfit ness
efor ce
Ġmuth af
otom onst
Ġinterr upt
Ġaccom od
Ġraz or
Ġrepr im
ebox es
Ġantiv axx
Ġmex ican
chch chch
Ġdisg ust
Ġsneak yback
Ġglut ton
Ġalg or
chick ens
xdxd xdxd
obl ast
arb ons
Ġgoss ip
anananan anananan
rogr am
Ġcounc il
pock ets
resp ect
mmmmmmmmmmmmmmmmmmmmmmmmmmmmmmmm mmmmmmmmmmmmmmmmmmmmmmmmmmmmmmmm
Ġprol ifer
Ġsuperv ill
itarian ism
Ġress ur
Ġreim burs
Ġale ks
Ġimag ine
Ġkitch en
illi ams
Ġastron om
aptaptaptapt aptaptaptapt
Ġwhisk ey
Ġleth arg
Ġwhis per
Ġsubd iv
Ġchocol at
idn othingwrong
stad t
Ġstew ard
west ern
Ġunim agin
Ġcarc in
Ġrs v
Ġuncons c
Ġcontro vers
Ġwann ab
Ġthous and
oraoraoraoraoraoraoraora oraoraoraoraoraoraoraora
Ġdeleg itim
Ġdipl om
Ġchains m
Ġcircle jerk
Ġteet ot
Ġphs yc
Ġhyg ien
Ġlivest ream
evel oped
Ġblasph em
Ġjux tap
Ġxxxt ent
Ġwisc ons
Ġanaph yl
phot os
Ġquetz al
Ġdecent ral
Ġhippop otomonst
Ġreinc arn
Ġfriv ol
Ġembe zz
Ġrabarber barbar
Ġsmorg as
ytict acs
Ġsneakyback ground
a es
a ith
a ise
a uts
a hhhhh
b ir
b ass
b art
b ump
b org
b uy
b ucks
b anned
c ies
c ams
d it
d ex
d ating
e au
f j
f ist
f ew
f ive
f ills
f lesh
f athers
g c
g age
h w
h ive
h aps
h ooo
i oh
i ets
i ene
i atic
i ency
j y
j ac
j ong
j ohns
k th
k ien
k illing
k itty
l id
l uck
l ans
l man
l ive
l age
l ads
l ides
l ogs
l ittle
m ies
m ast
m unch
m ovie
m irtz
n est
n ation
n ia
n ce
n our
n ose
p b
p ak
p ell
p ik
p icking
r or
r ie
r ill
r ink
r ied
r ums
r ider
s ing
t g
t l
t ur
t ro
t og
t od
t ok
t ype
u on
u ine
u ilding
v b
v il
v od
v ia
v ine
v ale
v warm
w g
w k
w em
w ort
w itt
w ives
w ells
y es
y as
y ang
y one
y ork
y face
z g
z as
Ġ ers
Ġ age
Ġ ull
Ġ irl
Ġ izz
er um
er ys
er ge
er oom
in on
in ee
in ately
Ġs st
Ġs iz
Ġs ier
Ġs ight
Ġs als
Ġs uh
Ġs agg
Ġs aus
Ġs ask
Ġs ider
Ġs aint
Ġs ould
Ġs ucker
Ġs umer
es l
es r
es co
es ees
an ians
an nnnn
an ana
an ites
an ya
an adian
on et
on ec
Ġc im
Ġc aaaaaaaa
Ġc ang
Ġc cc
Ġc ump
Ġc utt
Ġc ement
Ġc obb
Ġc unning
en kins
at ep
at ry
at ivity
ar ism
ar ely
ar iously
ee b
oo ed
oo ol
al ow
al ex
al ms
al izer
Ġp ate
Ġp yl
Ġp ead
Ġp ust
Ġp ith
Ġp ect
Ġp ax
Ġp ics
Ġp ox
Ġp ains
Ġp aar
Ġp igeon
Ġb k
Ġb p
Ġb ist
Ġb iiiiiiii
Ġb ally
Ġb ier
Ġb ink
Ġb erm
Ġb atter
Ġb uuu
Ġb ais
Ġb aah
Ġb egr
Ġb aud
Ġb agu
Ġb iped
Ġm ers
Ġm ard
Ġm ate
Ġm out
Ġm ins
Ġm ih
Ġm sc
Ġm omb
Ġm uf
Ġm unic
Ġm mmmmm
Ġm ehr
Ġm mmmmmm
is et
is im
is ist
is ian
or ating
or ious
or ically
Ġd ann
Ġd ire
Ġd uuuuuuuuuuuuuuuu
Ġd iiiiii
Ġd well
Ġd rows
Ġd addy
Ġt is
Ġt rr
Ġt and
Ġt ef
Ġt ood
Ġt ash
Ġt old
Ġt ull
Ġt ars
Ġt ih
Ġt aff
Ġt ae
Ġt ux
Ġt yg
Ġt eem
Ġt ony
Ġt arp
Ġt itr
Ġt aked
Ġt iber
it re
it ian
it ial
it ry
it ness
it age
it amin
it uted
it uting
ic ator
ic its
ic ially
Ġr st
Ġr aph
Ġr oos
Ġr uf
Ġr ode
Ġf ion
Ġf ian
Ġf app
Ġf unt
Ġf ugg
Ġf uns
Ġf ein
Ġf ift
Ġf arc
Ġf ahr
as o
as ks
as ssss
as ma
Ġh b
Ġh ic
Ġh ess
Ġh ie
Ġh hhhh
Ġh end
Ġh ov
Ġh ond
Ġh ays
Ġh idd
Ġh ams
Ġh ops
Ġh iiiiii
Ġh oj
Ġh unts
Ġh utch
un z
el g
el ons
Ġg yl
Ġg ens
Ġg ins
Ġg ary
Ġg rom
Ġg och
Ġg uth
Ġg aul
Ġg oob
Ġg imp
Ġg etch
Ġg rown
aaaa an
ac ic
ac id
ac ent
ac iously
Ġw on
Ġw ro
Ġw ut
Ġw ud
Ġw ens
Ġw ern
Ġw oom
Ġw edd
Ġw erd
Ġw ield
Ġw aaaaa
Ġw ipe
Ġw ahl
us o
us st
us iveness
il on
il ton
il itar
ur ic
ur as
ur ous
ur ia
ur ely
ur gery
am ol
am ir
am ah
am ber
am ont
am ite
et ent
et ely
et yp
et ail
et ions
ad ick
ad ong
ad ora
Ġl om
Ġl ens
Ġl eed
Ġl llll
Ġl oof
Ġl uf
Ġl ooks
Ġl lor
Ġl iq
ch ap
ch op
ch ang
ch amp
ch ips
ch ains
ch annel
Ġn il
Ġn th
Ġn ets
Ġn ai
Ġn augh
Ġn oooooooooooooooooooooooooooooooo
Ġn bc
ol le
ol ina
om less
om eness
om etry
ion g
ab u
ab oos
ab urger
ly w
uu ut
uu up
os us
os ted
os ions
os ition
os arcoma
Ġe arr
Ġe br
Ġe vers
Ġe go
Ġe inz
Ġe clips
Ġk ers
Ġk iz
Ġk nn
Ġk int
Ġk err
Ġk au
Ġk opp
Ġk urd
re ating
re ats
ut ted
id ating
id ays
eeee eet
ot able
ot ically
ot ica
ap ants
ag os
ag ia
ag ood
ag uy
ent ine
ig ar
ig ed
ig ates
ig uous
im ax
ul ah
ul ence
ul ance
ul atory
ec ia
um o
ir is
ir imic
oooo w
em ys
em ism
em ore
Ġv f
Ġv u
Ġv y
Ġv ing
Ġv am
Ġv ant
Ġv ain
Ġv ou
Ġv itt
Ġv ital
Ġv log
Ġo ar
Ġo ch
Ġo gg
Ġo der
Ġo bo
Ġo ugh
Ġun ir
Ġun nn
Ġun ev
Ġun bur
Ġun sk
Ġun aff
Ġun hol
Ġun block
Ġun iform
ah e
Ġin if
Ġin vert
Ġin iti
Ġin appropr
Ġj c
Ġj l
Ġj oo
Ġj or
Ġj el
Ġj ous
Ġj ep
Ġj af
Ġj umb
Ġj amb
Ġj ama
Ġj obb
st d
st or
st ion
st ay
st ops
st ains
st hat
iv als
iv ery
iv ered
iv ably
Ġst ow
Ġst ate
Ġst eg
Ġst ov
Ġst eth
Ġst ops
Ġst urg
ck le
ist en
and an
and le
and as
est ate
est able
est ones
Ġch c
Ġch ig
Ġch iv
Ġch uk
Ġch ern
Ġch edd
Ġch azz
th ud
th ole
ak ill
Ġsh u
Ġsh on
Ġsh at
Ġsh ed
Ġsh av
Ġsh ipp
Ġsh add
Ġsh ift
Ġsh red
Ġsh rew
ss es
qu otes
ant ry
Ġre us
Ġre per
Ġre he
Ġre aff
Ġre play
Ġre jo
Ġa es
Ġa eg
Ġa esthetic
up tions
od ial
od ox
od ile
Ġth t
Ġth ug
Ġth ump
Ġth irt
Ġth romb
ub reddits
ie k
ie ge
if ys
all lll
all lly
ra ut
ra ine
Ġy v
Ġy is
Ġy un
Ġy us
Ġy st
Ġy eh
Ġy uh
Ġy esh
Ġy ooo
Ġy uz
ug i
ug an
ill ow
ill ation
ib ing
ib ert
ib alism
Ġsp er
Ġsp ur
Ġsp raw
Ġsp okes
ell an
ell lll
ob ah
ver a
Ġcon p
ep er
ep per
ian ne
oc ide
oc ele
oc eption
oc ean
oc yan
Ġtr es
Ġtr is
Ġtr ab
Ġtr ent
Ġtr app
Ġtr eel
ate x
nn ess
ast an
ast as
ang les
ish as
ish man
eb ad
eb ear
ll ed
uck in
uck et
uck les
eg s
eg asm
sh ev
sh ore
sh eep
sh esnaked
Ġex m
ik os
uc in
uc ccck
Ġz u
Ġz il
Ġz ir
Ġz app
Ġz yg
Ġz epp
Ġbl ush
Ġsc oop
Ġsc urr
Ġsc ept
Ġsc roll
Ġsc arc
ew w
ew here
Ġwh on
Ġwh el
Ġwh os
Ġwh ich
Ġwh aaaaaa
Ġwh yd
Ġwh eez
ath or
yl ess
yl ine
ex x
ine a
ov ille
ov irus
ens itive
Ġpr in
Ġpr ime
Ġpro x
Ġpro str
Ġpro min
pl at
pl ants
pl ugs
pl ussed
aaaaaaaaaaaaaaaa aaaaaaaa
Ġcr et
Ġcr eed
Ġcr ook
Ġcr ump
Ġcr ime
Ġcr ooked
ach is
Ġfl ed
Ġfl ann
Ġfl amm
Ġfl are
Ġfl opp
Ġfl occ
ock ets
Ġfr ie
Ġbr ee
Ġbr al
Ġal y
Ġal am
Ġal iv
Ġal th
Ġal lev
Ġar am
Ġar ro
Ġar ug
Ġar ts
Ġar ct
ef ied
Ġgr yph
Ġgr etz
Ġle c
Ġle in
Ġle ader
Ġdis member
Ġdis mant
Ġcom rad
Ġan j
Ġan z
Ġan is
Ġan or
Ġan ac
Ġan oth
ph il
ph obia
Ġcl er
Ġcl on
Ġcl it
Ġcl aw
Ġcl aus
der n
eh ood
Ġsl app
Ġsl ush
Ġsl ugg
Ġsl aver
Ġim s
Ġim pression
Ġim bal
Ġpl us
Ġpl ow
Ġpl ug
Ġpl aus
Ġpl agu
Ġqu ee
Ġqu ill
Ġqu ench
ind i
ou e
ou ille
ks j
bo a
yn chron
ight ers
ry thing
az ole
Ġph ara
Ġam r
Ġam end
Ġam mon
bl ies
ord ers
Ġad n
Ġad ip
Ġad ver
Ġad her
Ġad opt
of e
eth a
pr t
pr ings
Ġsk ii
Ġsk eez
Ġsk ept
ich u
af y
af el
af ish
af ric
Ġsn ar
Ġsn oot
Ġsn aps
Ġen j
Ġen umer
out ed
Ġco ach
Ġco her
cl ing
cl ack
iss ing
iss ant
iss ions
Ġdr ive
Ġdr izz
Ġsup per
Ġsup ress
Ġcar g
Ġcar eg
Ġcar ls
Ġcar pet
ith ia
Ġper men
Ġper ipher
ost a
Ġmar qu
eeeeeeeeeeeeeeee eeeeeeee
eeeeeeeeeeeeeeee eeeee
Ġsw ar
Ġsw ed
Ġsw ay
Ġsw art
Ġsw ords
Ġsch i
Ġsch ne
oll o
ink o
oh a
oh s
oh fuck
Ġsm ut
Ġover e
Ġover ach
Ġover ind
Ġover prot
ont as
Ġpar m
Ġpar ox
Ġem ir
Ġem per
Ġem ail
Ġpre med
Ġpre occup
cr ackers
act ically
Ġx h
Ġx z
erm al
ym s
ym es
ps on
Ġgl a
Ġgl ock
ern et
ern igg
Ġas d
pp t
gr i
gr im
Ġrec ap
Ġrec alibr
ond ing
ator i
uff y
uff les
Ġsub str
Ġsub way
Ġsub mar
Ġsub ject
its aboy
Ġbe ur
Ġbe ans
Ġbe au
Ġbe aver
ite ch
arr ior
Ġres ear
Ġres usc
led ged
ert e
ert ime
co ins
co uld
Ġte ens
amm ad
Ġstr ag
Ġstr oop
Ġstr eets
fr en
br eeding
fl aps
enc il
ile an
se at
eee es
eee aa
eee aaaa
Ġne ib
com ics
Ġmc gl
ild o
be it
be ats
ign e
ater ed
aph rod
Ġel ig
Ġel dr
Ġel bow
Ġinter f
Ġinter change
oph ys
oph obes
oph agus
let ons
Ġse a
Ġse ap
Ġse ah
amp us
sp in
sp aw
Ġde uter
uh m
Ġmis f
Ġmis man
Ġmis anthrop
Ġmis ogyn
yd og
yd rogen
Ġdec lass
wh ale
Ġant ec
iest s
Ġap o
Ġap er
Ġout c
Ġout f
Ġout sh
Ġass p
Ġass um
Ġass ert
Ġfor ev
Ġfor fe
Ġcomp t
Ġcomp lement
Ġcomp artment
gl a
gl ogh
ars on
Ġman u
Ġman iac
bur ning
Ġgu il
Ġgu est
Ġkn uckle
Ġapp re
Ġapp olog
Ġapp let
iel a
iel der
Ġpol yph
yr d
ahahahah ahh
ih ara
Ġrep op
Ġrep ub
Ġunder g
Ġunder estim
Ġwe en
Ġwe igh
Ġmin esw
Ġev elyn
Ġinc ont
te es
Ġind ig
Ġind uc
Ġind ign
Ġind estruct
urr ence
me ister
umm a
ants ants
Ġred und
eng o
eng uin
Ġtrans ist
Ġtrans fig
yc raft
Ġdem ent
Ġdem arc
pec ts
erv ant
Ġbo z
Ġbo ys
Ġbo ond
Ġbo unt
Ġins ol
Ġins urg
Ġimp ed
dr agon
Ġhy phen
for ces
Ġu hhhhhhhhhhhhhhhh
aff le
Ġer ik
Ġq h
Ġq ur
Ġfuck m
Ġfuck off
Ġfuck you
Ġhom eg
Ġscr itch
Ġscr unch
Ġdi agon
oooooooooooooooo oooo
ron es
Ġbro cc
Ġsur p
arn ey
Ġrem m
Ġrem emb
Ġback fl
Ġall ll
Ġnon v
Ġnon onon
Ġnon exist
Ġcor ks
Ġund et
Ġund ef
aaa and
aaa hhhh
Ġcomm ission
Ġsal ut
Ġrel uct
Ġret al
Ġret ur
Ġret con
Ġent it
Ġcons id
Ġcons umm
Ġob ed
Ġob ss
udd ies
Ġdel icious
ees us
Ġgen es
oe lec
ma iden
ius ly
amb les
ssssssss ssss
Ġmag ik
eness es
Ġgro t
Ġgro cer
Ġtur g
ij o
head edness
ement al
Ġkr ab
Ġkr ank
ept able
ept ive
Ġbab b
Ġbab yc
Ġus er
Ġuns ett
Ġuns ucc
Ġdo z
Ġunex c
Ġmac aron
Ġom f
Ġmed ia
Ġinv olv
Ġmo j
Ġnot ting
Ġimm ens
eeeeee ep
Ġinst al
Ġinst agram
Ġpur ple
ze k
yg irl
ogg s
Ġgh oul
Ġdev ol
Ġoff icial
Ġcur d
aly zing
Ġhead qu
asc ular
Ġshit post
Ġconf uc
Ġmult iv
elf s
Ġexc erc
Ġrev al
Ġrev is
ask an
aul ted
Ġhal fs
Ġhyp ot
na ut
Ġbi oh
Ġcam oufl
Ġchr iss
Ġfre ind
Ġser iously
estr eet
iqu et
abl u
Ġla unch
Ġic on
Ġconc oc
iw s
iw ill
de er
Ġdet ail
Ġmicro sc
Ġsyn erg
Ġmel on
Ġgar bag
Ġwar eh
Ġpart n
Ġspl at
Ġand rom
Ġhem is
Ġos ter
upp a
Ġext inc
Ġart ic
Ġmot orc
Ġmur k
Ġmur ph
Ġthr ift
Ġdisc ord
uz a
Ġden ounc
Ġol ym
Ġol ymp
Ġwor sh
any e
any way
Ġfe ud
Ġfe ver
Ġpres id
Ġdiv is
Ġdiv ert
Ġey el
Ġto aster
Ġlo af
Ġvol ley
Ġmy el
Ġfir el
Ġtro ts
Ġgrand d
Ġher p
Ġher es
Ġher pet
che z
Ġpos th
Ġmill en
Ġlov es
Ġsem en
Ġhot el
ooth s
Ġcond ol
par ed
Ġsoc io
Ġemb old
Ġemb alm
eric an
Ġtele mark
Ġtele graph
Ġfil es
Ġfil th
val ylalanyl
Ġbull s
Ġgo al
astic ity
fish es
Ġtech s
Ġcent re
Ġped iatr
urb ing
Ġpet it
Ġprec ed
Ġwind ows
Ġaqu ap
mem t
uj i
Ġill usion
Ġneg lect
Ġneg ativ
icul ate
Ġbatt les
Ġball er
Ġball oon
Ġmiss ing
Ġdar th
Ġenc ryp
lec tions
fe ild
Ġhous es
Ġhous ton
Ġday dream
Ġfro gg
egg ing
ther apy
anch o
Ġsa ud
Ġsid est
odd le
Ġbus c
Ġaff irm
Ġmer ry
Ġmcc onn
Ġren ew
Ġshr imp
Ġprop og
Ġeng ag
sl ash
illion th
leb ee
leb ottom
Ġpor ts
Ġpok er
Ġpok ed
irr el
ibb ed
ibb ly
Ġwhat sh
Ġwhat thefuck
idg ed
lo af
Ġda esh
Ġextr apol
Ġil ik
Ġveg an
gn ant
Ġbol ted
Ġcos met
sw ord
sw oosh
Ġham bur
comm unity
ven om
Ġfish t
Ġhair st
Ġjoh ns
Ġeg ot
Ġcod epend
Ġhoo h
Ġmas och
Ġconst itu
Ġhapp en
Ġobs ess
Ġreh ears
Ġnos ebl
Ġpick le
rob ot
Ġintr ig
Ġgay d
Ġdisp rop
bon er
Ġib up
Ġsens it
Ġluc as
bt q
lett ers
Ġdoub t
Ġgall ow
reat again
full s
Ġven om
Ġinfl amm
cast ers
Ġsad omas
rock s
Ġpatr i
Ġgor ge
Ġtechn ical
Ġree val
jd h
Ġwil der
Ġll an
Ġchild ren
Ġirr ad
Ġpriv ate
Ġpriv ile
Ġfel ic
opol itan
Ġarg ument
Ġthro ug
watch ed
bro ke
bro ther
Ġbot an
Ġdat ab
worth iness
fort able
Ġcer emon
Ġlob st
Ġlob by
Ġinh al
Ġinh uman
list ed
Ġby z
Ġpret end
ffffffff ff
Ġboot l
Ġna iv
Ġphys c
Ġpul mon
Ġgot ch
Ġwer ewolf
Ġfund ra
Ġlol ly
Ġhorr or
Ġbrain wash
but ton
Ġbath room
Ġech ol
Ġdol ph
Ġvel v
Ġvers ch
Ġvers ack
Ġvap our
Ġvul ner
Ġvul gar
Ġjew el
Ġglob al
Ġrecon fig
Ġliqu or
Ġwholes ome
aaay y
rad io
Ġded uct
Ġthund ers
Ġthund erc
Ġclar ks
Ġtick et
Ġviv is
nik s
Ġfing erb
Ġcircum st
heim ers
Ġsuc ess
Ġbank rupt
threonyl arginyl
anim ous
arth a
bu ilding
Ġunn ecess
crip ts
Ġdoom p
Ġhamm ers
Ġamaz on
Ġirre vers
Ġspell check
Ġdisapp ro
Ġfib rom
Ġchlor of
them ath
Ġspe aker
Ġimagin ary
Ġmotor cy
icular ly
Ġgyn ec
Ġlist en
egu ard
egu ys
Ġflam eth
Ġmisc alc
Ġiam ver
kill ers
Ġscre ens
Ġbio chem
Ġtod ay
Ġincomp reh
Ġexec ution
iit is
Ġlg b
mag ic
Ġmush room
Ġroy al
Ġfoo tr
talk ing
otyp es
uhr er
charg ing
Ġsyl van
Ġjess ic
xy z
Ġjab ron
Ġafr ican
Ġseb ast
owow owow
Ġantiv acc
Ġtri ath
Ġautob i
Ġphill ip
Ġperp etr
Ġincons ider
Ġsoph istic
chick en
Ġverd amm
Ġphant asm
web s
opt ic
efr ont
Ġenth usi
look ing
Ġdoof ensh
Ġconspir ac
Ġgrap efr
Ġimpr ison
Ġyout ub
hhhhhhhhhhhhhhhhhhhhhhhhhhhhhhhhhhhhhhhhhhhhhhhhhhhhhhhhhhhhhhhh hhhhhhhhhhhhhhhhhhhhhhhhhhhhhhhhhhhhhhhhhhhhhhhhhhhhhhhhhhhhhhhh
Ġkidn app
wit hh
Ġpale ont
being bros
christ ian
oct ors
Ġsole mn
elig ious
olv able
ersch m
Ġantid epress
Ġcorpor at
Ġtumbl r
chw itz
Ġdemocr at
arar arar
Ġtodd ler
odododododododod odododododododod
Ġhomes chool
Ġeman cip
arri age
fro mm
icut irimic
Ġoph thalm
Ġpho en
ochrom atic
laugh ter
Ġjub il
Ġshoul der
hur hur
Ġcompan ion
ihih ihih
Ġolig arch
odynam ics
Ġburgl ar
uberuberuberuberuberuberuberuberuberuberuberuberuberuberuberuber uberuberuberuberuberuberuberuberuberuberuberuberuberuberuberuber
Ġragn ar
Ġinev it
ssssssssssssssssssssssssssssssssssssssssssssssssssssssssssssssss ssssssssssssssssssssssssssssssssssssssssssssssssssssssssssssssss
Ġdeter ior
Ġinb et
ubd ub
Ġgry ff
Ġsubl ux
arent real
Ġprag mat
Ġimpe ach
Ġhisp an
Ġmini atur
kom men
Ġincap ac
Ġphotoc op
Ġkinderg art
Ġtrape z
wholes ome
Ġpneumon oultr
journ al
Ġcorro bor
Ġcatac lys
odoubt n
leju icing
angar icutirimic
Ġexas per
oglob in
Ġdeesc al
Ġrabarberbarbar abar
Ġmunic ip
a uk
b ig
b ian
b ong
b ord
b ile
b ites
b uns
b ells
b ourn
b anged
b irth
c les
c apes
c atcher
c irclejerk
d c
d oes
e am
e ap
e ine
e als
e ign
e ase
f ag
f ell
f ont
f ics
f ahr
f actor
f eeding
g it
g og
g oth
h us
h ip
h ook
h yth
h aul
h orns
h unters
i ath
i orn
i age
i ability
i ato
i ologist
j ul
j ie
j aj
j izz
j acking
j immy
k um
k ow
k ens
k ev
k itt
k ills
k illed
k enny
k inesis
l us
l ime
m ec
m ah
m our
m ats
m age
m ix
m eet
m ines
m yst
m onk
m yw
m eyer
m ovies
n c
n able
n az
n ite
n oob
n ails
n ugget
o al
o ist
o ine
o ens
p us
p atch
p ox
p ump
p uss
p iel
p eck
p ages
r x
r ar
r age
r iel
r oof
r illo
s b
s r
s ome
t un
t ip
t ex
t ain
t ouch
t ape
u or
u as
u ad
u ers
u ence
u ette
u ilder
v ant
v ict
v pn
w c
w l
w p
w on
w el
w ish
w eh
w oof
w itter
w inter
w aters
w eeds
x es
x iety
y nn
y sh
y out
y ears
z ec
z ia
z ys
z man
z ma
z ka
Ġ ate
Ġ ets
Ġ iff
Ġ urr
Ġ idd
Ġ erb
Ġ uuuuuuuuuuuuuuuu
Ġ olf
Ġ etch
Ġ iph
Ġ illy
Ġ eeeeeee
Ġ ahahahh
er ity
er rrrr
in b
in or
in ha
in ja
Ġs ess
Ġs og
Ġs ast
Ġs sh
Ġs att
Ġs itt
Ġs ats
Ġs uuuuuuuu
Ġs anc
Ġs ond
Ġs eng
Ġs yc
Ġs erb
Ġs oe
Ġs ze
Ġs ands
Ġs emp
Ġs inter
Ġs odd
Ġs eeth
Ġs esqu
es d
es ians
an yl
aa ap
aa yy
aa arr
on b
on m
on im
on ie
on ious
Ġc hh
Ġc ib
Ġc ex
Ġc uss
Ġc oss
Ġc atr
Ġc elt
Ġc mon
Ġc augh
Ġc rown
Ġc overs
Ġc emet
en j
en ot
en em
en nn
at om
at ts
at man
at own
at ious
at ary
at ians
at eness
at ari
at osis
at ello
ar ck
ar eg
ar ial
ar ied
ar age
ar ella
ar rot
oo os
al it
al ys
al ina
al ala
Ġp j
Ġp uu
Ġp ous
Ġp nn
Ġp idd
Ġp inc
Ġp yg
Ġp oz
Ġp iet
Ġp udg
Ġp ony
Ġp fff
Ġb v
Ġb op
Ġb ian
Ġb igh
Ġb yl
Ġb ort
Ġb ors
Ġb ead
Ġb ds
Ġb yc
Ġb iy
Ġb uns
Ġb ugs
Ġb aaaaaaaaaa
Ġb onds
Ġb ibl
Ġm yy
Ġm eb
Ġm uck
Ġm ott
Ġm itch
Ġm eng
Ġm off
Ġm ains
Ġm ould
Ġm anne
Ġm ocking
Ġm uppet
ing d
ing tons
is le
is el
or u
or le
or ch
or oc
or man
or ical
or ized
or ino
Ġd it
Ġd ate
Ġd ach
Ġd ool
Ġd anc
Ġd ond
Ġd air
Ġd au
Ġd yr
Ġd ugg
Ġd ooo
Ġd onk
Ġd ude
Ġd uf
Ġd omm
Ġd raft
Ġd umber
Ġd sm
Ġd under
Ġd roid
Ġd undund
Ġd adadadad
Ġt k
Ġt if
Ġt orm
Ġt iss
Ġt ith
Ġt ats
Ġt int
Ġt inn
Ġt hhh
Ġt off
Ġt ome
Ġt utt
Ġt ips
Ġt abl
Ġt oob
Ġt ues
Ġt rog
Ġt iger
Ġt usc
Ġt umble
ii an
it ri
ic in
ic ter
ic io
ic ulture
Ġr k
Ġr or
Ġr it
Ġr yl
Ġr ally
Ġr ind
Ġr uk
Ġr atch
Ġr umb
Ġr olf
Ġr ose
Ġr nd
Ġr upt
le ted
le ased
Ġf iz
Ġf eb
Ġf ook
Ġf uss
Ġf iness
Ġf arg
Ġf iy
Ġf rod
Ġf ustr
as il
as co
as ized
as yph
Ġh v
Ġh ii
Ġh ers
Ġh est
Ġh eeeeeeee
Ġh yn
Ġh itt
Ġh its
Ġh ork
Ġh unch
Ġh ald
Ġh ones
Ġh ench
Ġh anz
Ġh oooooooooo
Ġh nnnnnnnn
Ġh umble
Ġh imal
un st
el ar
el ings
el io
el ite
el oad
el ms
Ġg k
Ġg ers
Ġg ue
Ġg ays
Ġg off
Ġg agg
Ġg eld
Ġg orb
Ġg urd
aaaa d
aaaa ag
ac i
ac l
ac al
ac as
ac ola
Ġw v
Ġw am
Ġw ra
Ġw ts
Ġw hhh
Ġw ets
Ġw ave
Ġw onk
Ġw ubb
Ġw ils
Ġw www
Ġw izard
Ġw ehr
us p
us y
il is
il as
il ism
il iate
il oqu
ur us
ur der
ur ism
ur ations
ur bs
am ers
am ab
am atic
et l
et ism
et itive
ro ts
hh ead
ad en
ad ee
ad ol
ad ia
ad oc
ad one
ad vent
ad oodle
Ġl k
Ġl op
Ġl ard
Ġl ore
Ġl ily
Ġl atr
Ġl asc
Ġl iiiiii
Ġl oin
Ġl ows
Ġl inger
Ġl alal
Ġl lew
ch ic
ch et
ch ia
ch art
ch uk
ch io
ch airs
ch eeks
Ġn b
Ġn x
Ġn ie
Ġn ack
Ġn ia
Ġn ass
Ġn eeeeeeee
Ġn app
Ġn ied
Ġn ox
Ġn fl
Ġn iel
Ġn yt
Ġn oz
Ġn nnnnnnnn
Ġn eder
Ġn ighth
ol an
ol ute
om ly
om ent
om ir
om mm
om ans
om mmm
ab ed
ab all
os in
os um
os able
Ġe er
Ġe ir
Ġe igh
Ġe ich
Ġe uk
Ġk k
Ġk t
Ġk ag
Ġk ef
Ġk ors
Ġk ett
Ġk orn
Ġk off
Ġk uch
Ġk rav
Ġk ahl
ut r
id ation
id ual
eeee ep
ot m
ot an
ot le
ap us
ap able
ap orn
ap olog
ag el
ag ent
ag ine
ag asc
ag ues
ent es
ent ary
ent ional
ent ials
ig y
ig os
im et
im ir
im not
ul ine
ec ard
ec ause
um y
ir se
oooo r
ess on
ess ment
em d
em er
em ar
em ail
em ark
em nt
em eat
em bling
Ġv m
Ġv p
Ġv x
Ġv aa
Ġv os
Ġv ick
Ġv age
Ġv ult
Ġv ox
Ġv arm
Ġv oor
Ġv arg
Ġv ald
Ġv erk
Ġo ed
Ġo ps
Ġo hhh
Ġun er
Ġun ip
Ġun eth
Ġun gl
Ġun gu
Ġun obs
Ġun fucking
Ġun friend
rr p
ah b
Ġin vers
Ġin ept
Ġin ject
Ġin aug
Ġin adequ
ay d
ay ment
ay ne
Ġj il
Ġj ow
Ġj iz
Ġj az
Ġj ann
Ġj off
Ġj enk
Ġj cp
ow o
ow ork
ow sk
st v
st ic
st re
st ap
st ag
st uck
st ates
st he
st een
st ools
st opper
st eve
Ġst ig
Ġst ah
Ġst abl
ck er
ck en
op rop
op ias
op tim
and d
and ered
and ering
est ories
Ġch ou
Ġch ats
Ġch ih
Ġch atter
ak ey
Ġsh ing
Ġsh or
Ġsh and
Ġsh ash
Ġsh ann
Ġsh osh
Ġsh oe
Ġsh eeeee
Ġsh iiiiii
Ġsh elt
Ġsh iro
Ġsh aman
qu are
qu ered
qu iet
ip r
ff ect
ant as
ant ion
ant ism
ant own
ant ics
Ġre iss
Ġre pp
Ġre aaaaaa
Ġre add
Ġre wr
Ġre ward
Ġre inf
Ġre wind
ter a
iz el
iz ens
og er
og og
Ġa uk
Ġa wh
Ġa uster
up pe
up lets
od al
od ic
Ġth ar
Ġth ou
Ġth omas
Ġth rees
ub o
ub ert
ie ft
if h
if eprotips
hhhh t
all as
ra it
ra ig
ra ulic
Ġy p
Ġy w
Ġy et
Ġy ag
Ġy ack
Ġy eeeeeeee
Ġy ew
Ġy enn
Ġy ung
Ġy eez
ill ating
ib uster
ous y
Ġsp ok
Ġsp ond
Ġsp ork
ell ent
ell able
ell ular
ob os
ver al
ack in
ts ack
mm n
mm s
ard t
ard less
ard ium
ey men
ia v
Ġcon ch
Ġcon gen
Ġcon quer
ep iece
oc omp
oc entr
end y
end os
end um
end ants
Ġtr id
Ġtr um
Ġtr ach
Ġtr unc
ass ery
av ior
ast es
ast or
ang ry
eb ar
eb lock
eb ags
eb ral
eg ers
eg od
eg reg
sh t
sh ead
Ġex x
Ġex am
Ġex ch
Ġex st
Ġex pe
Ġex emp
Ġex oner
Ġex pression
Ġex communic
Ġex haust
ik now
ik awa
aw e
uc ation
Ġz z
Ġz ee
Ġz ed
Ġz ol
Ġz ion
Ġz im
Ġz oooo
Ġz od
Ġz ug
Ġz ang
Ġz uck
Ġz ev
Ġz az
Ġz ero
Ġz ipl
Ġz zzzzzzzz
Ġbl ee
Ġbl ut
Ġbl um
Ġbl iss
Ġbl uster
Ġbl ubber
Ġsc ent
Ġsc oob
ew a
ew y
ew ear
ew ire
Ġwh ad
Ġwh oom
Ġwh ered
yl er
yl ife
ex ted
ex change
ov ac
ov ia
Ġpr ee
Ġpr un
Ġpr eeee
Ġpr atch
Ġpro th
Ġpro spect
pl s
pl and
pl ash
pl ates
ans ki
aaaaaaaaaaaaaaaa aaaaaa
Ġcr i
Ġcr imp
und un
und ers
tr amp
tr aps
ach os
ach io
ach ines
Ġfl ats
Ġfl ush
Ġfl oop
Ġfr ing
Ġfr itt
Ġfr eet
Ġfr ien
Ġfr action
Ġbr i
Ġbr ug
Ġal um
Ġal ib
Ġal tim
Ġal most
Ġal pac
Ġar f
Ġar v
Ġar on
Ġar re
Ġar ra
Ġar ous
Ġar ith
Ġar rog
ef er
ef rom
our c
Ġgr ing
Ġgr ah
Ġgr uff
Ġgr asp
Ġgr illed
Ġdis en
Ġdis inc
Ġdis aff
Ġdis res
Ġdis organ
Ġdis adv
Ġdis rupt
Ġcom s
Ġcom ission
man cy
Ġan e
Ġan ab
Ġan eth
Ġan orex
ph t
ph ile
ph obic
ood y
ood oo
Ġcl and
der er
eh oles
eh ammer
eh yde
eh olders
ok k
ok yo
ash e
iiiiiiiiiiiiiiii iiii
ort ional
ort ioned
Ġsl oooo
Ġsl ick
Ġsl ough
Ġsl ouch
Ġsl umber
Ġim it
Ġim pec
Ġpl ank
Ġpl ains
Ġpl anes
ind or
ou ver
ks y
ism a
bo f
yn es
yn ame
ier o
ry th
ear m
Ġac rom
ett as
az es
az on
az aki
Ġph er
Ġph yt
Ġph ras
Ġam a
Ġam s
Ġam us
Ġam et
Ġam nes
bl ank
bl ocks
bl owing
bl asted
ord inary
Ġad ri
Ġad miss
of b
of c
of sky
eth ane
Ġsk yt
Ġsk ele
Ġsk irm
Ġsn ake
Ġsn obb
Ġsn ooz
ann d
ann ie
Ġen n
Ġen orm
Ġen comp
Ġab il
Ġab ortion
itt i
Ġco qu
ust roph
iss er
Ġdr umm
Ġsup pp
Ġcar am
Ġcar ab
Ġcar bur
ith a
Ġper i
Ġper k
Ġper ox
Ġper vers
ost osis
Ġmar ion
Ġmar se
Ġmar ble
Ġsw am
Ġsw ast
Ġsw ash
Ġsw ank
Ġsw irl
Ġsch ro
Ġsch ad
oll ed
oll ing
oh t
Ġsm arter
Ġover fl
Ġover he
ont amin
Ġpar ish
Ġpar ano
Ġpar acet
Ġem asc
Ġpre jud
cr unch
ect ic
act ful
Ġx box
ge ist
ge ois
erm o
ics ilic
ym ia
ym uch
ail le
ail able
int ly
Ġgl o
gr ab
gr und
gr inder
Ġrec ur
Ġrec la
Ġrec urs
ator ship
Ġsub red
Ġsub po
Ġsub reddits
Ġbe a
Ġbe k
kk i
ert ag
co ast
ling ton
Ġor ange
Ġte al
amm o
Ġstr ad
unt ee
fl eet
rom a
Ġmc p
Ġmc fl
Ġmc sp
be i
be ards
be autiful
ace a
ace utical
Ġel b
Ġinter fer
oph ilic
ott ie
ott ies
Ġhe is
Ġhe il
let ics
Ġse ash
amp a
arm pit
sp ort
sp ark
sp ots
Ġde ac
Ġde uts
inn e
uh a
Ġme zz
itch er
esh aring
Ġmis communic
yd actyl
Ġdec ontamin
aj e
wh ol
wh ip
wh atever
gh ost
Ġant ips
Ġap s
Ġap t
Ġout str
Ġout sm
Ġout law
Ġass ault
ve k
ve es
Ġtw of
Ġtw erk
Ġman ass
add ling
Ġdes ir
Ġdes erv
Ġdes icc
Ġint el
unk er
Ġgu ys
Ġgu itar
Ġkn ack
Ġapp rop
Ġapp ric
Ġpol i
yr ia
ft w
Ġbar f
Ġbar ely
Ġup ro
Ġup sk
Ġup hol
alk in
ahahahah ahahaha
ih an
els ch
Ġrep etit
Ġunder w
Ġunder ut
Ġunder ach
Ġwe inst
Ġsqu ares
str uck
Ġev w
Ġev ang
ne es
oooooo w
oooooo om
Ġaut ot
Ġcol umn
Ġdef ro
etr ical
orr or
Ġinc orr
Ġinc arn
ugg le
atr ist
me as
umm ies
Ġred n
Ġred ec
Ġred icul
Ġred irec
ale z
igg les
Ġtrans miss
ane an
off ire
yb alls
Ġdem er
Ġdem ig
pec ial
sc ott
rrrrrrrr rrrrr
erv ative
Ġbo ats
Ġins id
Ġins ult
Ġins omn
inc ip
Ġdep rav
Ġimp at
Ġimp re
Ġimp ot
Ġimp art
Ġimp over
dr inking
for your
con es
Ġer d
Ġer g
aus er
Ġmal f
Ġmal ign
Ġhom ed
Ġhom olog
Ġhom eless
Ġdi or
Ġdi abl
ict ure
Ġsur real
Ġcont rol
Ġcont empt
Ġcont empor
Ġpe ach
Ġpe opl
erg en
arg le
Ġinf ect
Ġinf irm
Ġall l
Ġall llllllll
que z
Ġon etr
Ġnon re
Ġnon chal
Ġcor ros
aaa iiii
imm in
Ġcomm end
ball ers
rav a
Ġcal ab
Ġrel ati
Ġcro uch
erd y
Ġent hr
uit ies
uit ive
Ġcons umer
Ġdel ir
Ġdel ph
Ġcap r
Ġid ub
Ġid iosyn
pos ted
gu er
gu ys
we apons
we asel
Ġele ph
onn es
amb ers
Ġmag r
Ġgro gg
Ġgro cery
Ġbel le
Ġbel iger
pro gr
pro ject
Ġed m
ros oft
iy aki
wr it
aps ing
Ġbab yd
Ġwr ite
Ġav ac
Ġsom es
Ġuns ec
Ġuns up
Ġuns atisf
ones e
Ġmil s
Ġes per
yth on
Ġhum per
Ġhar ass
ien st
Ġmo an
Ġnot ar
Ġthe ir
Ġmeg as
Ġmeg ah
Ġmeg abl
Ġaw kw
Ġaa ron
leg ends
eddit ors
Ġep ist
ze ich
yg irls
ych o
ogg in
ooo aa
org en
other ap
abb in
Ġexp ens
Ġexp ier
ari am
onk ers
press ing
press ive
Ġoff f
Ġcur ry
aly ze
Ġcle f
Ġcle ment
Ġreg ion
Ġconf ir
Ġmult il
Ġmult id
Ġunc lean
Ġnew york
Ġexc ess
Ġkh aj
kn ee
kn ob
kn ock
kn own
la id
Ġrev en
ask i
Ġfac es
aul ly
Ġtim b
Ġhal lel
Ġever yt
Ġhyp o
Ġhyp og
sss hhh
oz oic
Ġsil k
acc ess
Ġcam ar
Ġcam per
Ġser ial
Ġser ge
Ġah n
Ġhel m
Ġcre ams
Ġgam ers
Ġgam ef
Ġla id
Ġla under
Ġla ught
oman iacs
Ġhyper bol
Ġsol ar
Ġic eland
Ġdeb ate
iw as
Ġdet err
Ġbal t
Ġsyn ch
Ġgar ant
Ġgar lic
Ġspl ot
Ġsec l
itter ed
Ġhem ing
Ġunf oll
ele ct
ational ism
Ġpan or
ress ing
upp y
upp ing
Ġart if
Ġmur t
Ġthr ill
Ġplay er
Ġovers p
Ġden igr
berg ers
emp ath
ope an
to ast
any one
Ġben j
Ġey esh
Ġoh o
ited ly
Ġoo ps
Ġpers ist
Ġtra um
aid a
azz le
urs ed
form ation
Ġmay be
Ġtro t
Ġgrand mother
Ġher man
ete ers
Ġast rot
mon th
Ġkl o
king dom
Ġsem is
Ġspr itz
back ed
rec ted
rec iated
rec ipes
Ġbig ger
Ġsoc c
Ġemb ro
Ġemb ol
Ġemb igg
load ers
Ġul d
Ġspec i
Ġrest or
Ġrest art
Ġro ar
vent ed
Ġsam d
val ue
kkkk k
yw olf
Ġbra inc
Ġarch ip
Ġcent ur
Ġbul bas
mo unted
ident ally
Ġaqu af
uj in
Ġneg oc
Ġke k
Ġke en
icul um
icul ated
awn y
por ter
Ġbatt ler
Ġbatt lem
Ġbatt lesh
ocr ats
Ġmiss ion
Ġlif est
Ġlif ep
Ġresp awn
erman n
Ġpow erm
Ġpow ert
Ġreb al
Ġfro mm
Ġbor row
Ġeff ec
ggg hhhhh
Ġphil anthrop
Ġsa ug
Ġsym p
ision ed
Ġorg as
Ġste al
Ġaff lic
Ġaff ection
Ġmcc all
iment al
bor hood
illy s
Ġlev el
Ġsun b
Ġeng org
go ers
sl ayer
Ġhow z
Ġchrist oph
Ġchrist ians
Ġaz im
Ġocc ur
Ġocc assion
Ġpok ey
Ġpok emon
Ġdoc tr
Ġno ah
Ġshitt yl
itting ly
Ġfem en
no ise
Ġfa ult
sw ing
car bon
pir ed
pir ation
Ġmast ur
Ġmast rub
uw a
ven ge
Ġra unch
Ġot ter
Ġcow ork
Ġeg al
Ġspac ef
Ġcats and
opl asm
Ġreh ydr
iat ry
Ġfun ct
Ġsign ific
Ġnos ed
enth al
enth usi
Ġten ness
rob es
Ġlog ar
Ġstra it
wwwwwwww wwww
Ġtal ent
Ġtam per
Ġgirl fr
Ġprom p
Ġprob ab
oosh es
oosh ing
Ġhu eh
Ġluc ifer
js j
Ġgw en
Ġgw yn
Ġanim al
Ġperc ol
Ġble ak
cast ed
Ġpy rr
Ġpy rote
Ġpy roman
Ġbit con
Ġpatr ick
Ġpatr iar
Ġgor ill
pres ident
ader ie
Ġscar am
Ġput r
Ġgrav es
Ġdemon et
Ġmoth af
Ġrain bow
iating ly
etz el
watch es
Ġdys ph
Ġtyp ewr
Ġpros per
Ġsin us
Ġbot ch
Ġunre ason
ebr ate
Ġredd itt
Ġmov es
Ġgir th
kr ieg
Ġbarb ec
pic ious
Ġsel fr
Ġpent ecost
Ġnat ure
Ġshar ks
Ġphys ics
Ġherm aphrod
iped e
char ger
Ġque ue
Ġhob n
Ġhob by
Ġloc ation
zen egger
Ġhipp opot
Ġcost um
bel ts
Ġself s
onym s
Ġnorth ern
Ġcele bs
Ġvul can
Ġcreep yp
wear ing
Ġsv ens
Ġfood s
Ġglob et
Ġuu ug
Ġkick st
ogh t
gt b
ooz led
Ġvide ot
lov akia
Ġbott len
Ġuncon v
Ġuncon st
onom ic
Ġtab arn
Ġding le
proof ing
Ġhus b
Ġvas ov
Ġany way
Ġcell ul
Ġmatr iar
Ġhear th
Ġsour ce
Ġhold my
Ġphen om
Ġphen yl
threonyl leucyl
Ġstre pt
Ġparal ys
isoleucyl glutamyl
Ġbox s
Ġbox er
Ġtrib es
Ġflor id
fo am
Ġult rav
Ġult imat
Ġdoom s
allly yy
Ġpoly am
enf re
Ġlyn ch
Ġmurder ed
omn omn
about it
Ġunsh e
Ġdisapp ear
Ġcoff eem
olut ely
know ledge
Ġevery wh
Ġorn ament
Ġneut r
Ġyeee aa
zzz t
Ġappar ent
Ġwit ness
Ġdiscr imin
lav a
aqu es
Ġric och
hoo hoo
Ġcert ain
vis or
omorph s
Ġkaz akh
Ġmeow meow
cor rect
Ġrog uel
phenylalanyl valyl
Ġbew ilder
Ġchim ich
Ġheav y
Ġmuth afuck
Ġalc oh
Ġbeaut if
Ġminn es
again st
Ġzh ong
Ġtransl iter
enw ald
Ġjos eph
Ġuntr ust
Ġamph ib
Ġembarr ass
Ġlm fa
Ġincons equ
amic roscop
ohoh o
Ġmorr is
Ġreeee aa
Ġfif th
Ġimmed iat
cccccccc cccccccc
hist id
Ġcig arr
Ġtomm y
Ġrelation sh
Ġinfr astr
Ġswe ater
Ġhomeb rew
Ġheath en
Ġmisd irec
ropp ed
Ġank yl
Ġcuc umber
Ġdov ah
Ġtib et
Ġdeterm in
Ġobsc ur
ebre aker
Ġintro vert
tyrosyl asparagin
Ġfoc us
Ġecc les
Ġaccount abil
Ġdox x
Ġbenz odia
Ġhaem orrh
Ġsuspic ious
ahahahahahahahahahahahahahahahah ahahahahahahahahahahahahahahahah
orer orer
Ġhahahah ahh
Ġunhe alth
Ġsimp ly
bab es
Ġmole c
ensit ivity
jer ks
Ġnugg et
click click
lysyl valyl
Ġcouch s
Ġtup per
brbrbrbr brbrbrbr
Ġstom ach
Ġinfin ites
Ġreneg ot
Ġacknow ledg
aaat tt
Ġaccl imat
Ġtons il
Ġreich s
exp ialidoc
Ġflab berg
engine ering
Ġinsign ific
Ġschwar z
Ġoverg ener
Ġenviron ment
Ġdragons fucking
Ġpropr iet
phr ase
Ġmiscon str
Ġmanh att
undundundund undundundund
ohmygodohmygod ohmygodohmygod
pear e
Ġinterm itt
lug lug
Ġlawn m
Ġgastro enter
jjjjjjjjjjjjjjjjjjjjjjjjjjjjjjjjjjjjjjjjjjjjjjjjjjjjjjjjjjjjjjjjjjjjjjjjjjjjjjjjjjjjjjjjjjjjjjjjjjjjjjjjjjjjjjjjjjjjjjjjjjjjjjjj jjjjjjjjjjjjjjjjjjjjjjjjjjjjjjjjjjjjjjjjjjjjjjjjjjjjjjjjjjjjjjjjjjjjjjjjjjjjjjjjjjjjjjjjjjjjjjjjjjjjjjjjjjjjjjjjjjjjjjjjjjjjjjjj
Ġeuc al
Ġchau vin
Ġalab am
Ġmerch and
Ġabcd ef
Ġentrepr eneur
Ġafgh an
Ġexting u
Ġmicha els
cyst ein
Ġcompart mental
Ġraised byn
Ġdidger id
hum or
Ġhiph op
Ġcongl omer
Ġcaric atur
Ġhoriz ont
apro pr
Ġtaxid erm
Ġacom pl
Ġasy mm
ococc us
Ġmanoe uv
Ġquetzal coat
Ġhippopotomonst rosesqu
Ġdisadv ant
Ġidiosyn cr
a ide
b ey
b ors
b ust
b ets
b ms
b ably
b ogg
b the
b ours
b anks
b unny
b etter
b uddy
b asket
b attles
c j
c q
c ur
c ch
c ak
c pr
c age
c ially
c orp
c alc
c utters
d ly
d ub
d oc
d ang
d ew
d ings
d oot
d ome
d oms
d emon
d rops
e ir
e ard
e ins
f v
f el
f ter
f ans
f our
f ied
f err
f iend
f ection
f irm
f eeds
f essional
f ellas
g le
g iv
g and
g rav
g eek
g rave
h or
h man
h app
h ats
h eel
h ero
h mmm
h alla
h entai
i ators
i ours
j x
j ab
j ump
j erry
j apan
k on
k ee
k re
k ip
k its
k icker
k aren
l z
l ag
l ak
l ian
l und
l ok
l ore
l amp
l ice
l itz
l icks
l uv
l ige
l iving
m l
m ist
m ous
m oth
m ere
m yc
m ouse
m ares
m akes
m itted
m uffin
m achine
m useum
n l
n on
n ah
n eg
n ings
n oot
n ots
n amed
o ak
p el
p ist
p th
p ink
p als
p fl
p igs
q m
q p
q ing
r ak
r ings
r ates
r eed
r uss
r ade
r ama
r iding
t in
t an
t ot
t th
t ub
t oc
t oom
t ale
t ake
t ower
t ext
t ales
u us
u ey
u ance
u ase
v as
v ents
w v
w x
w id
w im
w orn
w ank
w its
w itz
w agen
w iki
w ipes
w arrior
x dd
y et
y ards
z q
z ar
z ero
Ġ ood
Ġ ely
Ġ orm
Ġ ook
Ġ ool
Ġ ure
Ġ eet
Ġ ue
Ġ ents
Ġ eel
Ġ uts
Ġ eeeeeeeeeeeeeeeeeeeeeeeeeeeeeeeeeeeeeeeeeeeeeeeeeeeeeeeeeeeeeeee
Ġ uuuuu
Ġ aaaaaaaaaaaaaaaaaaaaaaaaaaaaaaaaaaaaaaaaaaaaaaaaaaaaaaaaaaaaaaaaaaaaaaaaaaaaaaaaaaaaaaaaaaaaaaaaaaaaaaaaaaaaaaaaaaaaaaaaaaaaaaaaaaaaaaaaaaaaaaaaaaaaaaaaaaaaaaaaaaaaaaaaaaaaaaaaaaaaaaaaaaaaaaaaaaaaaaaaaaaaaaaaaaaaaaaaaaaaaaaaaaaaaaaaaaaaaaaaaaaaaaaaaaaaaaaa
er ian
er unner
in at
in tr
in ians
in ium
in that
in nnnnn
Ġs atch
Ġs atr
Ġs erg
Ġs unc
Ġs eek
Ġs ux
Ġs ait
Ġs uuu
Ġs aid
Ġs elt
Ġs rs
Ġs uction
Ġs iem
Ġs irs
Ġs ksks
es ent
an p
an at
an ant
aa b
aa ab
aa and
aa ak
aa ha
on as
on em
on nn
on ted
on augh
Ġc st
Ġc ev
Ġc aaaaaa
Ġc ase
Ġc ait
Ġc uld
Ġc affe
en us
en ya
at el
at ig
at og
at ia
at ment
at onic
ar h
ar ist
ar ak
ar eth
ar ct
ar ios
ar illy
ar ounds
ee et
oo re
oo ge
oo za
ed n
ed ad
al ar
al ion
al ah
al ks
al ways
Ġp id
Ġp ts
Ġp ia
Ġp ov
Ġp ins
Ġp oh
Ġp ank
Ġp ied
Ġp age
Ġp unt
Ġp orr
Ġp uch
Ġp ots
Ġp unc
Ġp over
Ġp ouch
Ġp raw
Ġp asc
Ġp abl
Ġp ope
Ġp oke
Ġp idg
Ġp agan
Ġp achy
Ġb g
Ġb x
Ġb ap
Ġb eeeeeeee
Ġb ww
Ġb ock
Ġb act
Ġb ool
Ġb ary
Ġb ore
Ġb err
Ġb ild
Ġb ery
Ġb aster
Ġb unch
Ġb oos
Ġb ias
Ġb ien
Ġb other
Ġb asc
Ġb eem
Ġb etch
Ġb iph
Ġb rrrrr
Ġb lem
Ġb ests
Ġb itters
Ġb anned
Ġm z
Ġm ph
Ġm enn
Ġm wh
Ġm unk
Ġm aff
Ġm izz
Ġm itz
Ġm oog
Ġm ait
Ġm utter
Ġm ums
Ġm iro
Ġm ister
Ġm osc
Ġm orning
ing n
is ks
is que
or z
or rr
or ates
or gh
or bs
or ita
Ġd q
Ġd ant
Ġd iiiiiiii
Ġd ain
Ġd orn
Ġd oth
Ġd itt
Ġd ax
Ġd uh
Ġd esh
Ġd aj
Ġd ays
Ġd aff
Ġd oul
Ġd eez
Ġd ams
Ġd oos
Ġd uns
Ġd ao
Ġd rem
Ġd iction
Ġd ahl
Ġd onkey
Ġd rafts
Ġt eg
Ġt ind
Ġt af
Ġt unt
Ġt ugg
Ġt och
Ġt ower
Ġt erc
Ġt ze
Ġt nt
Ġt abb
Ġt ights
Ġt onk
Ġt iiiiii
Ġt ipt
Ġt enth
Ġt ilt
Ġt ires
Ġt usk
Ġt achy
ii id
ii innn
it at
it el
it em
it ish
it ally
ic r
ic ane
ic ana
ic ators
ic iently
Ġr v
Ġr x
Ġr ink
Ġr oon
Ġr aaaaaa
Ġr ih
Ġr izz
Ġr eek
Ġr ask
Ġr oj
Ġr unter
Ġr omp
Ġr ape
Ġr ena
Ġr ipt
Ġr rrrrr
Ġr eeeeeee
Ġr usk
Ġf g
Ġf k
Ġf ad
Ġf im
Ġf th
Ġf ey
Ġf ick
Ġf ll
Ġf af
Ġf ins
Ġf fl
Ġf uz
Ġf ours
Ġf etch
Ġf ooth
Ġf isk
Ġf ief
Ġf uuuuuuuuuu
Ġf ibrill
as us
as ch
as ize
as fuck
as aki
Ġh rr
Ġh oc
Ġh ach
Ġh ated
Ġh ire
Ġh oon
Ġh aph
Ġh aff
Ġh udd
Ġh iy
Ġh ask
Ġh eph
Ġh inter
Ġh uw
Ġh ilt
Ġh inds
Ġh irs
Ġh enta
un in
el man
el ting
el ve
el ty
el ander
Ġg op
Ġg ud
Ġg eg
Ġg ath
Ġg orm
Ġg yp
Ġg oy
Ġg oll
Ġg ool
Ġg ai
Ġg add
Ġg oj
Ġg ather
Ġg ains
Ġg asm
Ġg urt
Ġg tf
Ġg ingers
Ġg aaaw
Ġg oven
Ġg iggle
aaaa lly
ac ito
ac eful
Ġw c
Ġw ent
Ġw ul
Ġw ec
Ġw ist
Ġw ie
Ġw ep
Ġw ry
Ġw ich
Ġw ont
Ġw ere
Ġw uh
Ġw inc
Ġw ird
Ġw imp
Ġw olol
Ġw uzz
Ġw isp
Ġw oooooooooo
Ġw ahr
Ġw iders
Ġw itchh
us ers
us ern
il v
il ies
il yn
il ised
il ius
ur is
ur ary
ur ized
ur acy
ur ately
ur ped
am it
am il
am and
am era
et ab
et ine
et ory
ro pl
ro ds
ad ot
ad ows
ad min
ad owed
ad illo
ad ubdub
Ġl f
Ġl w
Ġl uu
Ġl est
Ġl iz
Ġl app
Ġl au
Ġl ush
Ġl aph
Ġl agg
Ġl ower
Ġl uth
Ġl ooo
Ġl ister
Ġl ivers
Ġl aws
Ġl inds
Ġl oooooooooooo
Ġl incol
ch ef
ch ance
ch ner
ch ools
Ġn p
Ġn ing
Ġn ell
Ġn ard
Ġn uuuu
Ġn ath
Ġn ou
Ġn au
Ġn ars
Ġn atr
Ġn asc
Ġn apt
Ġn aaaaa
Ġn iet
Ġn fs
Ġn oj
Ġn ames
Ġn uzz
ol am
ol id
ol um
om al
om it
om ps
om ycin
ion t
ion y
ers ion
ab et
ab ag
ab ond
ab we
ab ama
ab ric
ly wood
uu l
os al
os os
os tr
os ting
os econd
Ġe a
Ġe hh
Ġe ard
Ġe ve
Ġe uch
Ġe bd
Ġk up
Ġk ens
Ġk of
Ġk inn
Ġk ame
Ġk oj
Ġk ele
Ġk omp
Ġk urt
Ġk orb
Ġk yo
Ġk itten
Ġk romb
re b
re port
re member
ut i
ut u
ut ant
ut ts
ut ely
ut ure
eeee m
eeee t
ot er
ot al
ot or
ot as
ot ers
ot ts
ap ee
ap ord
ag io
ent ious
ig as
ig old
ig ations
im it
im ers
im im
im ia
im etr
im aru
ul on
ul ged
ul ging
ul hu
ec ter
ec ord
ec ats
ec ary
ec oin
um um
um mm
um br
ir ies
ir ting
oooo ot
ess sssss
em m
em ates
em ite
em be
em ale
em ites
em berg
em bled
em asters
Ġv ec
Ġv ah
Ġv ip
Ġv ier
Ġv ary
Ġv ille
Ġv ien
Ġv ein
Ġv omm
Ġv itr
Ġo on
Ġo yst
Ġun z
Ġun ve
Ġun ful
Ġun fuck
Ġun off
Ġun wr
Ġun iqu
Ġun rem
Ġun god
Ġun kind
ah y
ah ar
ah ua
Ġin ver
Ġin ns
Ġin put
ay n
ay ments
Ġj y
Ġj and
Ġj up
Ġj ans
Ġj orm
Ġj onn
Ġj abl
Ġj ingo
Ġj immy
Ġj inx
ow d
st at
st ak
st ard
st ool
st ores
iv in
iv ness
Ġst ak
Ġst av
Ġst ang
Ġst ile
Ġst umb
Ġst oop
Ġst rain
Ġst eem
Ġst arc
Ġst agger
Ġst even
ck in
op d
op o
op orn
op aed
est or
est and
est own
est ions
est eak
Ġch ines
Ġch ugg
Ġch aff
Ġch uch
Ġch iqu
Ġch omp
Ġch ival
Ġch okes
th on
th et
th ong
th ats
th esh
ak n
Ġsh es
Ġsh iiii
Ġsh eb
Ġsh af
Ġsh ins
Ġsh ank
Ġsh ook
Ġsh edd
Ġsh abb
Ġsh room
Ġsh oud
Ġsh iny
Ġsh aq
qu ick
qu ite
qu itos
ip il
ip tion
ip line
ff t
ant ically
Ġre es
Ġre op
Ġre ind
Ġre off
Ġre abs
Ġre bound
Ġre kind
Ġre activ
Ġre ffer
Ġre integr
ation ism
ation ists
ation ship
iz ingly
og raf
Ġa i
Ġa ig
Ġa zz
Ġa ort
up l
od il
od ec
od ium
Ġth s
Ġth im
Ġth ud
Ġth aw
Ġth iii
Ġth irds
Ġth anos
ub ord
ie a
if est
Ġy c
Ġy i
Ġy r
Ġy ec
Ġy and
Ġy aaaaaaaa
Ġy gg
Ġy awn
ug o
ill ess
ill lll
ill omania
ud ers
Ġsp es
Ġsp as
Ġsp am
Ġsp ad
Ġsp ud
Ġsp ack
Ġsp atch
Ġsp her
Ġsp asm
ell ian
ell ors
ell ings
uuuu us
ia w
ep ol
ep art
ick les
oc l
oc le
oc oc
oc ates
oc yt
oc ado
oc used
oc ytes
end ar
Ġtr ix
Ġtr unk
Ġtr ade
Ġtr ipt
Ġtr illion
ass o
ass ive
ass word
av in
nn s
ast ard
ang an
ang ue
ish am
ish ere
eb ed
eb le
eb ot
eb ered
eb ase
ll ld
ll gw
eg n
sh ells
sh ima
sh aming
ik is
ik as
aw l
aw an
aw www
uc i
Ġz a
Ġz in
Ġz ut
Ġz ag
Ġz ell
Ġz ob
Ġz af
Ġz oid
Ġz eph
Ġbl aaaa
Ġbl ist
Ġbl ant
Ġbl oss
Ġbl ades
Ġsc ol
Ġsc umm
Ġsc aff
Ġsc ience
ew ar
ew atch
ew olves
Ġwh aa
Ġwh aaaaaaaa
Ġwh ath
Ġwh yb
Ġwh ipl
ath erd
yl in
ex ists
ex xx
ens ual
Ġpr at
Ġpr ong
Ġpr esh
Ġpr ince
Ġpro long
Ġpro pert
pl o
pl ains
ans w
Ġcr ic
Ġcr ut
Ġcr iter
Ġcr abs
und e
und ing
und erb
tr s
tr al
tr ac
tr ag
tr ust
tr ue
tr ipping
ach ia
Ġfl a
Ġfl ap
Ġfl im
Ġfl ate
Ġfl aw
Ġfl ound
Ġfl umm
Ġfl ame
Ġfl ights
Ġfl ipper
Ġfr ans
Ġfr ust
Ġfr isk
Ġfr iction
Ġfr enz
ahah aa
Ġbr et
Ġbr ib
Ġbr ian
Ġbr une
Ġal a
Ġal on
Ġal man
Ġal ber
Ġal ger
Ġal ve
Ġal mos
Ġal umin
Ġal iens
Ġar ag
Ġar rrrr
Ġar ound
Ġar men
Ġar son
Ġar can
Ġar izon
ef ac
ef ord
our a
our g
our y
our ism
Ġgr aaaa
Ġgr unk
Ġgr ade
gg ing
ain ter
ain ce
Ġle ar
Ġle is
Ġle as
Ġle gu
Ġle ban
Ġle apf
Ġdis all
Ġdis aster
Ġdis rep
Ġdis inv
Ġdis agree
Ġdis ingen
Ġdis illusion
Ġcom ep
Ġcom orb
man like
Ġan os
tt v
Ġcl uck
Ġcl one
Ġcl over
Ġcl erk
Ġcl utter
Ġcl asp
Ġcl obber
eh m
eh s
eh ub
ok ie
ok inesis
ash ers
zz t
zz es
ort unity
Ġsl op
Ġsl oth
Ġsl opp
Ġsl obb
ber man
Ġpl ed
Ġpl ann
Ġpl ush
Ġpl ump
Ġpl eeeee
Ġqu ir
Ġqu and
ind e
dd in
ou k
ou ce
ou ou
ou ija
ial ing
tion ed
ism us
ism atic
bo e
bo le
yn ous
yn ia
yn gy
ier en
ight ened
ry pt
ear se
Ġac ct
Ġac rob
Ġac oust
att on
att as
ev elt
ett os
az ar
az oid
Ġph is
Ġph leb
Ġam id
Ġam ish
Ġam yl
bl ub
bl own
Ġad orn
Ġad equ
Ġad orable
of s
of my
pr ison
pr incess
Ġsk il
Ġsk int
Ġsk ool
ich lor
af es
af ing
Ġsn ob
Ġsn ott
Ġsn oop
ann ah
ann ibalism
Ġen am
Ġen unc
Ġab g
Ġab re
Ġab ond
Ġab uel
itt les
Ġco ars
ely nn
ust y
cl iff
cl ubs
cl osed
cl oths
yp et
Ġdr u
Ġdr in
Ġdr ay
Ġdr ill
Ġcar av
Ġper min
Ġper iph
ugh ts
ost at
ost atic
ost asis
Ġmar b
Ġmar j
Ġmar m
Ġmar ch
Ġsw at
Ġsw ans
Ġsw ings
Ġsch rod
Ġsch olar
oh l
oh ead
oh god
own own
Ġover em
Ġover ext
Ġover pop
Ġover prod
Ġover estim
Ġpar ral
Ġpar kins
Ġpar agraph
Ġpar liament
Ġem in
Ġpre cl
Ġpre he
cr at
cr us
cr ab
cr est
cr ush
cr ete
act o
act ers
ax on
Ġx n
ide z
ct omy
ied ly
int i
int osh
ool ee
ull er
ull ed
ull ion
Ġgl az
Ġas best
pp y
gr ip
gr ind
Ġrec apt
Ġrec omp
Ġrec uper
Ġrec oup
ator ily
ix on
Ġsub head
Ġsub comm
Ġbe ch
Ġbe ut
Ġbe ards
atch i
kk en
Ġres e
Ġres ub
Ġres ign
Ġres ched
Ġres urf
Ġres earch
ark e
ark y
co unts
co unted
co untry
Ġte ac
Ġte ut
Ġte asp
amm ering
ult on
Ġstr eng
Ġstr anger
ox o
ox acin
br ing
fl ap
fl ess
ger man
rom s
rom eter
se a
eee err
enn es
enn is
row ave
Ġne uter
com es
ere ally
Ġmc gu
ole c
ole tte
ild e
ild s
be ak
ign ments
Ġel v
Ġel oqu
Ġinter j
Ġinter ess
Ġinter med
Ġinter action
Ġinter tw
oph onic
let witter
Ġde ox
Ġde lect
inn s
ipp i
itch en
esh t
esh ire
Ġmis sh
Ġmis per
Ġmis ident
Ġmis character
yd on
yd en
Ġdec k
Ġdec ant
Ġdec omm
Ġdec eler
Ġdec oup
umb ed
wh ats
wh istle
gh etti
ai uh
Ġap ol
Ġap oc
Ġap ne
Ġout m
Ġout n
Ġout er
Ġout per
Ġout land
Ġout sk
are a
Ġmon ter
Ġfor l
Ġfor ger
Ġfor ced
eet us
Ġcomp e
Ġcomp ost
Ġag ent
gl ow
gl ue
Ġtw ee
Ġtw itter
Ġtw eak
Ġman ager
bur b
bur ys
Ġdes er
Ġdes al
Ġdes ert
Ġdes ecr
Ġgu ev
Ġgu atem
Ġkn o
Ġkn it
iff ic
iness es
Ġpol ly
yr ight
Ġbar eb
Ġbar ber
eck i
eck ed
ih a
ih f
Ġrep ack
Ġunder re
Ġunder per
Ġwe iner
Ġwe alth
Ġmin id
Ġmin eral
Ġev an
Ġev ident
ne igh
Ġaut ops
Ġdef lect
Ġdef rag
orr he
Ġinc end
te chn
ade z
ugg ie
Ġind es
Ġind ex
Ġind ict
Ġind isp
Ġind ulg
he alth
he aven
Ġsuper man
urr ay
unn el
Ġred s
Ġred ef
igg ity
Ġtrans g
esc a
esc u
esc ape
idd les
ane z
yb ad
yb ab
Ġdem in
Ġdem od
sc ar
rrrrrrrr rrrrrr
rrrrrrrr rrrrrrr
Ġbo ug
Ġbo ugh
Ġop ent
opp e
Ġins ist
inc ter
Ġimp al
Ġimp et
Ġimp air
Ġimp rob
aur i
dr ip
dr ives
sk ull
Ġir ish
Ġir ons
Ġir res
for g
Ġer ud
aus tr
Ġmal ays
Ġhom em
Ġhom osexual
Ġscr eet
Ġdi ap
oooooooooooooooo o
ron ym
Ġbro ugh
Ġbro ker
Ġsur m
Ġrem ar
Ġrem aster
Ġcont i
Ġcont est
Ġpe er
Ġpe qu
erg ate
erg irl
erg ency
Ġback b
Ġinf ow
Ġinf est
Ġinf all
Ġall s
Ġi j
Ġi ow
ene ver
Ġon n
Ġnon pro
Ġnon comm
ots a
ible ts
Ġund e
aaa ank
aaa hhhhh
Ġmet ro
Ġmet roid
Ġcomm itt
ball er
Ġsal ty
bb q
bb z
ition er
Ġgre m
ific ate
Ġrel oad
Ġret ali
Ġent itled
uit ed
Ġis n
Ġis ch
Ġis ot
Ġob es
Ġob iv
ae le
udd a
Ġdel ight
Ġhand h
och o
Ġgen etic
Ġid aho
pos es
gu es
Ġele vent
ius es
amb ul
Ġgro s
Ġtur key
ient o
ij d
wor ths
Ġbel t
Ġbel ie
Ġbel ieve
pro c
ios a
erc ock
Ġed s
eeeee en
oos oon
Ġbab yw
Ġbab yh
Ġwr ath
Ġus eless
Ġuns ub
Ġmil ion
Ġmac g
Ġmac ed
Ġmac roph
read ed
gggg h
Ġes pe
pe ace
Ġge o
uth ers
istic ly
Ġhar le
Ġhar row
Ġhar bour
Ġinv o
Ġinv inc
Ġnot ice
Ġnot my
Ġimm edit
Ġthe ob
Ġmeg an
Ġmeg ast
eeeeee et
Ġaw ns
Ġsim ilar
Ġaa l
Ġaa ay
eter ia
uct ures
Ġep isc
Ġpur l
omb ie
Ġpal est
other fucking
other apist
abb its
Ġgh etto
Ġexp and
Ġdev ist
press o
press ant
Ġoff end
Ġcur ly
Ġcur bst
aly a
Ġbu il
Ġconf ident
Ġmult ib
Ġunc irc
Ġunc ertain
Ġexc or
Ġexc el
Ġexc us
kn ows
atur ated
isc us
isc ience
ask ed
ask ets
apt ors
uv s
aul ting
uf uf
Ġend ors
Ġend ear
Ġend less
Ġhyp oc
nnn g
box ed
box yl
Ġrh ym
eph aly
eph obia
oz o
Ġbi ome
Ġbi omed
acc io
Ġfre ck
Ġah l
kin der
iqu id
Ġhel pless
bar bier
Ġgam ed
Ġgam ing
Ġgam esh
Ġann ot
Ġann ex
Ġann ivers
Ġla ug
ubb ers
Ġdeb t
aaaaa hhhhh
Ġdown p
Ġbal m
Ġbal dr
etic ian
Ġsyn c
Ġsyn cop
omm er
Ġmel anch
Ġspl oog
Ġand al
Ġcock at
Ġhem m
Ġhem s
Ġfur s
Ġfur ther
Ġunf ro
Ġunf av
Ġunf air
ric o
ode on
Ġmem ec
Ġmem ph
ext rous
Ġdiss u
Ġdiss atisf
ational ists
Ġpan ick
Ġpan the
Ġext end
Ġart is
Ġpo et
Ġpo ign
Ġmot oc
Ġdisc olor
uz u
Ġden k
Ġpen z
emp o
to ons
arc astic
Ġmid g
Ġmid night
rog an
imp le
Ġpres um
Ġey et
Ġoh io
Ġoh shit
Ġmad agasc
Ġhell l
Ġhell en
Ġver w
Ġver rr
red s
Ġlo it
uuu hh
Ġrob ob
Ġstar light
ior ity
Ġche at
Ġtro dd
Ġwater cool
Ġwater col
Ġher ald
Ġwork ing
Ġhyd rop
Ġay ayay
Ġbad mouth
Ġlab our
bre ath
alt en
alt ies
iro log
Ġcoll ar
Ġpsych op
Ġpsych olog
Ġemb od
Ġemb arg
burg s
Ġple ase
Ġrest ar
Ġrest ra
Ġnec cess
Ġneur of
Ġneur ochem
rod uction
rod uce
play ers
min ster
ri ents
Ġsu av
Ġpap erc
Ġbas eball
Ġunp ol
Ġunp ack
yw ater
Ġbra un
Ġbra ind
Ġtor ont
augh er
Ġbul g
Ġbul ly
udg es
Ġpost ko
Ġpost grad
Ġprec aut
Ġwind ch
Ġwind sh
ident al
war f
Ġneg r
Ġke an
icul ating
Ġha ver
shit shit
comp uter
Ġaaaa rrr
Ġbatt leg
uy o
Ġball g
Ġmiss iss
Ġsat an
Ġsav ag
Ġenc ephal
Ġpin p
uel ing
Ġet c
Ġros en
Ġreb el
aar s
Ġmat thew
Ġbor ing
Ġmind s
Ġeff ort
Ġblood st
Ġblood th
Ġsus an
Ġsus cept
Ġboo ts
Ġdom ic
Ġter at
urt le
Ġjack h
inf eld
esp an
aah ahh
aah aha
iment ary
ivers ity
Ġcontr ac
Ġcontr ab
Ġprof it
Ġprof ound
Ġprof essional
eheh ehe
raf ter
Ġbutt fuck
yf rom
Ġsun sh
Ġeng rav
Ġsan fr
agh t
Ġpor ter
Ġpor cup
Ġpok eb
Ġbec a
ibb ing
Ġpred is
Ġcall igraph
lys ylalanylalanyl
ona uts
cat cat
Ġdiff icult
orph ine
orph ism
light dark
Ġca ill
Ġca ver
my fucking
Ġda ed
Ġland sc
eeeeeee en
Ġil ov
itor ies
Ġfem al
Ġfem ale
enst ern
Ġrand oms
abil ty
Ġfa ust
iol ence
je ans
kt or
sw all
Ġec os
car ry
Ġpep pers
lect ic
Ġmass e
Ġjoh an
Ġamb id
Ġsubs crib
Ġband wagon
Ġdu fr
anz ig
Ġproc re
inos aur
Ġbet w
Ġbet el
icc i
Ġmas quer
Ġstep grand
Ġbarr ic
Ġbarr ac
Ġconst ip
Ġreh ers
iq i
Ġporn st
Ġfun y
Ġhor rr
Ġlat in
Ġtem pt
Ġrac etr
Ġeur op
wwwwwwww w
Ġtit anic
Ġfan boy
Ġprom pt
aaaaaaa an
Ġoct av
Ġprob ation
aud s
iu o
Ġstat istic
Ġpub lish
Ġwall street
Ġnar wh
Ġnar cole
ument ary
Ġdoub les
Ġdoub let
Ġbell iger
Ġdim ethyl
Ġroll ing
Ġsing ap
Ġanim als
Ġenv el
Ġfat ig
Ġven us
Ġspeed r
Ġgang r
Ġunh app
Ġmcd on
Ġroad s
Ġwatch peop
Ġlaw y
Ġmaster bait
Ġrap sc
mmmmmmmmmmmmmmmm mmmmmmmm
Ġtechn ic
Ġtechn ically
Ġsac raf
Ġlim it
pres ented
Ġath en
wer wer
Ġchild r
agu er
Ġclass ical
ges ch
ges etz
ected ness
Ġbob ble
Ġpant om
Ġmoo se
shot ted
Ġbeg inn
Ġthro tt
Ġcomb ust
Ġdys p
Ġdys function
Ġold school
Ġhos pit
Ġpros elyt
hand edly
Ġif r
Ġger ry
Ġkam ak
Ġkam eham
Ġmes o
Ġdat ac
Ġhist ory
agen arian
Ġunre qu
gy z
Ġmother fucker
Ġhorn sw
usc ular
Ġcamp a
ali ophobia
Ġmaj est
Ġanal yt
Ġtub erc
Ġju an
Ġub erm
Ġub iqu
Ġpil ot
Ġpenn y
Ġstand ing
Ġvent ric
Ġvent ril
uuuuu ur
Ġdeg a
Ġff x
Ġvan qu
Ġry an
Ġwer tsack
Ġkur z
lam ps
Ġmart in
Ġmart yr
Ġgent r
Ġgent les
Ġque er
ienc ing
Ġmerc iless
Ġof c
Ġloo oon
Ġultr amar
Ġpuss yf
Ġbef udd
unting s
Ġjap anes
bol t
Ġcath ol
omes omes
Ġknow ledg
threon ylalanyl
Ġcul p
Ġalex andr
Ġprem atur
Ġmust ard
Ġdav id
Ġsho eh
llllllll ll
Ġsurv ey
mus k
Ġbug ger
Ġrecon v
mr n
Ġwash ington
Ġemp ly
Ġomn iv
Ġomn ip
ois ois
ibl eness
Ġappro v
rag ons
your dick
Ġwel sh
Ġstock p
Ġpt ole
ili ary
Ġtran sh
Ġimper ial
bad ass
Ġww oof
Ġbrit ann
emb ly
bear ing
bear ers
Ġwaaaa ay
Ġcha os
block ed
Ġpic n
Ġfour th
Ġhed on
Ġnatur al
uded uded
vo ir
Ġell ips
Ġko en
Ġvacc ine
Ġattr ib
Ġattr ibut
valyl arginyl
Ġdoll ar
Ġdoll ary
Ġhear ts
Ġgast rop
Ġwolf s
Ġkle in
Ġdoo h
Ġaug ment
ewor ks
Ġsix th
Ġnit p
Ġgon z
Ġtrib ut
Ġult ra
thef ucking
Ġorth odont
Ġirre par
Ġmultip lic
Ġcra is
Ġabr ah
seryl glycyl
Ġwid ow
Ġgran ul
Ġmemor ial
Ġpon yt
Ġdip sh
Ġdial ect
Ġgy ll
Ġgol dd
Ġcolor ado
Ġcolor blind
Ġkarm awh
Ġship wreck
Ġdiscr eet
onal ds
Ġorig in
Ġorig inal
bang s
bang bang
Ġcit izen
arl ane
Ġvl ieg
Ġprep ub
glycyl threonyl
Ġru ined
Ġherb iv
Ġprogr amm
anny any
graph y
cht enstein
very one
cam el
Ġtl dr
Ġlux emb
omin ant
ometr ics
Ġautoc omp
Ġbudd h
Ġdew orm
Ġshot g
iatr ist
ecl ub
Ġinstr uction
Ġincomp at
Ġclick bait
phenylalanyl prolyl
Ġfore ign
Ġvi enn
Ġexcl us
Ġhun gr
Ġproph es
Ġlaugh ing
eco ins
athe ist
warm ing
Ġmuth er
itating ly
Ġston ec
Ġmusc le
pat rol
omic on
Ġoce ans
bal ance
Ġpav lov
Ġsuuuu up
owow ow
Ġoverh aul
Ġantiv ax
Ġbach elor
Ġdisg usting
pol itics
Ġthre ath
Ġincons pic
osaur s
Ġlew is
Ġphant om
Ġpec uliar
Ġbuk k
Ġwir et
Ġaver ag
Ġaccident ally
lr lr
rosc opic
Ġcruc if
Ġrece iv
fold ed
rogr ammer
Ġzomb ie
Ġamer ik
Ġsubm erg
Ġhypers exual
Ġincred ib
Ġnerv ous
Ġunic orn
Ġswe ats
epe op
assion ate
Ġscot ts
Ġtitt ys
Ġflag ell
umpt uous
Ġsis yph
Ġpigg yb
Ġspid erb
bul b
gam ers
ebre akers
Ġmars up
vide og
Ġrecomm end
Ġharv est
aspartyl aspartyl
Ġnost alg
Ġvoy eur
lah oma
ooon nn
Ġkry st
Ġunth ink
Ġincor rect
Ġrhin oc
Ġholly wood
bab ies
Ġcinn ab
adel phia
Ġunfl app
Ġshall ow
Ġspit ro
Ġantis ocial
Ġaccompl ish
prom pt
ftft ftft
thro at
Ġslut ty
Ġperiod ont
Ġmisre member
Ġpeng u
Ġdinos aur
Ġspont ane
Ġtwent ys
lut ely
esi ologist
Ġmost ly
beans beans
Ġapocal yp
Ġapocal ypt
Ġbacter i
ophren ic
Ġtransc end
buck et
doll ars
Ġeuph em
ethyl ene
Ġaband on
Ġemot ional
Ġtomb st
Ġkard ash
angu age
Ġcoch le
pupp ies
Ġsust ain
Ġbj orn
Ġbalk an
odynam ic
Ġprocl aim
Ġopin ion
Ġsau v
Ġzig z
ansl ated
Ġantih ist
ochondr ia
pant ies
waff le
Ġcze chos
Ġkart off
iiiiiiiiiiiiiiiiiiiiiiiiiiiiiiiiiiiiiiiiiiiiiiiiiiiiiiiiiiiiiiiiiiiiiiiiiiiiiiiiiiiiiiiiiiiiiiiiiiiiiiiiiiiiiiiiiiiiiiiiiiiiiiiiiiiiiiiiiiiiiiiiiiiiiiiiiiiiiiiiiiiiiiiiiiiiiiiiiiiiiiiiiiiiiiiiiiiiiiiiiiiiiiiiiiiiiiiiiiiiiiiiiiiiiiiiiiiiiiiiiiiiiiiiiiiiiiiiiiiiiiiiiiiiiiiiiiiiiiiiiiiiiiiiiiiiiiiiiiiiiiiiiiiiiiiiiiiiiiiiiiiiiiiiiiiiiiiiiiiiiiiiiiiiiiiiiiiiiiiiiiiiiiiiiiiiiiiiiiiiiiiiiiiiiiiiiiiiiiiiiiiiiiiiiiiiiiiiiiiiiiiiiiiiiiiiiiiiiiiiiiiiiiiiiiiiiiiiiiiiiiiiiiiiiiiiiiiiiiiiiiiiiiiiiiiiiiiiiiiiiiiiiiiiiiiiiiiiiiiiiiiiiiiiiiiiiiiiiiiiiiiiiiiiiiiiiiiiiiiiiiiiiiiiiiiiiiiiiiiiiiiiiiiiiiiiiiiiiiiiiiiiiiiiiiiiiiiiiiiiiiiiiiiiiiiiiiiiiiiiiiiiiiiiiiiiiiiiiiiiiiiiiiiiiiiiiiiiiiiiiiiiiiiiiiiiiiiiiiiiiiiiiiiiiiiiiiiiiiiiiiiiiiiiiiiiiiiiiiiiiiiiiiiiiiiiiiiiiiiiiiiiiiiiiiiiiiiiiiiiiiiiiiiiiiiiiiiiiiiiiiiiiiiiiiiiiiiiiiiiiiiiiiiiiiiiiiiiiiiiiiiiiiiiiiiiiiiiiiiiiiiiiiiiiiiiiiiiiiiiiiiiiiiiiiiiiiiiiiiiiiiiiiiiiiiiiiiiiiiiiiiiiiiiiiiiiiiiiiiiiiiiiiiiiiiiiiiiiiiiiiiiiiiiiiiiiiiiiiiiiiiiiiiiiiiiiiiiiiiiiiiiiiiiiiiiiiiiiiiiiiii iiiiiiiiiiiiiiiiiiiiiiiiiiiiiiiiiiiiiiiiiiiiiiiiiiiiiiiiiiiiiiiiiiiiiiiiiiiiiiiiiiiiiiiiiiiiiiiiiiiiiiiiiiiiiiiiiiiiiiiiiiiiiiiiiiiiiiiiiiiiiiiiiiiiiiiiiiiiiiiiiiiiiiiiiiiiiiiiiiiiiiiiiiiiiiiiiiiiiiiiiiiiiiiiiiiiiiiiiiiiiiiiiiiiiiiiiiiiiiiiiiiiiiiiiiiiiiiiiiiiiiiiiiiiiiiiiiiiiiiiiiiiiiiiiiiiiiiiiiiiiiiiiiiiiiiiiiiiiiiiiiiiiiiiiiiiiiiiiiiiiiiiiiiiiiiiiiiiiiiiiiiiiiiiiiiiiiiiiiiiiiiiiiiiiiiiiiiiiiiiiiiiiiiiiiiiiiiiiiiiiiiiiiiiiiiiiiiiiiiiiiiiiiiiiiiiiiiiiiiiiiiiiiiiiiiiiiiiiiiiiiiiiiiiiiiiiiiiiiiiiiiiiiiiiiiiiiiiiiiiiiiiiiiiiiiiiiiiiiiiiiiiiiiiiiiiiiiiiiiiiiiiiiiiiiiiiiiiiiiiiiiiiiiiiiiiiiiiiiiiiiiiiiiiiiiiiiiiiiiiiiiiiiiiiiiiiiiiiiiiiiiiiiiiiiiiiiiiiiiiiiiiiiiiiiiiiiiiiiiiiiiiiiiiiiiiiiiiiiiiiiiiiiiiiiiiiiiiiiiiiiiiiiiiiiiiiiiiiiiiiiiiiiiiiiiiiiiiiiiiiiiiiiiiiiiiiiiiiiiiiiiiiiiiiiiiiiiiiiiiiiiiiiiiiiiiiiiiiiiiiiiiiiiiiiiiiiiiiiiiiiiiiiiiiiiiiiiiiiiiiiiiiiiiiiiiiiiiiiiiiiiiiiiiiiiiiiiiiiiiiiiiiiiiiiiiiiiiiiiiiiiiiiiiiiiiiiiiiiiiiiiiiiiiiiiiiiiiiiiiiiiiiiiiiiiiiiiiiiiiiiiiiiiiiiiiiiiiiiiiiiiiiiiiiiiiiiiiiiiiiiii
Ġgong jang
inesc ence
Ġpean ut
Ġcroc od
Ġhumans ar
chrom osomes
Ġvasc ular
evelop ment
Ġsubj ug
eeeeeeeeeeeeeeeeeeeeeeeeeeeeeeeeeeeeeeeeeeeeeeeeeeeeeeeeeeeeeeeeeeeeeeeeeeeeeeeeeeeeeeeeeeeeeeeeeeeeeeeeeeeeeeeeeeeeeeeeeeeeeeeeeeeeeeeeeeeeeeeeeeeeeeeeeeeeeeeeeeeeeeeeeeeeeeeeeeeeeeeeeeeeeeeeeeeeeeeeeeeeeeeeeeeeeeeeeeeeeeeeeeeeeeeeeeeeeeeeeeeeeeeeeeeeeeeeeeeeeeeeeeeeeeeeeeeeeeeeeeeeeeeeeeeeeeeeeeeeeeeeeeeeeeeeeeeeeeeeeeeeeeeeeeeeeeeeeeeeeeeeeeeeeeeeeeeeeeeeeeeeeeeeeeeeeeeeeeeeeeeeeeeeeeeeeeeeeeeeeeeeeeeeeeeeeeeeeeeeeeeeeeeeeeeeeeeeeeeeeeeeeeeeeeeeeeeeeeeeeeeeeeeeeeeeeeeeeeeeeeeeeeeeeeeeeeeeeeeeeeeeeeeeeeee eeeeeeeeeeeeeeeeeeeeeeeeeeeeeeeeeeeeeeeeeeeeeeeeeeeeeeeeeeeeeeeeeeeeeeeeeeeeeeeeeeeeeeeeeeeeeeeeeeeeeeeeeeeeeeeeeeeeeeeeeeeeeeeeeeeeeeeeeeeeeeeeeeeeeeeeeeeeeeeeeeeeeeeeeeeeeeeeeeeeeeeeeeeeeeeeeeeeeeeeeeeeeeeeeeeeeeeeeeeeeeeeeeeeeeeeeeeeeeeeeeeeeeeeeeeeeeeeeeeeeeeeeeeeeeeeeeeeeeeeeeeeeeeeeeeeeeeeeeeeeeeeeeeeeeeeeeeeeeeeeeeeeeeeeeeeeeeeeeeeeeeeeeeeeeeeeeeeeeeeeeeeeeeeeeeeeeeeeeeeeeeeeeeeeeeeeeeeeeeeeeeeeeeeeeeeeeeeeeeeeeeeeeeeeeeeeeeeeeeeeeeeeeeeeeeeeeeeeeeeeeeeeeeeeeeeeeeeeeeeeeeeeeeeeeeeeeeeeeeeeeeeeeeeeeee
Ġanaesth et
auth ent
boop boop
olith ic
achus etts
Ġdiarr he
oscop ies
Ġextrac urr
Ġsapp h
Ġsout he
Ġhiv em
Ġoutdoor s
Ġboul der
Ġepit om
Ġunpop ular
Ġencycl oped
Ġtaylorsw ift
Ġtaylorsw ifts
laps laps
Ġmisinter pr
Ġethi op
Ġqueb ec
yeh yeh
Ġbers erk
underst ood
erme ister
Ġredistr ib
Ġpenns yl
itgoes itgoes
cums luts
Ġhicc up
ocurr ency
oiuh o
Ġwert beut
Ġgyna ec
vwarm vwarm
shesnaked shesnaked
glogh glogh
oelec tric
Ġsocio econom
Ġsadomas och
Ġllan fair
Ġgrapefr uit
Ġpneumonoultr amicroscop
Ġrabarberbarbarabar barbar
histid yl
Ġraisedbyn arc
tot rees
llgw yngy
llgwyngy ll
a eb
b ap
b ub
b ud
b ons
b ats
b ym
b age
b ott
b ians
b ombs
b ubble
c in
c ab
c iv
c ist
c ous
c ated
c one
c ene
c ute
c ano
c iously
c ube
c overs
c asing
c ancer
c ourt
c annon
d g
d p
d ent
d ig
d ep
d ust
d na
d ads
d ryer
e ley
e aux
f iv
f ass
f ear
f ool
f ern
f irst
f antasy
g v
g ul
g ain
g ates
g ue
g iver
g ivers
g uru
g arten
h p
h ed
h im
h mm
h oll
h ung
h oe
h ams
h ns
h unting
h ounds
h eels
h opping
h earts
i agn
i ago
j un
j ag
j eb
j ets
j eet
j ays
j ana
j une
j ello
j amas
j ensen
k or
k un
k ut
k eet
k aya
l x
l ob
l ang
l ons
l ust
l ater
l ace
l oop
l ams
l abs
l aws
l aves
l oose
l ength
m is
m ess
m ie
m ack
m ey
m ord
m ills
m oking
m oving
n b
n el
n il
n ent
n og
n ie
n all
n ine
n als
n oe
n roll
n akes
n apped
n acht
o am
o ult
o que
p ee
p oo
p il
p ew
p ai
p atr
p rop
p oles
p elled
p ods
p rep
p aste
p ilot
p ictures
q x
q in
q aq
r er
r ion
r st
r ong
r ont
r ics
r ige
r ests
s u
s ec
s ive
s oft
t p
t es
t oo
t el
t ig
t ax
t rees
t rail
u q
u ur
u ant
u able
u ator
u let
v on
v re
v ag
v acc
v otes
w es
w ab
w ain
w ann
w oke
w tf
w ired
w ali
w alled
w urtz
x k
x is
x us
y at
y re
y ans
y man
z l
z r
z v
z ap
z ation
z ied
Ġ ere
Ġ eep
Ġ ays
Ġ oos
Ġ ike
Ġ iii
Ġ igr
Ġ ibr
Ġ umber
Ġ oooooooooooooo
er ent
er ds
er eddit
in ar
in el
in and
in sh
in ical
in off
in ya
in the
in ologist
Ġs re
Ġs hhhh
Ġs ons
Ġs ins
Ġs ire
Ġs ure
Ġs unk
Ġs ale
Ġs igg
Ġs ame
Ġs itz
Ġs eeeeee
Ġs aul
Ġs oj
Ġs isk
Ġs irr
Ġs ense
Ġs ssssssssssssssss
Ġs aws
Ġs sssss
Ġs ssssss
Ġs unny
Ġs ibil
Ġs issy
es or
an l
an ee
an ot
an um
an iel
an che
aa e
on ius
on ka
on fire
Ġc q
Ġc uu
Ġc em
Ġc ist
Ġc ill
Ġc pr
Ġc olog
Ġc err
Ġc oooooo
Ġc opp
Ġc aaa
Ġc ave
Ġc yg
Ġc uz
Ġc azz
Ġc odd
Ġc irr
en ity
en ight
en ite
en nnn
en ames
en heim
at ro
at ism
at ile
at elly
at iveness
at omic
ar ic
ar el
ar am
ar ach
ar rrrr
ar ok
ar one
ar co
ar thy
ar iums
ee v
ee le
ee ly
oo uu
oo ve
ed h
al en
al ee
al der
al ert
al med
al aka
Ġp iiii
Ġp ies
Ġp ity
Ġp ong
Ġp yn
Ġp of
Ġp ats
Ġp als
Ġp oom
Ġp air
Ġp oul
Ġp ych
Ġp isc
Ġp omm
Ġp ete
Ġp elt
Ġp uj
Ġp uer
Ġp ension
Ġb q
Ġb ex
Ġb ood
Ġb yyyy
Ġb eeeeeeeeeeeeeeee
Ġb olog
Ġb ax
Ġb its
Ġb ile
Ġb ars
Ġb ots
Ġb ible
Ġb yyy
Ġb ucks
Ġb icc
Ġb ucking
Ġb iiiiiiiiii
Ġb td
Ġm rr
Ġm ie
Ġm eeeeeeee
Ġm app
Ġm ou
Ġm ier
Ġm ert
Ġm oph
Ġm ets
Ġm iff
Ġm ime
Ġm ict
Ġm ement
Ġm ux
Ġm ouse
Ġm iiiiii
Ġm aar
Ġm oms
Ġm obile
is ol
is ia
is ely
is ement
is cher
or os
or id
or ow
or ium
or ius
or ange
or rrrrrr
or omantic
Ġd ers
Ġd ard
Ġd sh
Ġd att
Ġd of
Ġd ins
Ġd ats
Ġd ook
Ġd ore
Ġd rom
Ġd eee
Ġd ance
Ġd oss
Ġd els
Ġd aaa
Ġd ific
Ġd uct
Ġd way
Ġd ope
Ġd urb
Ġd rew
Ġd ims
Ġd iment
Ġd sl
Ġd umps
Ġd rey
Ġd oooooooooooo
Ġd esser
Ġd aughter
Ġd eyn
Ġd iox
Ġt iv
Ġt av
Ġt tr
Ġt ain
Ġt tt
Ġt yn
Ġt uk
Ġt ied
Ġt aaaaaa
Ġt umb
Ġt ft
Ġt uit
Ġt uf
Ġt akes
Ġt aar
Ġt igr
Ġt elly
Ġt ired
Ġt oots
Ġt itty
Ġt ools
Ġt cha
Ġt ension
ii l
ii m
it ee
it ain
it yyyy
it ator
it ng
it ues
ic ar
ic am
ic ers
ic one
ic iencies
Ġr oooo
Ġr ie
Ġr iiiiiiii
Ġr eeeeeeee
Ġr ov
Ġr ors
Ġr of
Ġr ely
Ġr unt
Ġr ere
Ġr unk
Ġr oul
Ġr osh
Ġr onn
Ġr aps
Ġr oid
Ġr ng
Ġr ender
Ġr tf
Ġr pg
le ing
le ist
le ak
le ments
le mon
le lel
Ġf v
Ġf ub
Ġf igh
Ġf able
Ġf ik
Ġf ine
Ġf oooooooo
Ġf itt
Ġf oy
Ġf enc
Ġf row
Ġf unc
Ġf udd
Ġf ij
Ġf oos
Ġf uth
Ġf ives
Ġf aint
Ġf eral
Ġf lys
Ġf alc
Ġf oots
Ġf aux
Ġf ighter
Ġf eyn
Ġf ffffffffffffffff
as d
as w
as io
as ians
Ġh k
Ġh z
Ġh ud
Ġh nn
Ġh ath
Ġh ock
Ġh ain
Ġh ates
Ġh edd
Ġh utt
Ġh oos
Ġh mmmmmmmm
Ġh ows
Ġh hhhhh
Ġh uuu
Ġh unting
Ġh eft
Ġh ertz
un it
un ist
un ited
el v
el ock
el ain
el ors
el ins
el ives
el itis
el berg
el ady
Ġg gg
Ġg ort
Ġg err
Ġg inn
Ġg aj
Ġg uss
Ġg oop
Ġg eck
Ġg els
Ġg urr
Ġg erb
Ġg izz
Ġg oul
Ġg oooooooooooooooo
Ġg onk
Ġg uuu
Ġg urn
Ġg obs
Ġg ould
Ġg rrrrr
Ġg sch
Ġg awk
Ġg anz
Ġg ifs
Ġg etting
Ġg lyph
aaaa l
aaaa rr
aaaa rs
ac ation
ac ide
Ġw b
Ġw ic
Ġw us
Ġw ib
Ġw eeeeeeee
Ġw ally
Ġw ain
Ġw ook
Ġw umb
Ġw ound
Ġw are
Ġw yr
Ġw ille
Ġw erb
Ġw ows
Ġw asp
Ġw ells
Ġw aah
Ġw oooooooooooo
Ġw aaay
Ġw almart
il um
il ov
il ance
il iation
ur als
ur ai
ur ement
ur eless
am et
am ot
am ort
am be
am esh
am aj
am eter
et ish
et ary
et imes
ro dd
ro fl
ro gl
ro ups
hh ouse
ad m
ad ar
ad um
ad ate
ad io
ad ore
ad ome
ad illa
ad ores
ad ababy
Ġl p
Ġl ain
Ġl ern
Ġl arr
Ġl inn
Ġl ugg
Ġl ake
Ġl izz
Ġl ough
Ġl uch
Ġl udd
Ġl ij
Ġl leg
Ġl ives
Ġl ose
Ġl cs
Ġl ager
Ġl arp
Ġl yf
Ġl isp
Ġl oooooooooo
Ġl agu
Ġl oner
Ġl oooooooooooooo
Ġl eeeeeer
Ġl uther
Ġl gtb
ch k
ch ts
ch ats
ch ops
ch icks
Ġn us
Ġn iz
Ġn ug
Ġn ts
Ġn oooooooo
Ġn ive
Ġn ong
Ġn ors
Ġn att
Ġn iss
Ġn oy
Ġn ont
Ġn ore
Ġn aph
Ġn oot
Ġn ays
Ġn och
Ġn ave
Ġn ora
Ġn ows
Ġn ears
Ġn upt
Ġn amed
Ġn iem
Ġn ebr
Ġn openopen
ol en
ol ab
ol ot
ol ian
ol ins
om or
om ers
om ist
om ie
om eg
om bo
om ely
om ega
ion age
ers en
ab in
ab en
ab is
ab ic
ab ang
ab ook
ab ella
ab elle
ab itches
ab unga
ly de
uu hh
os ly
os ec
os itis
os ocial
os exuals
Ġe ac
Ġe art
Ġe ating
Ġe ater
Ġe ars
Ġe ft
Ġe uf
Ġk z
Ġk iiii
Ġk ant
Ġk ib
Ġk sh
Ġk eh
Ġk ost
Ġk ool
Ġk ary
Ġk ore
Ġk als
Ġk ling
Ġk ung
Ġk ai
Ġk are
Ġk iel
Ġk orr
Ġk oe
Ġk ein
Ġk raft
Ġk imb
Ġk eeps
re kt
re ference
id ering
ot d
ot in
ot ine
ot ron
ot oxic
ap u
ap od
ag ol
ag ans
ag eddon
ent ee
ent ally
ent ext
ig ion
im os
im um
im asu
ul k
ul os
ul ge
ul se
ul ner
ul inity
ec i
ec on
ec ity
ec are
ec ards
um ar
ir an
ir et
ir ted
oooo l
oooo t
oooo om
ess o
ess ary
ess ful
ess ential
em us
em ist
em ain
em ax
em ma
Ġv ow
Ġv ell
Ġv ish
Ġv ok
Ġv yn
Ġv ev
Ġv ord
Ġv ont
Ġv iel
Ġv atic
Ġv uv
Ġv ote
Ġv aug
Ġo us
Ġo ub
Ġo cr
Ġo fl
Ġo be
Ġo aken
Ġun j
Ġun ver
Ġun amb
Ġun read
Ġun lock
Ġun play
Ġun iq
rr l
ah ne
Ġin e
Ġin u
Ġin im
Ġin ert
Ġin br
Ġin just
ay be
ay den
ay that
Ġj v
Ġj w
Ġj x
Ġj om
Ġj ut
Ġj est
Ġj og
Ġj ang
Ġj uc
Ġj ugh
Ġj erm
Ġj eee
Ġj ays
Ġj ane
Ġj aff
Ġj oes
Ġj ihad
ow en
st in
st as
st ow
st ood
st ocks
st oppers
st urm
st itute
iv ists
Ġst d
Ġst ic
Ġst ym
Ġst arr
Ġst ater
Ġst arm
Ġst unn
Ġst atic
Ġst utter
op ith
op oul
op oe
op ress
op ram
ist is
and h
and all
and ler
and cats
and ever
Ġch t
Ġch y
Ġch ro
Ġch ab
Ġch id
Ġch ud
Ġch ell
Ġch ey
Ġch ort
Ġch az
Ġch ord
Ġch atr
Ġch ame
Ġch ari
Ġch irr
Ġch ihu
Ġch ieft
th in
th us
th am
th os
th eg
th als
th ouse
th oles
th ony
th anos
ak kk
Ġsh ro
Ġsh ol
Ġsh ug
Ġsh iiiiiiiiiiiiiiii
Ġsh ink
Ġsh ite
Ġsh itz
Ġsh opping
ss ed
ss hhh
qu ire
qu els
qu illa
qu ality
ip us
ip ad
ip id
ip ples
ant ac
ant ation
ant ies
Ġre k
Ġre y
Ġre bur
Ġre word
Ġre allly
Ġre zn
Ġre orient
Ġre establ
iz ia
og ie
og ists
og ene
og ether
Ġa or
Ġa un
Ġa ot
Ġa uuuu
Ġa ins
Ġa hhh
Ġa wwww
Ġa for
Ġa esth
Ġa imb
od ern
od rome
Ġth a
Ġth aa
Ġth ad
Ġth iiii
Ġth yl
Ġth our
Ġth ins
Ġth ym
Ġth ron
Ġth iiiiii
ub r
ub ed
ub is
ub ub
ie ur
if c
if n
if it
if ax
if ellfor
ies m
all ic
all us
all ian
all ity
ra ils
ra ige
Ġy g
Ġy ers
Ġy ut
Ġy all
Ġy ang
Ġy app
Ġy az
Ġy ann
Ġy arn
Ġy ield
Ġy ooooo
Ġy emen
ug el
ug ly
ug ug
ill ians
ill iam
ud on
ib en
ib ular
ib ri
ib uddy
Ġsp i
Ġsp and
Ġsp ew
Ġsp ars
Ġsp iro
Ġsp inner
ell l
ell ll
ell llll
ob r
ob el
ob yl
ob ably
ob ama
ob iac
ver d
ver k
ack en
mm ing
ard ic
ey o
uuuu p
uuuu ck
Ġcon ting
Ġcon not
ep en
ep le
ep am
ick ness
ian cy
oc i
oc at
oc et
oc ity
oc ain
oc co
oc ene
oc ular
end on
end al
end ered
end ron
end orf
Ġtr on
Ġtr it
Ġtr ah
Ġtr ug
Ġtr ill
Ġtr und
Ġtr ys
Ġtr yp
Ġtr ink
Ġtr ance
Ġtr eet
Ġtr acks
Ġtr eef
Ġtr agic
ass us
ass ian
ass oc
ass ium
av s
av et
av ish
av ator
av alan
nn d
nn gg
ast ia
ang r
ang y
ish e
eb en
eb os
eb eb
eb ri
eb yw
eb ears
eb urger
uck a
uck en
eg es
eg aard
sh anks
sh aring
sh irts
Ġex ers
Ġex ult
Ġex amp
Ġex egg
Ġex fol
able ly
ce es
aw y
aw att
aw wwww
aw ns
aw esome
Ġz ard
Ġz ook
Ġz erg
Ġz oob
Ġz ipt
Ġz olt
Ġz apor
Ġbl ag
Ġbl og
Ġbl ub
Ġbl ox
Ġbl izz
Ġbl ued
Ġbl oat
Ġbl abber
Ġsc c
Ġsc ab
Ġsc ow
Ġsc ub
Ġsc amp
Ġsc otch
ew ars
Ġwh et
Ġwh ow
Ġwh ick
Ġwh yn
Ġwh eee
ath i
ath at
ath ouse
ex is
ex it
ine ers
ov y
ov ir
ov ascular
ens ch
ens ia
ens ory
ens burg
ens ifies
Ġpr s
Ġpr ur
Ġpr ist
Ġpr att
Ġpr yd
Ġpr eet
Ġpr etr
Ġpr agn
Ġpro let
Ġpro ton
ans k
Ġcr eeee
Ġcr amp
Ġcr ani
Ġcr eeper
und erstand
tr in
tr act
ach in
ach an
ach ment
ach uss
Ġfl an
Ġfl as
Ġfl ips
Ġfl ux
Ġfr it
Ġfr ak
Ġfr eep
Ġfr eek
Ġfr itz
Ġfr uct
Ġfr uits
Ġbr am
Ġbr ag
Ġbr oooo
Ġbr yn
Ġal v
Ġal es
Ġal ley
Ġal ms
Ġal read
Ġal ias
Ġal cat
Ġal ways
Ġal right
Ġal ban
Ġal chem
Ġar z
Ġar es
Ġar st
Ġar gh
Ġar rrrrrrr
ys mart
ys mal
ef i
ef ucker
our age
Ġgr et
Ġgr um
Ġgr ip
Ġgr ung
Ġgr ands
Ġgr ades
Ġgr ief
gg ed
ain ers
Ġle y
Ġle be
Ġdis e
Ġdis ent
Ġdis arm
Ġdis band
Ġdis order
Ġdis respect
Ġcom er
man i
man ces
man cer
app e
app p
app ening
Ġan yl
Ġan ect
Ġan ime
Ġan nnnnnnnn
Ġan ything
ph ilia
tt p
Ġcl oy
Ġcl iqu
Ġcl ique
eh n
eh ash
eh old
eh ome
ok an
ok ee
per ation
zz les
zz led
ong i
ong ering
les e
les ome
Ġsl ed
Ġsl igh
Ġsl ight
Ġsl ink
Ġsl amm
Ġsl eek
Ġsl aps
Ġsl ander
Ġsl oven
Ġsl edg
ons o
ons pir
ber ly
ber ish
Ġpl age
Ġpl ace
Ġpl under
Ġpl ague
Ġqu it
Ġqu el
Ġqu ib
Ġqu inc
ind y
ial ty
ism e
bo iled
ier d
ier ing
ear son
ead e
ead er
Ġac er
Ġac ed
Ġac ros
att oos
ev es
ev ah
ev ents
ev sky
ev olution
Ġph ag
Ġph leg
Ġph ych
Ġph ren
Ġam erc
Ġam ithe
bl as
bl am
bl az
bl owers
ord able
Ġad l
Ġad olf
of m
pr ed
pr ick
pr iest
pr ime
pr iced
pr ince
Ġsk ed
Ġsk el
Ġsk ym
Ġsk ater
Ġsk yb
Ġsk eptic
ment ioned
ich ing
ich ard
Ġsn ag
Ġsn app
Ġsn ort
Ġsn agg
Ġsn aked
Ġsn arf
Ġsn uffle
ann oying
Ġen jo
Ġen forc
out er
out ly
out ely
Ġab a
Ġab i
Ġab el
Ġab os
Ġab ig
ins ic
Ġco on
ust ic
yp es
yp ro
yp op
yp ass
yp orn
iss ioned
Ġdr es
Ġdr ys
Ġdr ool
Ġdr oog
Ġdr ums
Ġdr ift
Ġdr uid
Ġcar re
Ġcar ot
Ġcar ap
Ġcar ous
Ġcar rot
Ġcar pool
Ġper ine
Ġper fer
uk in
uk ing
uk ai
ost ats
Ġmar aud
Ġmar jor
Ġmar gher
eeeeeeeeeeeeeeee eeee
olog ue
Ġsw ab
oy al
Ġsch a
Ġsch o
Ġsch ul
Ġsch no
oll i
oll en
oll ah
ink in
oh oo
oh ist
oh yd
Ġsm ear
Ġsm arts
cc o
ank ers
Ġover l
Ġover n
Ġover an
Ġover pres
Ġover infl
ont a
ont ent
ont own
Ġpar ol
Ġpar amed
Ġem pl
Ġem por
Ġpre h
Ġpre ass
Ġpre pos
Ġpre val
Ġpre gen
ire y
cr ast
cr ime
cr abs
io a
io let
act in
act ment
Ġx b
Ġx k
Ġx v
Ġx ing
old t
ide as
ge es
ge ons
ge orge
ied s
erm ath
ym c
ym ym
ym path
int e
int ers
uuuuuuuu uuu
ull ing
Ġgl and
Ġgl ute
Ġgl adi
Ġgl imps
Ġas ks
Ġas par
Ġas gard
gr et
gr id
gr ades
Ġrec ep
Ġrec omb
Ġsub cl
Ġsub tw
Ġsub spec
Ġbe es
Ġbe zeich
als e
ite a
arr ant
atch ers
kk h
kk ki
Ġres il
Ġres ett
Ġres ult
Ġres pec
Ġres urg
led ie
led ges
ark ation
oom p
oom ed
co e
Ġor l
ult ures
Ġstr es
Ġstr ate
Ġstr agg
Ġstr ipper
ox es
ox ing
ox ia
fr ic
fr ence
fr iday
fr onts
fl ame
fl akes
enc ephal
ile t
ile en
ile ly
ile ged
se in
se en
enn er
enn ey
enn edy
row th
Ġne ol
Ġne um
Ġne ff
Ġne ih
com pl
au a
ole um
oon nnn
ign y
aph or
aph obic
ace able
Ġel f
Ġel is
Ġel ic
Ġel ant
Ġel ys
Ġel ix
Ġel imin
Ġinter pol
oph arm
ure able
eep ee
eep ed
ott is
ung u
Ġse z
Ġse attle
amp f
amp ie
arm y
sp a
sp it
sp otting
Ġde es
inn it
Ġme in
Ġme ant
esh ed
Ġmis al
Ġmis ion
Ġmis qu
Ġmis gu
Ġmis appropr
Ġmis educ
yd ia
Ġdec ad
Ġdec ember
Ġdec ryp
umb us
aj esty
uss en
wh ee
wh acker
Ġant ico
Ġap rec
Ġap ples
Ġap ocol
are an
Ġass ual
Ġass istant
Ġmon ol
Ġmon othe
Ġfor et
Ġfor um
Ġfor est
Ġfor ens
eet a
Ġag ro
oop as
ue u
gl ish
gl oss
Ġtw e
Ġtw ix
Ġman us
Ġman hand
bur ne
bur ner
bur sts
Ġint ell
Ġint ang
Ġgu er
Ġgu an
Ġgu yyyy
Ġgu err
Ġkn ees
Ġkn ights
iff ing
Ġpol yb
Ġpol yt
Ġpol yh
Ġpol ythe
yr ddin
Ġbar c
Ġbar ef
Ġbar ry
Ġbar ley
alk ed
ih l
els en
Ġrep ro
Ġrep ent
Ġunder wh
Ġunder fund
Ġunder grad
ised ly
Ġwe is
Ġwe athers
Ġsqu at
Ġsqu eeee
Ġsqu irm
Ġmin er
Ġmin ic
Ġmin ecr
str ap
str ip
Ġaut oh
Ġcol lection
Ġdef end
orr hoids
Ġinc os
Ġinc ess
Ġinc ong
Ġinc oher
te ous
ade us
ade ath
Ġind iv
Ġind ef
Ġind eterm
Ġsuper l
Ġsuper ad
Ġsuper her
Ġsuper intend
Ġred p
Ġred oub
ale o
ale igh
rop y
rop olis
eng ard
Ġtrans par
Ġtrans fer
Ġtrans cription
Ġbre wer
idd ed
off ensive
Ġdem yst
Ġdem agnet
pec ific
agg ot
agg ins
sc ream
sc rew
erv ingly
Ġbo ast
Ġop al
Ġins er
Ġins inc
dr ivers
sk ins
Ġhy st
Ġir en
Ġir red
for est
for cing
for mance
Ġu it
utt a
oor gan
ips et
Ġer ic
rrr k
ime a
aus es
aus al
aus age
Ġmal function
Ġq b
Ġq as
Ġfuck y
Ġbur ning
Ġscr um
ict us
ron ics
Ġsur in
Ġsur rog
Ġrem en
Ġcont ortion
Ġpe asant
Ġback door
Ġinf idel
ble ble
Ġall m
Ġall in
Ġall iter
Ġall lll
Ġi y
Ġi was
Ġon ep
ots u
Ġcor b
Ġcor g
Ġund oub
Ġsal ad
bb a
ition ist
Ġgre end
ific ent
Ġcal f
Ġcal v
Ġcal iph
Ġrel ent
Ġrel inqu
Ġps il
Ġret ouch
unc ing
Ġis land
Ġob jection
Ġob struction
Ġob nox
Ġdel ine
eez ed
Ġhand sh
Ġacc id
Ġacc ust
och s
Ġgen o
Ġgen u
Ġgen et
Ġcap at
Ġid ioc
Ġcat ag
pos ure
gu ese
we aver
ica ine
ma o
onn o
Ġmag u
Ġgro tt
Ġgro ups
ient ists
wor lds
Ġmor gan
pro per
erc i
erc y
erc ials
Ġkr um
Ġkr ay
over n
iy an
iy as
iy ama
wr est
wr ights
wr ench
Ġur m
Ġbab abab
Ġwr ap
Ġwr ig
Ġwr iting
Ġav a
Ġus d
Ġus ername
Ġsom m
ald ehyde
Ġdo ing
Ġdo uc
itz y
Ġmac ron
Ġes pos
pe i
Ġmed ec
Ġhum ph
Ġhum bl
Ġhum ili
Ġge z
Ġge os
Ġge od
Ġge odes
Ġge ometr
ffff f
ffff ff
Ġimm ead
ream ing
Ġthe at
Ġthe us
Ġmeg av
Ġaw ar
Ġsim s
Ġsim plic
leg ed
uct ively
eddit or
Ġep ip
ze ug
yg o
yg ous
yg ifs
Ġpal at
Ġpal pit
org asm
ait a
ait on
Ġexp onent
Ġdev ot
ights ide
Ġatt em
Ġatt orney
icks on
ari able
onk er
press ible
Ġoff sh
Ġoff ens
Ġoff put
Ġunexpected b
ini ence
Ġshit ter
Ġcle av
Ġbu iss
Ġreg ional
Ġreg roup
Ġconf ab
Ġconf ort
Ġmult i
elf ish
Ġunc ork
Ġunc orr
Ġnew found
Ġexc al
Ġexc rement
kn ights
atur ally
isc ally
la is
oin ter
Ġit iner
Ġrev eng
Ġrev ision
ask er
ask ans
erst orm
apt ain
uv i
uv w
Ġfac em
Ġfac ial
Ġend er
Ġend orph
Ġend ometr
Ġtim esh
Ġhal uc
Ġhal ft
Ġever yh
Ġhyp othy
Ġang u
Ġrh iz
Ġrh ub
Ġrh abd
Ġrad ar
Ġcam r
Ġcam br
Ġchr ism
Ġser io
Ġser pent
Ġcan ib
Ġcre ak
Ġcre ativ
lex ic
Ġgam em
Ġgam est
agon al
Ġdick t
ucc ino
Ġhyper b
Ġdeb o
Ġconc ern
Ġmicro trans
iet ly
Ġbal con
Ġsyn esth
Ġpart y
Ġpart icular
Ġand roid
Ġcock ad
Ġfur t
Ġfur nit
Ġunf ath
oj a
Ġmem b
Ġmem br
Ġhol iday
ele tte
Ġpan ch
Ġos m
upp ly
Ġart ich
Ġmot orb
Ġmur m
Ġthr u
Ġplay d
Ġden om
Ġden ver
Ġol s
Ġpen ic
Ġwor h
Ġwor lds
to ys
amin ed
Ġso em
Ġpres by
Ġpres cript
Ġdiv or
Ġey ep
Ġoh myg
red acted
Ġto en
Ġto uc
Ġlo qu
Ġlo iter
Ġlo aths
Ġpers p
Ġpers ecut
Ġrob ust
Ġrob lox
Ġtra f
Ġak ad
Ġak now
ior ly
nd ed
Ġche k
Ġche ch
form ers
Ġmay h
Ġexpl icit
ete am
elt a
iev al
Ġwork sh
che ats
Ġye ast
Ġmill i
Ġmill enn
Ġkl on
Ġkar p
Ġkar ab
Ġkar ak
Ġpop t
Ġsem ia
back ing
Ġay yy
anan as
Ġlab rad
ba ugh
ba ums
Ġest er
ersh op
Ġcoll aps
Ġpsych o
Ġpsych ob
par ts
ital ia
Ġple ur
Ġspec ul
son ian
eric o
Ġbon j
Ġbon us
Ġnec roman
Ġneur al
Ġdon ut
Ġdon ald
min er
Ġpap ara
Ġtele med
Ġtele comm
Ġfire bomb
Ġgal le
Ġgal if
Ġreal is
iew icz
Ġact ually
Ġfil ibuster
Ġje apord
Ġbas ed
Ġbas ically
Ġunp rec
uuuuuu ch
val ley
val ues
eat on
Ġbra x
Ġbra ins
Ġtor qu
Ġhigh sc
Ġgo eb
roph e
roph ic
Ġcy pr
ipt ic
Ġcent en
Ġbul b
Ġbul gar
Ġphot of
Ġphot ograph
Ġped of
Ġped estrian
urb ed
urb ating
elling ton
ye ong
Ġpat ro
Ġport ap
Ġport ra
Ġpost mod
urn th
aha hhh
Ġcum in
with m
icul ation
icul ars
urg en
Ġaaaa h
Ġbatt let
Ġbatt lec
Ġprot ection
Ġsav v
Ġbat sh
Ġpin ch
Ġder el
Ġros em
fe ather
Ġreb utt
iot omy
egg y
egg ers
Ġarm or
Ġphil os
Ġphil ander
Ġdig ress
Ġsid el
Ġtom ah
inf ur
esp ace
Ġwood ch
Ġste ff
Ġaff l
Ġaff lu
igr ade
Ġunb al
ibr ary
Ġwhit ec
Ġwhit eh
Ġprof essor
Ġprop eg
Ġeng le
ogen ically
ati om
Ġma ill
Ġma ver
Ġmol t
Ġsan j
Ġsan itar
Ġocc urr
Ġocc ais
Ġocc asion
ourn ame
Ġadd ition
Ġash leigh
Ġpor cel
Ġnight mar
rem ely
Ġther es
Ġee v
Ġcall ig
lys is
Ġdur ch
lem ore
Ġox y
Ġox ym
fucking d
Ġfam ous
Ġach t
Ġach ter
Ġmax x
Ġda qu
ament o
Ġarr ang
glut am
Ġkey board
Ġwa if
Ġsor ry
Ġsor row
Ġpower wash
Ġow l
Ġbod yp
sw ings
Ġrot or
pppp pp
pppp ppp
iner ies
Ġhair s
Ġug hh
Ġeth er
Ġcow ard
ject ive
inh as
path s
Ġbet we
Ġsumm ert
Ġmeth amphet
aaaaaaaaaa ay
ogn ition
ogn ito
plic ation
Ġmand r
Ġhapp y
iat us
Ġhab itu
Ġtest ing
Ġkal ash
enth usias
Ġpick pock
Ġpast af
rob w
Ġcard io
Ġdisp le
lyc er
Ġeur ope
Ġeur otr
Ġtam ar
Ġgirl sc
Ġgirl friend
Ġprom eth
Ġmist ak
Ġbee th
yo uc
Ġdw ee
Ġroll ersk
Ġunm erc
Ġunm otiv
reat ment
Ġprim ord
Ġsucc ub
aman ia
Ġoooo ok
Ġpy ong
Ġbit conn
Ġwill ow
round ed
raz ole
Ġmaster ing
Ġgor l
Ġree x
Ġlim on
ret ail
Ġsaf et
Ġmah n
mat ically
Ġsep p
Ġwil k
Ġshe ik
pot ter
was ps
Ġaaaaaaaa a
Ġdan iel
ession ally
ession als
ebo arding
Ġprov inc
tw o
Ġbob by
Ġway f
Ġpriv il
ras ing
Ġcool coolcoolcoolcool
Ġexper i
Ġhors ed
Ġhors ep
Ġchick ens
Ġthro bb
Ġmech anic
xxxx xx
Ġsleep ing
bro thers
Ġrav el
Ġrav ens
Ġunre al
Ġbes mir
ebr idge
Ġkid z
Ġinh abit
Ġub ers
Ġmov ie
Ġdumb f
Ġdumb found
Ġgir ly
agan za
kr at
star ter
Ġexh ilar
Ġpent acost
Ġtob agg
Ġlar ry
Ġlar yng
born s
cent ral
did nt
inth eg
inth ew
Ġperson al
Ġlaz er
Ġlaz ar
Ġnet flix
iped ia
Ġbuff al
Ġgent le
Ġlav al
Ġyee eh
ighting s
Ġeeee ver
anth a
Ġmerc en
Ġmerc ur
Ġfull s
Ġfair yt
unction al
Ġultr ac
Ġsle uth
Ġhipp ocr
Ġhorr end
Ġplan ets
Ġnick le
Ġknow ledge
Ġnam et
Ġbread cr
lu igi
Ġpir ate
Ġty rr
Ġcheck er
Ġcel est
Ġvill ian
odododod odod
Ġsv obod
Ġunr est
Ġstorm tr
ype ople
gw tf
Ġih ave
Ġih eart
Ġcust od
Ġduck duck
Ġhaz el
Ġhaz ard
Ġliqu ef
Ġunst ead
Ġrepl ac
ighted ness
mr mr
Ġbis ex
lean ing
Ġka ep
Ġtrad em
Ġcolon ial
Ġsob er
Ġacqu is
Ġappro x
Ġdry h
Ġbott om
Ġuncon f
Ġtran quill
Ġimper fect
onom ics
Ġdeh um
epl oy
Ġbub bl
Ġtut orial
Ġcrypt oz
Ġcha otic
proof ed
Ġradi osh
Ġalb in
bbbb bb
top us
Ġsq w
Ġfing ern
Ġgast ron
Ġkle en
Ġground s
Ġcircum nav
des ign
Ġtog ether
Ġhill ary
Ġgi ard
ebl ade
ewor th
Ġagg rev
iiiii is
Ġcher ry
Ġmean wh
Ġdood leb
Ġparal le
isoleucyl glutam
lar ge
Ġriv erb
Ġlon ely
Ġgul f
Ġorth oped
Ġirre v
Ġmultip lex
Ġcra ig
Ġmyst ery
Ġtex ts
Ġabr upt
Ġbic ent
Ġgoo od
Ġpizz ag
Ġlitt leb
ynam ics
Ġphon eb
Ġevery fucking
Ġmt g
Ġdang an
alis a
Ġjac qu
Ġjur is
Ġjur isd
Ġnu is
Ġadj ourn
Ġpref ect
innn g
Ġhap o
brush es
Ġdum d
Ġdum pl
Ġwarr ior
Ġprogr amming
Ġfluff y
Ġbrut al
ccc ckkkk
graph ic
person al
alog ical
Ġkak ar
Ġvin egar
Ġjul i
Ġthank you
Ġcycl op
Ġsome on
Ġbiz arr
omorph ic
Ġscre enc
Ġautoc or
Ġpis st
Ġpis ssss
Ġpupp et
cor ps
gal actic
Ġtee hee
phenylalanyl alanyl
pass word
Ġtrain wreck
rax ia
ebe ast
Ġanc estr
Ġteen ag
ihil ipil
Ġich thy
rof en
Ġinters pers
gggggggg ggg
Ġbant er
ention ally
Ġinex plic
Ġinex cus
Ġbum f
Ġtenn is
Ġstro k
Ġaft ers
Ġaft ersh
ibil ty
Ġalc ohol
Ġbeaut iful
Ġuw u
aaaaay yy
Ġjenn ifer
quis ition
Ġthrow away
Ġwhate v
Ġcred ential
Ġmarsh all
bal anced
Ġtant rum
Ġjab ber
Ġwed g
Ġvoc ab
tttttttt tttttttt
Ġamph et
Ġglut en
Ġgreat grand
prod uctive
pol ice
oper ative
Ġconce al
Ġoooooooo ooo
itut ions
Ġgat ecr
Ġwaff lest
ocon iosis
Ġprev ious
fit ness
Ġcraw l
Ġspoon er
Ġenth us
pain ting
Ġdoof ens
Ġrail ro
Ġhass el
elyn ot
rosc ope
Ġaltern ativ
Ġanesth es
Ġobv ious
Ġsoci opath
onononon onononon
inform ed
inform ation
Ġpter odactyl
Ġhung ry
olar yng
Ġjal ap
Ġjol ly
Ġspider man
Ġcomput ers
Ġepid emi
Ġdissap ear
Ġbey ond
Ġshov el
Ġdiagn ost
bill ies
enb aarden
Ġtarg ary
Ġgorg on
Ġyork shire
Ġanx iet
Ġmisd emean
Ġsuperc ond
Ġpear l
ynd rome
umpt ious
iffer ent
pay ment
Ġpuzz le
unge on
Ġreim agin
Ġupper class
Ġbehav iour
aloo za
Ġmomm y
Ġdegr ad
Ġvamp ir
Ġconsc ient
Ġconsc ienc
Ġupv oted
hold ers
vide o
Ġpitch fork
chie fs
Ġacet yl
Ġantic lim
Ġsalv ador
Ġilleg ally
ulg ulg
llly y
blbl blbl
Ġantid is
Ġmilit ary
Ġchocol ate
Ġhier oglyph
qual ified
Ġimb ec
Ġapprec iat
Ġsinc er
acet yl
adel ic
apr io
Ġineff ect
Ġdiscl aim
Ġpump kin
Ġunpr edict
Ġjuv en
Ġsynd rom
Ġlgbt q
eeer rrrr
Ġtec n
Ġging erb
Ġlyr ic
Ġjugg ern
Ġzd rav
Ġtraff ick
Ġpeck er
Ġscro ung
Ġdece it
mount ain
Ġrenn ov
Ġweh adababy
Ġleb ens
blah blah
agog ic
Ġjeh ov
Ġjesus christ
Ġcoal esc
Ġjohnn y
dot com
gre ens
akov sky
Ġyug oslav
Ġgroo v
Ġmedi ocr
Ġencour ag
bec ause
Ġmirr or
Ġgend erb
Ġvalk yr
Ġspons or
Ġcondesc end
ellect ual
cro ft
Ġcunn iling
Ġpoc ah
Ġrhe umat
Ġstubb orn
Ġenlight ened
Ġorph an
Ġaggr es
Ġveloc ir
Ġlesb ian
alrightalright alrightalright
mob iles
Ġcigg ar
Ġmead ow
Ġrump elst
Ġconqu ist
Ġguess tim
Ġery th
orex ia
Ġabh orr
Ġoverc row
Ġmacro econom
nip ples
urge on
Ġinacc ess
Ġshy am
Ġdiscom bob
Ġmarij uan
Ġoverwh el
Ġoverwh elm
oooooooooooooooooooooooooooooooooooooooooooooooooooooooooooooooooooooooooooooooooooooooooooooooooooooooooooooooooooooooooooooooo oooooooooooooooooooooooooooooooooooooooooooooooooooooooooooooooooooooooooooooooooooooooooooooooooooooooooooooooooooooooooooooooo
Ġbetr ay
Ġherc ul
uuuuuuuuuuuuuuuuuuuuuuuuuuuuuuuuuuuuuuuuuuuuuuuuuuuuuuuuuuuuuuuuuuuuuuuuuuuuuuuuuuuuuuuuuuuuuuuuuuuuuuuuuuuuuuuuuuuuuuuuuuuuuuuu uuuuuuuuuuuuuuuuuuuuuuuuuuuuuuuuuuuuuuuuuuuuuuuuuuuuuuuuuuuuuuuuuuuuuuuuuuuuuuuuuuuuuuuuuuuuuuuuuuuuuuuuuuuuuuuuuuuuuuuuuuuuuuuu
orec eptors
ilts kin
Ġsquar ep
Ġinsec ur
udamudamudamudamudamudamudamudamudamudamudamudamudamudamudamudam udamudamudamudamudamudamudamudamudamudamudamudamudamudamudamudam
queaksqueaks queaksqueaks
ilater al
Ġshakes pear
Ġsciss or
Ġeliz abeth
Ġatmos ph
Ġhomos ap
Ġcentr if
Ġfount ain
immiegimmiegimmiegimmieg immiegimmiegimmiegimmieg
craw ler
zeb ub
Ġmuzz le
Ġsheph erd
Ġreup hol
Ġamel ior
Ġovercom plic
Ġbiot error
Ġlatest ag
fuckermotherfuckermotherfuckermotherfuckermother fuckermotherfuckermotherfuckermotherfuckermother
vill ain
blb blb
intellig ence
uhe uhe
Ġgeni un
Ġdebr ief
Ġhedg eh
Ġrejuv en
Ġkeel haul
Ġjajaj ajaj
ebab ebab
Ġmaneu ver
oblet offire
Ġfreder icks
Ġanas thes
mul aney
Ġblabl abl
Ġmisch iev
Ġhybr id
fsch iff
Ġfurl ough
Ġpitts burgh
oblast oma
Ġpaar th
Ġtae kw
Ġflocc ina
Ġhairst yl
Ġhumble br
Ġspond yl
ocentr ism
Ġdisen franch
icsilic ovolcan
Ġantips ych
Ġoho hh
Ġrabarberbarbarabarbarbar enbaarden
Ġthyl ac
Ġantico ag
a en
a un
a ia
a eh
a que
a ims
b z
b ic
b et
b oooo
b ation
b ate
b ood
b ator
b ork
b als
b ark
b are
b yr
b inder
b ases
b agging
b efor
b acon
b aths
b attle
b ottle
b acca
c is
c ot
c hhhh
c able
c ath
c ok
c row
c urr
c iting
c ause
c apping
c icles
c orns
c opter
c ulture
d at
d el
d est
d eb
d ok
d ev
d one
d ank
d ue
d get
d aily
d robe
d octor
e able
e ats
e ering
f ay
f ow
f ak
f ile
f ice
f ees
f ares
f ired
f rey
f eeling
f efe
f ellfor
f arlane
g aa
g ur
g ive
g ks
g onn
g reat
g oods
g oogle
g uitar
h f
h in
h un
h il
h ers
h aw
h ain
h ide
h off
h erd
h oes
h ooks
h ills
h oney
h oppers
h umans
h orses
h itler
i eeee
i ott
i are
i ars
i yt
i ably
i eeeee
i ope
i antly
j v
j z
j it
j os
j ap
j ess
j ail
j uh
j ai
j ane
j sk
j acker
k at
k ast
k az
k arm
k ina
k eeps
k arma
k itties
k idding
l op
l ain
l of
l ax
l ark
l ve
l och
l ims
l ogh
l ighter
l eepers
l ogged
m ak
m ics
m ical
m au
m oor
m eter
m asc
m ove
m irr
m inds
m udge
n p
n ch
n ly
n st
n ts
n ian
n oc
n ity
n of
n oth
n iss
n oy
n own
n king
n aked
n udes
n aires
o q
o ee
o ey
o ast
o ze
o uns
o aks
p ap
p ok
p ork
p oor
p read
p aws
p aces
p izza
p owder
p enguin
r ir
r ug
r ian
r ated
r ary
r atic
r ises
r oorgan
s j
s v
s om
s hhh
s afe
t ec
t ah
t ow
t ey
t yr
t ables
t urn
t urd
t ools
t chy
u ill
u ism
u ym
u ere
v ic
v ad
v ard
v able
v ore
v ark
v the
v ais
v eld
v ils
v illian
v illes
w f
w i
w am
w et
w ut
w ont
w old
w ool
w ild
w ound
w yr
w ana
w nt
w azz
w ires
w acker
w itted
w itches
w izard
w iping
x e
x it
y um
y up
y ass
y ke
y head
y work
z am
z os
z um
z ak
z ki
Ġ <
Ġ iiiiiiiiiiiiiiii
Ġ itt
Ġ uff
Ġ ert
Ġ umm
Ġ ict
Ġ oof
Ġ eddit
Ġ erst
Ġ ose
Ġ ils
Ġ aaaaaaaaaaaaaaaaaaaaaaaaaaaaaaaaaaaaaaaaaaaaaaaaaaaaaaaaaaaaaaaaaaaaaaaaaaaaaaaaaaaaaaaaaaaaaaaaaaaaaaaaaaaaaaaaaaaaaaaaaaaaaaaa
Ġ ipl
Ġ elli
Ġ iiiiiiiiii
Ġ eeeeeeeeee
Ġ ottom
Ġ iiiiiiiiiiii
er ers
er ect
er ations
er ite
er ole
er land
er rrrrrr
er apy
in ac
in ig
in ec
in ine
in ets
in vent
in my
Ġs ip
Ġs if
Ġs ous
Ġs ine
Ġs ally
Ġs ain
Ġs eh
Ġs ings
Ġs ich
Ġs ont
Ġs esh
Ġs umb
Ġs aj
Ġs ai
Ġs iest
Ġs ue
Ġs ih
Ġs irl
Ġs yb
Ġs ips
Ġs ime
Ġs yt
Ġs arn
Ġs ae
Ġs ains
Ġs ames
Ġs ven
Ġs iam
Ġs iti
Ġs agan
Ġs asa
es an
es en
es ch
es om
es aw
es ment
es ne
es day
es burg
es ional
es da
an id
an ous
an ets
an men
an ias
an other
an ha
an era
an agement
aa x
aa z
aa rr
aa ss
on os
on ate
on ix
on nnnn
on ces
Ġc eb
Ġc ct
Ġc ern
Ġc uff
Ġc ore
Ġc uh
Ġc hhh
Ġc ai
Ġc ual
Ġc els
Ġc bs
Ġc oog
Ġc ows
Ġc ada
Ġc ao
Ġc ider
Ġc aked
Ġc addy
en ew
en ov
en oon
en ergy
en heimer
at id
at ard
at ik
at ize
at ime
at ology
at iously
at ella
at ologist
at arian
ar at
ar ad
ar ah
ar ang
ar yn
ar iness
ar ena
ar bor
ar oni
ar boxyl
ee me
ee ms
ee ched
oo ey
oo ww
oo ze
ed l
ed in
ed ic
ed ible
al at
al ay
al yn
al ations
al ore
al con
al ike
al ously
al ubb
al actic
al bum
Ġp rr
Ġp uc
Ġp oooooooo
Ġp orm
Ġp oy
Ġp ook
Ġp ond
Ġp ure
Ġp esh
Ġp oooooo
Ġp ae
Ġp osh
Ġp oos
Ġp org
Ġp icks
Ġp aaaaa
Ġp cs
Ġp iro
Ġp fe
Ġp iment
Ġp ige
Ġp ugs
Ġp aws
Ġp ember
Ġp iece
Ġp omer
Ġp cg
Ġp umper
Ġp ione
Ġb ll
Ġb gg
Ġb zz
Ġb unt
Ġb au
Ġb ater
Ġb ai
Ġb ih
Ġb he
Ġb ale
Ġb opp
Ġb oooooooooooooooo
Ġb ene
Ġb yst
Ġb yth
Ġb aker
Ġb azz
Ġb ooth
Ġb odd
Ġb ahahahahahahahah
Ġb umber
Ġb iling
Ġb rrrrrr
Ġb ahn
Ġb bc
Ġb aal
Ġb anner
Ġm est
Ġm ce
Ġm ink
Ġm ide
Ġm gr
Ġm ere
Ġm sp
Ġm unn
Ġm sk
Ġm yt
Ġm ike
Ġm eeeeee
Ġm ych
Ġm aker
Ġm oles
Ġm ose
Ġm atter
Ġm ander
Ġm aks
Ġm oosh
Ġm umble
Ġm aaay
ing b
ing ling
is as
is and
is ip
is ide
is ps
is ary
is eness
is ka
is not
or ad
or ist
or ie
or ang
or rrrr
or ably
Ġd our
Ġd one
Ġd ern
Ġd ane
Ġd eel
Ġd och
Ġd oog
Ġd ata
Ġd ubb
Ġd urs
Ġd odod
Ġd js
Ġd jd
Ġd ooz
Ġd opes
Ġd endr
Ġd izzy
Ġd uhd
Ġt aaaa
Ġt th
Ġt ey
Ġt aw
Ġt ock
Ġt bl
Ġt amm
Ġt ile
Ġt ung
Ġt arm
Ġt uh
Ġt ery
Ġt agg
Ġt ots
Ġt osh
Ġt oe
Ġt ij
Ġt uts
Ġt org
Ġt ench
Ġt atter
Ġt uz
Ġt ener
Ġt onew
Ġt iem
Ġt ogh
Ġt ucked
Ġt ymp
Ġt etsu
ii in
ii ch
ii ie
ii tt
ii ty
it l
it ie
it ef
it ied
it izing
it iy
it ators
it ored
it atively
it stop
it aville
ic ant
ic ations
ic iously
ic ule
ic ola
ic ello
Ġr j
Ġr uu
Ġr all
Ġr ett
Ġr ost
Ġr ats
Ġr cc
Ġr ook
Ġr eep
Ġr sp
Ġr itch
Ġr ome
Ġr ips
Ġr ae
Ġr ising
Ġr iy
Ġr ift
Ġr agr
Ġr rrrrrrrrrrrrrrrr
Ġr iem
Ġr ival
Ġr icky
Ġr agged
Ġr ules
Ġr usting
Ġr iiiiiiiiii
le i
le er
le it
le ter
le tion
le ves
le arning
Ġf om
Ġf ob
Ġf oh
Ġf ists
Ġf ush
Ġf oon
Ġf aj
Ġf ade
Ġf igg
Ġf ros
Ġf istic
Ġf iiiiii
Ġf ais
Ġf awn
Ġf uy
Ġf ued
Ġf aked
Ġf ourn
Ġf umbl
Ġf ails
Ġf uuuuuuuuuuuuuuuuuuuuuuuuuuuuuuuu
Ġf usion
Ġf aken
Ġf ission
Ġf uuuuuuuuuuuu
as ar
as ad
as ol
as able
as ph
as ment
as ins
as ement
as ute
as iveness
Ġh f
Ġh x
Ġh ing
Ġh ent
Ġh yl
Ġh one
Ġh ith
Ġh uk
Ġh eed
Ġh ax
Ġh mmmm
Ġh int
Ġh ert
Ġh oom
Ġh ence
Ġh ater
Ġh ai
Ġh etr
Ġh atr
Ġh ame
Ġh ase
Ġh imm
Ġh aps
Ġh acks
Ġh oog
Ġh oles
Ġh iw
Ġh ng
Ġh agr
Ġh mmm
Ġh uy
Ġh ister
Ġh oud
Ġh ibb
Ġh eeeeeee
Ġh abs
Ġh uge
Ġh idden
un er
un ing
un ab
un ia
un ately
un ivers
un iverse
el ay
el aw
el ted
el ph
el per
el age
el ore
el iest
el iver
el ijk
Ġg c
Ġg z
Ġg us
Ġg eeee
Ġg ap
Ġg aaaaaaaa
Ġg ell
Ġg ack
Ġg ep
Ġg ach
Ġg rrrr
Ġg att
Ġg ann
Ġg oom
Ġg ere
Ġg ush
Ġg arm
Ġg itch
Ġg ne
Ġg etr
Ġg ees
Ġg ma
Ġg ives
Ġg ooo
Ġg ait
Ġg eys
Ġg cs
Ġg iro
Ġg ibr
Ġg imb
Ġg oli
Ġg utters
aaaa al
aaaa hh
ac at
ac os
ac op
ac ated
ac led
ac ino
ac etic
ac ao
ac ado
Ġw q
Ġw x
Ġw ess
Ġw th
Ġw ies
Ġw ath
Ġw ead
Ġw eth
Ġw aj
Ġw ai
Ġw eet
Ġw eck
Ġw wwww
Ġw ines
Ġw urr
Ġw eez
Ġw eeeee
Ġw ari
Ġw ahh
Ġw ads
Ġw omp
Ġw ooooo
Ġw inder
Ġw under
Ġw oa
Ġw aved
Ġw wwwww
Ġw ynd
Ġw ysc
us ky
us ional
us lly
il an
il en
il ac
il med
il ocks
il iated
il izers
ur z
ur ka
ur face
ur ances
am oo
am ant
am ys
am ins
am age
am aged
am uel
et oo
et ur
et ence
et sp
et ively
ro ww
ro yd
ro vers
ro ute
ro ught
hh old
ad ic
ad ly
ad ec
ad ey
ad ier
ad ry
ad ult
ad olf
ad ero
ad owing
ad onna
Ġl x
Ġl aaaaaaaa
Ġl eeeeeeee
Ġl our
Ġl ort
Ġl br
Ġl orr
Ġl ines
Ġl dr
Ġl eeeee
Ġl ias
Ġl ych
Ġl ogg
Ġl estr
Ġl ords
Ġl iar
Ġl anger
Ġl eder
Ġl inked
Ġl umbers
Ġl alalalal
Ġl ololol
ch ev
ch ino
ch aft
Ġn is
Ġn ch
Ġn ish
Ġn orn
Ġn af
Ġn anc
Ġn co
Ġn aj
Ġn iff
Ġn yb
Ġn yc
Ġn ips
Ġn ij
Ġn oog
Ġn cs
Ġn iac
Ġn anan
Ġn urn
Ġn urg
Ġn icc
Ġn guy
Ġn asty
Ġn nnnnn
Ġn abar
Ġn esqu
ol g
ol ent
ol ver
ol able
ol ov
ol ens
ol ated
ol ines
ol iers
ol itan
om u
om ar
om able
om me
om uch
om ori
om iya
ers pace
ers natch
ab ow
ab ort
ab oom
ab bling
iiii c
iiii r
os u
os as
os et
os ss
os ive
os ome
os ures
os orry
os lovakia
Ġe ad
Ġe ap
Ġe ud
Ġe ob
Ġe pl
Ġe arg
Ġe ager
Ġe igen
Ġe agle
Ġk ie
Ġk ast
Ġk ish
Ġk app
Ġk ort
Ġk att
Ġk ult
Ġk unt
Ġk air
Ġk aff
Ġk ata
Ġk aid
Ġk ills
Ġk urg
Ġk leb
Ġk elly
Ġk alm
Ġk inds
Ġk eto
Ġk orean
Ġk warezm
re ened
re aking
ut ations
ut rients
id ic
id ol
id ig
id ors
id ink
id ates
id ered
id osis
eeee errrr
ot ip
ot ans
ot ors
ap c
ap al
ap rop
ap olis
ap alooza
ag ard
ag rav
ag onn
ag ami
ent eed
ent ions
ent ually
ent esis
ent leman
ig in
ig ant
ig les
ig ung
im u
im ah
im ak
im ens
im ber
im bo
im ura
ul an
ul ing
ul ul
ec el
ec ation
ec ock
ec omm
ec ode
ec asting
ec oming
ec dot
um c
um t
um ab
ir h
ir ai
ir red
oooo m
oooo one
ess h
ess t
ess ors
ess ages
em c
em al
em od
em ine
em ann
em oth
em outh
em ony
em esis
em emt
Ġv g
Ġv aaaa
Ġv ess
Ġv ist
Ġv ich
Ġv ix
Ġv ile
Ġv eel
Ġv erc
Ġv agr
Ġv augh
Ġv agan
Ġv irolog
Ġo es
Ġo uu
Ġo ink
Ġo ax
Ġo int
Ġo gr
Ġo ve
Ġo ke
Ġo de
Ġo fs
Ġo fw
Ġun all
Ġun ear
Ġun esc
Ġun press
Ġun iver
Ġun par
Ġun inh
Ġun ret
Ġun right
Ġun char
Ġun cover
Ġun ecc
Ġun question
Ġun empath
rr k
ah v
ah ey
Ġin nn
Ġin sh
Ġin und
Ġin ks
Ġin att
Ġin ord
Ġin uk
Ġin eed
Ġin ner
Ġj g
Ġj z
Ġj ic
Ġj id
Ġj ist
Ġj ill
Ġj uuuu
Ġj ong
Ġj ull
Ġj iff
Ġj urr
Ġj agg
Ġj arg
Ġj eez
Ġj oe
Ġj asm
Ġj ule
Ġj ason
Ġj igs
Ġj igger
Ġj usts
Ġj ingle
ow ww
ow ering
ow olf
ow dy
ow sky
ow ueh
ow icz
ow olow
st w
st ly
st ack
st ations
st are
st ery
st ien
st ances
st airs
st yles
st itutes
iv ia
iv ep
iv ated
iv ors
iv ert
Ġst w
Ġst un
Ġst end
Ġst aw
Ġst uc
Ġst ash
Ġst ann
Ġst one
Ġst enc
Ġst aph
Ġst itch
Ġst ille
Ġst uf
Ġst ero
Ġst rew
Ġst ills
Ġst rob
Ġst ories
Ġst icky
Ġst yle
ck ck
op ted
op atra
op ausal
ist ion
ist ice
ist ani
and ro
and ans
est al
est ein
aaaaaaaa h
aaaaaaaa ah
Ġch k
Ġch on
Ġch ii
Ġch ly
Ġch ul
Ġch um
Ġch ate
Ġch ans
Ġch ong
Ġch ry
Ġch int
Ġch err
Ġch ole
Ġch ung
Ġch umb
Ġch eeeeee
Ġch ads
Ġch agr
Ġch ester
Ġch anger
Ġch ange
Ġch eech
Ġch inese
th g
th ar
th ist
th ood
th iss
th any
th urs
th day
th ought
th enes
th eever
ak us
ak ay
ak aka
Ġsh s
Ġsh ag
Ġsh ig
Ġsh og
Ġsh od
Ġsh ie
Ġsh eeeeeeee
Ġsh ish
Ġsh uck
Ġsh ok
Ġsh ire
Ġsh erm
Ġsh ush
Ġsh are
Ġsh eng
Ġsh agg
Ġsh oes
Ġsh aqu
Ġsh iit
Ġsh ishk
ss ing
ss ch
ss ay
qu its
qu ets
qu ery
qu eeze
ip an
ff s
ff ects
ant eed
ant asia
Ġre ine
Ġre zz
Ġre br
Ġre arm
Ġre gl
Ġre bb
Ġre ads
Ġre key
Ġre quest
Ġre charge
ter ally
ation als
iz awa
og as
og ood
og ically
og amy
Ġa en
Ġa ed
Ġa ok
Ġa ene
Ġa irt
Ġa hhhhh
Ġa hhhhhhhhhhhhhhhhhhhhhhhhhhhhhhhh
yy a
up es
up up
up unct
up vote
od ate
od ons
od ema
Ġth eeee
Ġth ig
Ġth ow
Ġth inn
Ġth ugg
Ġth arg
Ġth ese
Ġth rob
Ġth oughts
ub g
ub in
ub an
ub ated
if ac
if act
ies e
ies er
ies for
iiiiiiii iii
all llll
all llly
ra um
Ġy x
Ġy ad
Ġy ud
Ġy uc
Ġy ach
Ġy eeeeeeeeeeeeeeee
Ġy ond
Ġy oul
Ġy otes
Ġy ogh
Ġy acht
Ġy eeeeeeeeeeeee
Ġy ayayayay
ug as
ill ate
ud l
ud as
ud ud
ib u
ib on
ib os
ib uy
Ġsp w
Ġsp oo
Ġsp ed
Ġsp aaaa
Ġsp ang
Ġsp ain
Ġsp ann
Ġsp ym
Ġsp ool
Ġsp ott
Ġsp ots
Ġsp oog
ell ations
ell ini
ell llllllll
ob ody
ver ting
ack a
ack y
ack able
ts kap
mm a
mm o
ard ial
ard itis
ey a
ey man
uuuu t
Ġcon th
Ġcon ge
Ġcon na
ep ot
ep ost
ep aper
ep pers
ian us
oc in
oc les
oc ious
oc yst
oc arp
oc ytic
oc arbon
oc chio
end t
end om
end ly
end ip
Ġtr ed
Ġtr el
Ġtr et
Ġtr uuuu
Ġtr ish
Ġtr uff
Ġtr yst
Ġtr ama
Ġtr aged
Ġtr ends
ass ar
ass ers
ate es
ate ch
ate ful
av it
av id
av ra
av ity
av idan
ast ry
ast name
ang en
ang els
eb es
eb an
eb ers
eb read
eb ody
eb oobs
eg on
eg un
eg et
eg ro
eg ard
eg ear
eg ren
eg reen
eg oing
eg onewild
sh er
sh ay
sh ak
sh ep
sh itt
sh ower
sh ually
sh ires
sh ooter
Ġex f
Ġex pr
Ġex uber
ik k
aw ke
aw olf
uc us
Ġz m
Ġz r
Ġz x
Ġz at
Ġz ing
Ġz ur
Ġz ad
Ġz um
Ġz ey
Ġz end
Ġz ex
Ġz uk
Ġz ax
Ġz ond
Ġz ipp
Ġz org
Ġz ebr
Ġz zzz
Ġz even
Ġbl ot
Ġbl ob
Ġbl uff
Ġbl imp
Ġbl ister
Ġsc u
Ġsc ur
Ġsc orn
Ġsc int
Ġsc arr
Ġsc aph
Ġsc ots
Ġsc ald
Ġsc ener
ew an
ew alk
ew ho
ew hat
Ġwh in
Ġwh ar
Ġwh ith
Ġwh ooo
Ġwh imp
Ġwh ippers
ath am
ath rust
ex or
ex perience
ov al
ov is
ov able
ov abitch
ens y
ens er
ens ing
ens ated
ens ually
Ġpr u
Ġpr ay
Ġpr ive
Ġpr eeeeee
Ġpr ision
Ġpr onon
Ġpro z
Ġpro dd
Ġpro ps
Ġpro bb
Ġpro blems
Ġpro jection
Ġpro verb
pl ers
pl est
pl ank
pl ained
pl asia
pl anning
aaaaaaaaaaaaaaaa aaaa
aaaaaaaaaaaaaaaa aaaaa
aaaaaaaaaaaaaaaa aaaaaaaaaa
Ġcr p
Ġcr t
Ġcr es
Ġcr aa
Ġcr am
Ġcr ater
Ġcr aaaaaa
Ġcr abb
Ġcr ony
Ġcr apper
Ġcr eeks
und ra
und zw
tr l
tr am
tr ical
tr ade
tr umps
ach ie
ach ments
Ġfl ac
Ġfl ub
Ġfl ies
Ġfl ib
Ġfl air
Ġfl unk
Ġfl acc
Ġfl aut
Ġfl oob
Ġfl ores
Ġfl edg
Ġfr ac
Ġfr ang
Ġfr amer
Ġfr iday
Ġbr ed
Ġbr or
Ġbr ett
Ġbr ann
Ġbr ace
Ġbr igg
Ġbr udd
Ġbr onn
Ġbr amble
Ġal h
Ġal oo
Ġal ert
Ġal ice
Ġal oof
Ġal iqu
Ġal iter
Ġar y
Ġar om
Ġar ig
Ġar sh
Ġar se
ys ical
ef ly
ef ox
ef ile
ef ighter
ef lies
our able
our cing
Ġgr u
Ġgr as
Ġgr inn
Ġgr ipp
Ġgr abb
Ġgr onk
Ġgr ues
Ġgr umbl
Ġgr umble
Ġgr ooms
gg i
gg in
Ġle er
Ġle it
Ġle ber
Ġle one
Ġle gh
Ġle pt
Ġle hr
Ġle pre
Ġdis j
Ġdis av
Ġdis ast
Ġdis arr
Ġdis ench
Ġdis inter
Ġdis abil
Ġdis lik
Ġcom c
Ġcom e
Ġcom ap
Ġcom ent
Ġcom mm
Ġcom bo
Ġcom ps
Ġcom men
man y
man ent
Ġan m
Ġan and
Ġan ast
Ġan oy
Ġan imes
Ġan alc
Ġan ishin
ph ase
ph obe
Ġcl ic
Ġcl as
Ġcl ot
Ġcl op
Ġcl ash
Ġcl ich
Ġcl amp
Ġcl ues
Ġcl apper
Ġcl aire
der m
eh air
eh acks
eh uman
eh ouses
eh older
eh urting
ok ol
ash y
ash it
per e
per ations
per iod
per ienced
zz ers
zz ies
ong est
ong ous
ort ant
ort ment
ort ions
Ġsl ender
Ġsl eeps
ons es
ons piracy
ber rys
Ġim not
Ġim pres
Ġpl u
Ġpl en
Ġpl ent
Ġpl az
Ġpl oth
Ġpl ager
Ġqu a
Ġqu is
Ġqu et
Ġqu aff
[...]
