{"[PAD]":0,"[CLS]":1,"[SEP]":2,"[MASK]":3,"[UNK]":4,"<end>":5,"<start>":6,"<end_of_line>":7,"!":8,"\"":9,"#":10,"$":11,"%":12,"&":13,"'":14,"(":15,")":16,"*":17,"+":18,",":19,"-":20,".":21,"/":22,"0":23,"1":24,"2":25,"3":26,"4":27,"5":28,"6":29,"7":30,"8":31,"9":32,":":33,";":34,"<":35,"=":36,">":37,"?":38,"@":39,"A":40,"B":41,"C":42,"D":43,"E":44,"F":45,"G":46,"H":47,"I":48,"J":49,"K":50,"L":51,"M":52,"N":53,"O":54,"P":55,"Q":56,"R":57,"S":58,"T":59,"U":60,"V":61,"W":62,"X":63,"Y":64,"Z":65,"[":66,"\\":67,"]":68,"^":69,"_":70,"`":71,"a":72,"b":73,"c":74,"d":75,"e":76,"f":77,"g":78,"h":79,"i":80,"j":81,"k":82,"l":83,"m":84,"n":85,"o":86,"p":87,"q":88,"r":89,"s":90,"t":91,"u":92,"v":93,"w":94,"x":95,"y":96,"z":97,"{":98,"|":99,"}":100,"~":101,"¡":102,"¢":103,"£":104,"¤":105,"¥":106,"¦":107,"§":108,"¨":109,"©":110,"ª":111,"«":112,"¬":113,"®":114,"¯":115,"°":116,"±":117,"²":118,"³":119,"´":120,"µ":121,"¶":122,"·":123,"¸":124,"¹":125,"º":126,"»":127,"¼":128,"½":129,"¾":130,"¿":131,"À":132,"Á":133,"Â":134,"Ã":135,"Ä":136,"Å":137,"Æ":138,"Ç":139,"È":140,"É":141,"Ê":142,"Ë":143,"Ì":144,"Í":145,"Î":146,"Ï":147,"Ð":148,"Ñ":149,"Ò":150,"Ó":151,"Ô":152,"Õ":153,"Ö":154,"×":155,"Ø":156,"Ù":157,"Ú":158,"Û":159,"Ü":160,"Ý":161,"Þ":162,"ß":163,"à":164,"á":165,"â":166,"ã":167,"ä":168,"å":169,"æ":170,"ç":171,"è":172,"é":173,"ê":174,"ë":175,"ì":176,"í":177,"î":178,"ï":179,"ð":180,"ñ":181,"ò":182,"ó":183,"ô":184,"õ":185,"ö":186,"÷":187,"ø":188,"ù":189,"ú":190,"û":191,"ü":192,"ý":193,"þ":194,"ÿ":195,"Ā":196,"ā":197,"Ă":198,"ă":199,"Ą":200,"ą":201,"Ć":202,"ć":203,"Ĉ":204,"ĉ":205,"Ċ":206,"ċ":207,"Č":208,"č":209,"Ď":210,"ď":211,"Đ":212,"đ":213,"Ē":214,"ē":215,"Ĕ":216,"ĕ":217,"Ė":218,"ė":219,"Ę":220,"ę":221,"Ě":222,"ě":223,"Ĝ":224,"ĝ":225,"Ğ":226,"ğ":227,"Ġ":228,"ġ":229,"Ģ":230,"ģ":231,"Ĥ":232,"ĥ":233,"Ħ":234,"ħ":235,"Ĩ":236,"ĩ":237,"Ī":238,"ī":239,"Ĭ":240,"ĭ":241,"Į":242,"į":243,"İ":244,"ı":245,"Ĳ":246,"ĳ":247,"Ĵ":248,"ĵ":249,"Ķ":250,"ķ":251,"ĸ":252,"Ĺ":253,"ĺ":254,"Ļ":255,"ļ":256,"Ľ":257,"ľ":258,"Ŀ":259,"ŀ":260,"Ł":261,"ł":262,"Ń":263,"er":264,"in":265,"Ġs":266,"es":267,"an":268,"aa":269,"on":270,"Ġc":271,"en":272,"at":273,"ar":274,"ee":275,"oo":276,"ed":277,"al":278,"Ġp":279,"Ġb":280,"Ġm":281,"ing":282,"is":283,"or":284,"Ġd":285,"Ġt":286,"ii":287,"it":288,"ic":289,"Ġr":290,"le":291,"Ġf":292,"as":293,"Ġh":294,"un":295,"el":296,"Ġg":297,"aaaa":298,"ac":299,"Ġw":300,"us":301,"il":302,"ur":303,"am":304,"et":305,"ro":306,"hh":307,"ad":308,"Ġl":309,"ch":310,"Ġn":311,"ol":312,"om":313,"ion":314,"ers":315,"ab":316,"ly":317,"iiii":318,"uu":319,"os":320,"Ġe":321,"Ġk":322,"re":323,"ut":324,"id":325,"eeee":326,"ot":327,"ap":328,"ag":329,"ent":330,"ig":331,"im":332,"ul":333,"ec":334,"um":335,"ir":336,"oooo":337,"ess":338,"em":339,"Ġv":340,"Ġo":341,"Ġun":342,"rr":343,"ah":344,"Ġin":345,"ay":346,"Ġj":347,"ow":348,"st":349,"iv":350,"Ġst":351,"ck":352,"op":353,"ist":354,"and":355,"est":356,"aaaaaaaa":357,"Ġch":358,"th":359,"ak":360,"Ġsh":361,"ss":362,"qu":363,"ip":364,"ff":365,"ant":366,"Ġre":367,"ter":368,"ation":369,"iz":370,"og":371,"Ġa":372,"yy":373,"up":374,"od":375,"Ġth":376,"ub":377,"ie":378,"if":379,"hhhh":380,"ies":381,"iiiiiiii":382,"all":383,"ra":384,"Ġy":385,"ug":386,"ill":387,"ud":388,"ib":389,"ous":390,"Ġsp":391,"ell":392,"ob":393,"ver":394,"ack":395,"ts":396,"mm":397,"ard":398,"ey":399,"uuuu":400,"ia":401,"Ġcon":402,"ep":403,"ick":404,"ian":405,"oc":406,"end":407,"Ġtr":408,"ass":409,"ate":410,"av":411,"nn":412,"eeeeeeee":413,"ast":414,"ang":415,"ish":416,"igh":417,"eb":418,"ll":419,"uck":420,"eg":421,"sh":422,"Ġex":423,"able":424,"ik":425,"ce":426,"aw":427,"art":428,"uc":429,"Ġz":430,"Ġbl":431,"Ġsc":432,"ew":433,"Ġwh":434,"ath":435,"yl":436,"ex":437,"ine":438,"ov":439,"ity":440,"ens":441,"ww":442,"Ġpr":443,"Ġpro":444,"pl":445,"ally":446,"ans":447,"aaaaaaaaaaaaaaaa":448,"Ġcr":449,"und":450,"tr":451,"ach":452,"Ġfl":453,"ock":454,"Ġfr":455,"ahah":456,"Ġbr":457,"Ġal":458,"Ġar":459,"ys":460,"ted":461,"ef":462,"our":463,"Ġgr":464,"gg":465,"ain":466,"Ġle":467,"Ġdis":468,"Ġcom":469,"rrrr":470,"man":471,"app":472,"Ġan":473,"oooooooo":474,"ph":475,"ood":476,"tt":477,"ated":478,"Ġcl":479,"der":480,"eh":481,"ok":482,"ash":483,"ting":484,"per":485,"iiiiiiiiiiiiiiii":486,"ive":487,"zz":488,"ong":489,"ort":490,"les":491,"Ġsl":492,"ons":493,"ber":494,"Ġim":495,"Ġpl":496,"Ġqu":497,"ind":498,"dd":499,"ou":500,"ial":501,"ks":502,"tion":503,"ism":504,"bo":505,"yn":506,"ier":507,"ors":508,"ight":509,"ry":510,"ear":511,"ead":512,"Ġac":513,"att":514,"ssss":515,"ev":516,"ett":517,"az":518,"orn":519,"Ġph":520,"Ġam":521,"bl":522,"ord":523,"Ġad":524,"ness":525,"ings":526,"of":527,"eth":528,"jj":529,"pr":530,"Ġsk":531,"ating":532,"ment":533,"ich":534,"af":535,"Ġsn":536,"ann":537,"Ġen":538,"yyyy":539,"oth":540,"out":541,"Ġab":542,"ins":543,"itt":544,"Ġco":545,"ely":546,"ust":547,"one":548,"hhhhhhhh":549,"cl":550,"orm":551,"yp":552,"iss":553,"Ġdr":554,"Ġsup":555,"Ġcar":556,"ith":557,"Ġper":558,"ugh":559,"uk":560,"ost":561,"Ġmar":562,"eeeeeeeeeeeeeeee":563,"olog":564,"Ġsw":565,"oy":566,"Ġsch":567,"oll":568,"ats":569,"ink":570,"ates":571,"oh":572,"Ġsm":573,"own":574,"cc":575,"ank":576,"eed":577,"Ġover":578,"ious":579,"ont":580,"Ġpar":581,"Ġem":582,"Ġpre":583,"ire":584,"cr":585,"ect":586,"ook":587,"io":588,"act":589,"ax":590,"Ġx":591,"mmmm":592,"old":593,"ide":594,"ct":595,"ge":596,"ied":597,"erm":598,"ics":599,"ym":600,"ail":601,"age":602,"int":603,"ical":604,"ps":605,"uuuuuuuu":606,"ool":607,"ations":608,"ull":609,"Ġgl":610,"anc":611,"ern":612,"Ġas":613,"pp":614,"gr":615,"Ġrec":616,"ond":617,"ary":618,"ator":619,"uff":620,"ix":621,"Ġsub":622,"aaaaaaaaaaaaaaaaaaaaaaaaaaaaaaaa":623,"its":624,"ork":625,"Ġbe":626,"ore":627,"als":628,"ite":629,"arr":630,"atch":631,"kk":632,"Ġres":633,"led":634,"ark":635,"ert":636,"oom":637,"co":638,"err":639,"ling":640,"Ġor":641,"Ġte":642,"amm":643,"ence":644,"ult":645,"Ġstr":646,"ists":647,"unt":648,"ise":649,"ized":650,"air":651,"ox":652,"fr":653,"br":654,"fl":655,"enc":656,"ger":657,"rom":658,"ile":659,"se":660,"eee":661,"enn":662,"row":663,"Ġne":664,"less":665,"com":666,"ere":667,"Ġmc":668,"au":669,"ions":670,"ole":671,"ush":672,"ically":673,"ild":674,"iiiiiiiiiiiiiiiiiiiiiiiiiiiiiiii":675,"oon":676,"be":677,"edd":678,"ign":679,"ater":680,"aph":681,"ace":682,"ize":683,"Ġel":684,"Ġinter":685,"oph":686,"ure":687,"oot":688,"eep":689,"ott":690,"ung":691,"Ġhe":692,"let":693,"Ġse":694,"amp":695,"arm":696,"sp":697,"Ġde":698,"inn":699,"aaaaaa":700,"ipp":701,"ump":702,"uh":703,"Ġme":704,"itch":705,"esh":706,"Ġmis":707,"hhh":708,"yd":709,"Ġdec":710,"umb":711,"ets":712,"aj":713,"uss":714,"wh":715,"ley":716,"gh":717,"Ġant":718,"ai":719,"iest":720,"Ġap":721,"ound":722,"Ġout":723,"are":724,"Ġass":725,"ual":726,"Ġmon":727,"ve":728,"ance":729,"ful":730,"ians":731,"Ġfor":732,"eet":733,"Ġcomp":734,"Ġag":735,"oop":736,"ue":737,"gl":738,"Ġtw":739,"ars":740,"Ġman":741,"bur":742,"add":743,"Ġdes":744,"Ġint":745,"nnnn":746,"unk":747,"Ġgu":748,"oss":749,"Ġkn":750,"Ġapp":751,"iff":752,"iel":753,"ery":754,"iness":755,"ium":756,"ton":757,"vers":758,"Ġpol":759,"yr":760,"jjjj":761,"ft":762,"Ġbar":763,"ents":764,"by":765,"Ġup":766,"alk":767,"ahahahah":768,"eck":769,"ih":770,"ays":771,"wwww":772,"fuck":773,"ered":774,"els":775,"Ġrep":776,"Ġunder":777,"ised":778,"Ġwe":779,"Ġsqu":780,"Ġmin":781,"str":782,"ler":783,"bs":784,"land":785,"ice":786,"ille":787,"Ġev":788,"ily":789,"ne":790,"oooooo":791,"Ġaut":792,"Ġcol":793,"Ġdef":794,"etr":795,"llll":796,"orr":797,"ines":798,"Ġinc":799,"te":800,"ade":801,"ugg":802,"Ġind":803,"he":804,"Ġsuper":805,"atr":806,"urr":807,"me":808,"umm":809,"ants":810,"unn":811,"Ġred":812,"ale":813,"igg":814,"xx":815,"rop":816,"eng":817,"ty":818,"ds":819,"ame":820,"Ġtrans":821,"esc":822,"Ġbre":823,"idd":824,"irl":825,"ane":826,"off":827,"aster":828,"yb":829,"yc":830,"ome":831,"Ġdem":832,"pec":833,"agg":834,"sc":835,"ina":836,"rrrrrrrr":837,"erv":838,"eel":839,"Ġbo":840,"Ġop":841,"opp":842,"erb":843,"Ġins":844,"ake":845,"inc":846,"Ġdep":847,"Ġimp":848,"ingly":849,"aur":850,"dr":851,"sk":852,"oad":853,"Ġhy":854,"Ġir":855,"for":856,"Ġu":857,"utt":858,"con":859,"aff":860,"oor":861,"ips":862,"ids":863,"Ġat":864,"Ġer":865,"rrr":866,"ime":867,"aus":868,"Ġmal":869,"Ġq":870,"Ġfuck":871,"izz":872,"eeeeeeeeeeeeeeeeeeeeeeeeeeeeeeee":873,"Ġbur":874,"Ġhom":875,"Ġscr":876,"oul":877,"yt":878,"Ġdi":879,"ict":880,"izing":881,"ards":882,"ough":883,"ms":884,"oooooooooooooooo":885,"ron":886,"ering":887,"Ġbro":888,"Ġsur":889,"uch":890,"arn":891,"Ġrem":892,"Ġcont":893,"Ġpe":894,"erg":895,"arg":896,"Ġback":897,"ility":898,"Ġinf":899,"ble":900,"Ġall":901,"men":902,"Ġi":903,"ene":904,"que":905,"Ġon":906,"ana":907,"Ġnon":908,"ots":909,"ible":910,"Ġcor":911,"Ġund":912,"ase":913,"aaa":914,"Ġmet":915,"imm":916,"Ġcomm":917,"ball":918,"rav":919,"Ġsal":920,"bb":921,"Ġmic":922,"ition":923,"Ġgre":924,"ific":925,"ory":926,"Ġcal":927,"Ġrel":928,"Ġps":929,"Ġcro":930,"erd":931,"Ġret":932,"Ġent":933,"unc":934,"uit":935,"Ġcons":936,"ably":937,"Ġis":938,"ke":939,"Ġob":940,"ae":941,"udd":942,"oof":943,"Ġdel":944,"unch":945,"osh":946,"eez":947,"Ġhand":948,"Ġacc":949,"och":950,"ying":951,"ees":952,"ld":953,"Ġgen":954,"Ġcap":955,"aaaaaaaaaaaaaaaaaaaaaaaaaaaaaaaaaaaaaaaaaaaaaaaaaaaaaaaaaaaaaaaa":956,"oe":957,"Ġid":958,"Ġcat":959,"pos":960,"gu":961,"we":962,"ica":963,"lin":964,"ma":965,"ities":966,"ower":967,"Ġele":968,"onn":969,"ius":970,"yst":971,"amb":972,"dddd":973,"ssssssss":974,"ogr":975,"ino":976,"Ġmag":977,"eness":978,"ative":979,"Ġgro":980,"ams":981,"Ġtur":982,"ient":983,"eek":984,"ij":985,"wor":986,"Ġbel":987,"Ġmor":988,"ns":989,"ites":990,"head":991,"pro":992,"ular":993,"ios":994,"erc":995,"Ġed":996,"ement":997,"Ġkr":998,"eeeee":999,"oos":1000,"iiiiiiiiiiiiiiiiiiiiiiiiiiiiiiiiiiiiiiiiiiiiiiiiiiiiiiiiiiiiiiii":1001,"ising":1002,"ros":1003,"ept":1004,"over":1005,"iy":1006,"wr":1007,"Ġur":1008,"ization":1009,"aps":1010,"Ġbab":1011,"Ġwr":1012,"Ġav":1013,"ology":1014,"Ġus":1015,"Ġsom":1016,"ald":1017,"Ġuns":1018,"rain":1019,"Ġdo":1020,"ones":1021,"Ġunex":1022,"pected":1023,"itz":1024,"Ġmil":1025,"ively":1026,"hhhhhhhhhhhhhhhh":1027,"pt":1028,"Ġmac":1029,"read":1030,"gggg":1031,"ave":1032,"ike":1033,"Ġes":1034,"acks":1035,"pe":1036,"Ġom":1037,"Ġref":1038,"ka":1039,"Ġmed":1040,"ette":1041,"yth":1042,"Ġhum":1043,"ias":1044,"ops":1045,"Ġge":1046,"uth":1047,"ux":1048,"istic":1049,"ouse":1050,"Ġhar":1051,"Ġinv":1052,"ien":1053,"ffff":1054,"tttt":1055,"Ġmo":1056,"Ġnot":1057,"Ġimm":1058,"ream":1059,"uts":1060,"Ġthe":1061,"atic":1062,"Ġmeg":1063,"eeeeee":1064,"Ġaw":1065,"ouch":1066,"Ġsim":1067,"ora":1068,"Ġaa":1069,"erk":1070,"leg":1071,"eter":1072,"mmmmmmmm":1073,"uct":1074,"eddit":1075,"iend":1076,"Ġep":1077,"Ġinst":1078,"oog":1079,"Ġpur":1080,"ives":1081,"ze":1082,"omb":1083,"yg":1084,"ych":1085,"Ġpal":1086,"nt":1087,"ogg":1088,"ooo":1089,"raw":1090,"erson":1091,"tions":1092,"org":1093,"other":1094,"ened":1095,"ster":1096,"ait":1097,"abb":1098,"ara":1099,"Ġgh":1100,"Ġexp":1101,"Ġdev":1102,"ights":1103,"Ġatt":1104,"yyy":1105,"icks":1106,"ari":1107,"oid":1108,"Ġmus":1109,"uuuuuuuuuuuuuuuu":1110,"onk":1111,"press":1112,"Ġoff":1113,"Ġcur":1114,"aly":1115,"Ġhead":1116,"ird":1117,"Ġunexpected":1118,"ini":1119,"asc":1120,"ude":1121,"Ġshit":1122,"ife":1123,"Ġcle":1124,"Ġbu":1125,"Ġtre":1126,"Ġreg":1127,"Ġconf":1128,"Ġmult":1129,"jjjjjjjj":1130,"elf":1131,"Ġunc":1132,"Ġnew":1133,"Ġexc":1134,"iiiiii":1135,"Ġkh":1136,"kn":1137,"atur":1138,"irc":1139,"isc":1140,"zzzz":1141,"la":1142,"oin":1143,"ama":1144,"Ġit":1145,"aker":1146,"Ġsex":1147,"Ġrev":1148,"ask":1149,"erst":1150,"apt":1151,"uv":1152,"Ġfac":1153,"ese":1154,"ators":1155,"ield":1156,"ahh":1157,"aul":1158,"uf":1159,"Ġend":1160,"way":1161,"Ġtim":1162,"Ġhal":1163,"Ġever":1164,"Ġhyp":1165,"uns":1166,"utter":1167,"ows":1168,"nnn":1169,"Ġang":1170,"ute":1171,"work":1172,"ya":1173,"ening":1174,"box":1175,"Ġblack":1176,"oes":1177,"Ġrh":1178,"roll":1179,"eph":1180,"ata":1181,"ments":1182,"ums":1183,"na":1184,"sss":1185,"Ġleg":1186,"ages":1187,"ograph":1188,"oz":1189,"Ġbi":1190,"Ġrad":1191,"oles":1192,"Ġsil":1193,"acc":1194,"Ġcam":1195,"Ġchr":1196,"uber":1197,"ky":1198,"Ġfre":1199,"olf":1200,"Ġser":1201,"Ġdist":1202,"Ġah":1203,"outh":1204,"Ġcan":1205,"ench":1206,"the":1207,"izes":1208,"kin":1209,"ability":1210,"irt":1211,"Ġaf":1212,"Ġgod":1213,"estr":1214,"iqu":1215,"Ġhel":1216,"Ġcre":1217,"iter":1218,"lex":1219,"ously":1220,"bar":1221,"asp":1222,"Ġgam":1223,"abl":1224,"agon":1225,"Ġann":1226,"ls":1227,"Ġdick":1228,"Ġla":1229,"ads":1230,"ose":1231,"itis":1232,"oman":1233,"ently":1234,"hhhhh":1235,"ucc":1236,"Ġhyper":1237,"ville":1238,"Ġsol":1239,"ada":1240,"ote":1241,"ubb":1242,"Ġic":1243,"Ġdeb":1244,"ship":1245,"ands":1246,"Ġconc":1247,"iw":1248,"aaaaa":1249,"obb":1250,"de":1251,"ki":1252,"Ġdet":1253,"aking":1254,"Ġmicro":1255,"iet":1256,"Ġdown":1257,"ares":1258,"eem":1259,"Ġbal":1260,"etic":1261,"aut":1262,"ero":1263,"Ġair":1264,"ein":1265,"Ġsyn":1266,"omm":1267,"Ġval":1268,"eys":1269,"ao":1270,"ng":1271,"ises":1272,"oob":1273,"Ġmel":1274,"Ġgar":1275,"fs":1276,"Ġwar":1277,"Ġpart":1278,"Ġmod":1279,"Ġspl":1280,"Ġand":1281,"Ġsec":1282,"Ġcock":1283,"itter":1284,"Ġhem":1285,"eless":1286,"ner":1287,"wood":1288,"Ġfur":1289,"Ġunf":1290,"Ġchar":1291,"ric":1292,"vv":1293,"ode":1294,"oj":1295,"Ġmem":1296,"Ġhol":1297,"ext":1298,"Ġdiss":1299,"ified":1300,"ele":1301,"ider":1302,"ational":1303,"ves":1304,"alan":1305,"Ġpan":1306,"inger":1307,"ress":1308,"Ġos":1309,"upp":1310,"ift":1311,"ify":1312,"Ġext":1313,"Ġart":1314,"Ġpo":1315,"Ġmot":1316,"atter":1317,"Ġmur":1318,"Ġthr":1319,"Ġdisc":1320,"Ġplay":1321,"Ġear":1322,"Ġovers":1323,"uz":1324,"Ġden":1325,"akes":1326,"berg":1327,"Ġol":1328,"ano":1329,"ita":1330,"ures":1331,"Ġpen":1332,"iously":1333,"ues":1334,"Ġwor":1335,"emp":1336,"ope":1337,"to":1338,"any":1339,"arc":1340,"Ġben":1341,"Ġmid":1342,"amin":1343,"rog":1344,"imp":1345,"Ġso":1346,"Ġfe":1347,"omy":1348,"Ġpres":1349,"ours":1350,"boy":1351,"Ġdiv":1352,"Ġey":1353,"Ġoh":1354,"onic":1355,"Ġmad":1356,"iting":1357,"Ġhell":1358,"unter":1359,"Ġver":1360,"red":1361,"Ġto":1362,"Ġhard":1363,"Ġlo":1364,"omp":1365,"uuu":1366,"agn":1367,"ited":1368,"Ġoo":1369,"Ġpers":1370,"Ġrob":1371,"Ġtra":1372,"ais":1373,"aid":1374,"Ġvol":1375,"Ġak":1376,"Ġmy":1377,"ito":1378,"eld":1379,"ape":1380,"ella":1381,"Ġfir":1382,"azz":1383,"Ġsand":1384,"urs":1385,"aint":1386,"her":1387,"inal":1388,"ides":1389,"alls":1390,"ather":1391,"Ġstar":1392,"ior":1393,"nd":1394,"Ġche":1395,"form":1396,"face":1397,"Ġpot":1398,"Ġmay":1399,"Ġtro":1400,"Ġhon":1401,"ado":1402,"Ġnor":1403,"Ġexpl":1404,"line":1405,"res":1406,"Ġwater":1407,"ody":1408,"Ġgrand":1409,"lock":1410,"Ġher":1411,"ete":1412,"ena":1413,"elt":1414,"agr":1415,"iev":1416,"illa":1417,"Ġwork":1418,"ils":1419,"che":1420,"cs":1421,"Ġast":1422,"ala":1423,"Ġhyd":1424,"Ġye":1425,"lic":1426,"mon":1427,"po":1428,"Ġpos":1429,"Ġmill":1430,"Ġkl":1431,"Ġkar":1432,"iac":1433,"Ġpop":1434,"ored":1435,"agin":1436,"yyyyyyyy":1437,"king":1438,"Ġlov":1439,"Ġsem":1440,"Ġhot":1441,"etch":1442,"Ġspr":1443,"ains":1444,"back":1445,"ially":1446,"Ġay":1447,"anan":1448,"ato":1449,"Ġdead":1450,"rec":1451,"raft":1452,"Ġbad":1453,"Ġlab":1454,"Ġlong":1455,"iver":1456,"ologist":1457,"ooth":1458,"ooooo":1459,"ales":1460,"Ġdog":1461,"asm":1462,"ames":1463,"Ġcond":1464,"ender":1465,"ba":1466,"bre":1467,"Ġest":1468,"alt":1469,"Ġbig":1470,"udam":1471,"iro":1472,"not":1473,"ersh":1474,"Ġcop":1475,"Ġcoll":1476,"Ġpsych":1477,"day":1478,"par":1479,"Ġsoc":1480,"Ġterr":1481,"ades":1482,"board":1483,"Ġemb":1484,"eeeeeeeeeeeeeeeeeeeeeeeeeeeeeeeeeeeeeeeeeeeeeeeeeeeeeeeeeeeeeeee":1485,"load":1486,"Ġut":1487,"Ġul":1488,"inter":1489,"ital":1490,"use":1491,"Ġlib":1492,"mmm":1493,"burg":1494,"ani":1495,"Ġple":1496,"elle":1497,"acy":1498,"ional":1499,"odod":1500,"Ġspec":1501,"son":1502,"eric":1503,"Ġbon":1504,"Ġrest":1505,"Ġnec":1506,"osis":1507,"field":1508,"arian":1509,"antly":1510,"Ġneur":1511,"li":1512,"Ġdon":1513,"rod":1514,"play":1515,"min":1516,"net":1517,"ri":1518,"Ġsu":1519,"ener":1520,"Ġpap":1521,"Ġro":1522,"Ġgood":1523,"ups":1524,"Ġtele":1525,"ured":1526,"Ġabs":1527,"ha":1528,"Ġfire":1529,"vent":1530,"Ġbut":1531,"Ġgal":1532,"Ġreal":1533,"iew":1534,"Ġact":1535,"udamudam":1536,"Ġsam":1537,"Ġfil":1538,"reg":1539,"Ġje":1540,"eak":1541,"era":1542,"Ġbas":1543,"ables":1544,"ags":1545,"Ġunp":1546,"ester":1547,"uuuuuu":1548,"ually":1549,"val":1550,"Ġbull":1551,"kkkk":1552,"eat":1553,"yw":1554,"Ġbra":1555,"Ġtor":1556,"Ġhigh":1557,"Ġgo":1558,"Ġequ":1559,"ander":1560,"alanyl":1561,"yh":1562,"roph":1563,"astic":1564,"Ġarch":1565,"fish":1566,"Ġcy":1567,"ords":1568,"ency":1569,"augh":1570,"ipt":1571,"Ġtech":1572,"Ġcent":1573,"ately":1574,"Ġbul":1575,"Ġrock":1576,"udg":1577,"Ġphot":1578,"ooks":1579,"Ġped":1580,"Ġfin":1581,"urb":1582,"rew":1583,"elling":1584,"ye":1585,"Ġpat":1586,"Ġpet":1587,"Ġport":1588,"Ġpost":1589,"Ġprec":1590,"mo":1591,"ren":1592,"room":1593,"ony":1594,"Ġwind":1595,"urn":1596,"ident":1597,"aha":1598,"Ġaqu":1599,"lor":1600,"mem":1601,"uj":1602,"Ġill":1603,"Ġcum":1604,"ager":1605,"ucyl":1606,"iers":1607,"mar":1608,"war":1609,"with":1610,"iii":1611,"Ġneg":1612,"Ġke":1613,"iiiiiiiiiiiiiiiiiiiiiiiiiiiiiiiiiiiiiiiiiiiiiiiiiiiiiiiiiiiiiiiiiiiiiiiiiiiiiiiiiiiiiiiiiiiiiiiiiiiiiiiiiiiiiiiiiiiiiiiiiiiiiiii":1614,"icul":1615,"Ġha":1616,"Ġyo":1617,"ills":1618,"shit":1619,"oke":1620,"comp":1621,"aaaaaaaaaaaaaaaaaaaaaaaaaaaaaaaaaaaaaaaaaaaaaaaaaaaaaaaaaaaaaaaaaaaaaaaaaaaaaaaaaaaaaaaaaaaaaaaaaaaaaaaaaaaaaaaaaaaaaaaaaaaaaaaa":1622,"ison":1623,"urg":1624,"Ġjust":1625,"awn":1626,"uberuber":1627,"por":1628,"Ġaaaa":1629,"Ġbir":1630,"Ġbatt":1631,"isk":1632,"ection":1633,"ocr":1634,"uy":1635,"Ġball":1636,"Ġinn":1637,"iar":1638,"za":1639,"inder":1640,"Ġmiss":1641,"isation":1642,"Ġlif":1643,"ims":1644,"Ġprot":1645,"ko":1646,"ule":1647,"Ġcirc":1648,"rot":1649,"ieg":1650,"ances":1651,"ward":1652,"Ġsat":1653,"Ġsav":1654,"Ġbat":1655,"Ġdar":1656,"ells":1657,"ears":1658,"Ġenc":1659,"Ġresp":1660,"erman":1661,"Ġpin":1662,"aged":1663,"lll":1664,"ta":1665,"ience":1666,"uel":1667,"Ġet":1668,"Ġcorn":1669,"Ġpow":1670,"Ġder":1671,"Ġros":1672,"lec":1673,"Ġunt":1674,"obs":1675,"anger":1676,"Ġsnow":1677,"fe":1678,"iec":1679,"Ġhous":1680,"Ġok":1681,"Ġreb":1682,"obia":1683,"iot":1684,"aar":1685,"Ġpass":1686,"Ġmat":1687,"Ġday":1688,"Ġfro":1689,"uls":1690,"Ġconv":1691,"egg":1692,"ification":1693,"iate":1694,"Ġbor":1695,"Ġmind":1696,"Ġeff":1697,"ther":1698,"Ġarm":1699,"ggg":1700,"Ġphil":1701,"anch":1702,"uses":1703,"Ġblood":1704,"Ġsa":1705,"Ġsus":1706,"Ġdig":1707,"Ġfar":1708,"roc":1709,"outs":1710,"Ġask":1711,"ham":1712,"Ġsid":1713,"Ġtom":1714,"une":1715,"ange":1716,"med":1717,"Ġsym":1718,"arp":1719,"Ġboo":1720,"ision":1721,"Ġdom":1722,"Ġter":1723,"itr":1724,"ister":1725,"aks":1726,"oft":1727,"ca":1728,"ality":1729,"Ġpay":1730,"urt":1731,"Ġjack":1732,"odd":1733,"Ġorg":1734,"girl":1735,"Ġing":1736,"Ġesc":1737,"inf":1738,"esp":1739,"Ġbus":1740,"Ġwood":1741,"ution":1742,"Ġste":1743,"iph":1744,"Ġaff":1745,"www":1746,"fully":1747,"Ġcross":1748,"aah":1749,"Ġmer":1750,"Ġmcc":1751,"Ġweb":1752,"ola":1753,"igr":1754,"iment":1755,"ivers":1756,"Ġcontr":1757,"ould":1758,"bor":1759,"tf":1760,"ued":1761,"iles":1762,"Ġunb":1763,"ibr":1764,"ocks":1765,"Ġts":1766,"osc":1767,"eman":1768,"aked":1769,"ials":1770,"ences":1771,"rs":1772,"Ġren":1773,"illy":1774,"Ġshr":1775,"ifying":1776,"Ġwhit":1777,"Ġprof":1778,"eheh":1779,"world":1780,"eef":1781,"Ġber":1782,"Ġdam":1783,"ige":1784,"raf":1785,"ocal":1786,"egr":1787,"cccc":1788,"oud":1789,"Ġcas":1790,"Ġbutt":1791,"olol":1792,"Ġaud":1793,"Ġlev":1794,"lers":1795,"yf":1796,"Ġsun":1797,"Ġprop":1798,"Ġeng":1799,"go":1800,"ua":1801,"uzz":1802,"adad":1803,"Ġod":1804,"ogen":1805,"sl":1806,"Ġson":1807,"Ġbw":1808,"Ġhow":1809,"rrrrrrrrrrrrrrrr":1810,"Ġchrist":1811,"ati":1812,"Ġma":1813,"Ġmol":1814,"ores":1815,"rol":1816,"ante":1817,"Ġaz":1818,"illion":1819,"ove":1820,"Ġsan":1821,"isp":1822,"Ġnut":1823,"agh":1824,"ula":1825,"yyyyy":1826,"leb":1827,"Ġocc":1828,"ourn":1829,"rrrrr":1830,"Ġadd":1831,"ahahahahahahahah":1832,"down":1833,"Ġash":1834,"Ġpor":1835,"Ġpok":1836,"Ġbed":1837,"Ġbec":1838,"Ġmen":1839,"Ġlad":1840,"irr":1841,"ibb":1842,"ucks":1843,"Ġwhat":1844,"Ġpred":1845,"eral":1846,"Ġdoc":1847,"Ġtot":1848,"Ġho":1849,"Ġnight":1850,"rem":1851,"imes":1852,"Ġther":1853,"jjjjjjjjjjjjjjjj":1854,"Ġee":1855,"oned":1856,"Ġcall":1857,"lys":1858,"ona":1859,"Ġno":1860,"hhhhhh":1861,"ypt":1862,"cat":1863,"sch":1864,"Ġdur":1865,"Ġdiff":1866,"lem":1867,"Ġform":1868,"ustr":1869,"ety":1870,"ima":1871,"fw":1872,"iation":1873,"now":1874,"Ġmut":1875,"orph":1876,"eling":1877,"Ġgold":1878,"idg":1879,"Ġox":1880,"ished":1881,"fucking":1882,"ja":1883,"light":1884,"Ġca":1885,"Ġfam":1886,"umber":1887,"Ġshitt":1888,"izer":1889,"da":1890,"lo":1891,"my":1892,"Ġach":1893,"Ġmax":1894,"Ġda":1895,"lets":1896,"Ġland":1897,"omen":1898,"aka":1899,"Ġextr":1900,"ylalanyl":1901,"atory":1902,"den":1903,"well":1904,"zy":1905,"itting":1906,"ament":1907,"oms":1908,"idge":1909,"eeeeeee":1910,"ending":1911,"Ġarr":1912,"ved":1913,"Ġil":1914,"aries":1915,"itor":1916,"ices":1917,"Ġwat":1918,"vert":1919,"ined":1920,"Ġcut":1921,"arch":1922,"Ġram":1923,"Ġfem":1924,"Ġveg":1925,"akers":1926,"ends":1927,"glut":1928,"Ġta":1929,"Ġkey":1930,"ople":1931,"esth":1932,"oraora":1933,"ped":1934,"itic":1935,"elly":1936,"Ġgn":1937,"ches":1938,"Ġkill":1939,"gn":1940,"ker":1941,"lay":1942,"ral":1943,"enst":1944,"Ġbol":1945,"Ġrand":1946,"Ġwa":1947,"abil":1948,"iveness":1949,"hol":1950,"no":1951,"sm":1952,"ination":1953,"Ġsor":1954,"Ġcos":1955,"Ġpower":1956,"Ġban":1957,"Ġfa":1958,"reen":1959,"Ġow":1960,"ube":1961,"ubs":1962,"ense":1963,"house":1964,"Ġbod":1965,"Ġbeh":1966,"eled":1967,"Ġny":1968,"umbl":1969,"thy":1970,"ended":1971,"under":1972,"fer":1973,"iol":1974,"iated":1975,"je":1976,"kt":1977,"sw":1978,"Ġcann":1979,"iser":1980,"Ġrom":1981,"Ġrot":1982,"Ġec":1983,"Ġblu":1984,"rown":1985,"Ġdeath":1986,"ces":1987,"car":1988,"pir":1989,"Ġpep":1990,"Ġmast":1991,"lect":1992,"Ġham":1993,"aki":1994,"pppp":1995,"comm":1996,"uw":1997,"ven":1998,"iner":1999,"edly":2000,"Ġmass":2001,"Ġra":2002,"Ġfish":2003,"Ġhair":2004,"iling":2005,"abs":2006,"upt":2007,"gs":2008,"Ġot":2009,"Ġug":2010,"Ġeth":2011,"Ġcow":2012,"alm":2013,"cher":2014,"Ġvis":2015,"Ġjoh":2016,"awk":2017,"Ġamb":2018,"Ġsubs":2019,"oooooooooooooooooooooooooooooooo":2020,"ject":2021,"walk":2022,"inh":2023,"Ġcand":2024,"Ġband":2025,"Ġdark":2026,"Ġfo":2027,"Ġfoot":2028,"Ġwest":2029,"Ġopp":2030,"Ġdu":2031,"Ġshow":2032,"elled":2033,"anz":2034,"onew":2035,"Ġmak":2036,"ura":2037,"Ġeg":2038,"Ġproc":2039,"Ġcounter":2040,"crib":2041,"friend":2042,"bag":2043,"master":2044,"path":2045,"inos":2046,"Ġcod":2047,"Ġbet":2048,"Ġmoon":2049,"orts":2050,"icc":2051,"action":2052,"Ġegg":2053,"ugs":2054,"exual":2055,"berry":2056,"ssssssssssssssss":2057,"een":2058,"Ġsumm":2059,"Ġmeth":2060,"Ġmont":2061,"oring":2062,"Ġhoo":2063,"Ġhav":2064,"Ġspac":2065,"ucking":2066,"Ġelect":2067,"pa":2068,"Ġsab":2069,"Ġbook":2070,"Ġmas":2071,"Ġmir":2072,"Ġtar":2073,"aming":2074,"ulate":2075,"Ġstep":2076,"Ġfree":2077,"gress":2078,"lad":2079,"Ġum":2080,"Ġpun":2081,"Ġbarr":2082,"oma":2083,"ests":2084,"aaaaaaaaaa":2085,"ths":2086,"thing":2087,"ogn":2088,"Ġconst":2089,"plic":2090,"eful":2091,"Ġcats":2092,"Ġmand":2093,"Ġrat":2094,"Ġhapp":2095,"Ġlow":2096,"Ġobs":2097,"aya":2098,"opl":2099,"opath":2100,"antic":2101,"Ġreh":2102,"ogs":2103,"hhhhhhh":2104,"illed":2105,"ails":2106,"Ġheart":2107,"balls":2108,"ford":2109,"iq":2110,"iat":2111,"lly":2112,"onder":2113,"Ġcab":2114,"Ġcast":2115,"Ġporn":2116,"Ġmr":2117,"Ġmach":2118,"orb":2119,"Ġfun":2120,"Ġhab":2121,"aging":2122,"ulated":2123,"iving":2124,"ipe":2125,"ello":2126,"ken":2127,"mer":2128,"miss":2129,"ney":2130,"port":2131,"ser":2132,"Ġsign":2133,"Ġtest":2134,"iled":2135,"uring":2136,"eted":2137,"Ġnos":2138,"Ġkal":2139,"enth":2140,"Ġaer":2141,"ause":2142,"gar":2143,"hole":2144,"anks":2145,"eds":2146,"Ġpoo":2147,"Ġpick":2148,"Ġpast":2149,"orp":2150,"Ġten":2151,"lev":2152,"Ġhor":2153,"Ġhall":2154,"Ġwith":2155,"urd":2156,"rob":2157,"Ġlat":2158,"Ġlog":2159,"iger":2160,"imb":2161,"Ġintr":2162,"apped":2163,"ttt":2164,"ski":2165,"ny":2166,"onon":2167,"Ġcard":2168,"Ġtem":2169,"Ġgay":2170,"adr":2171,"ading":2172,"Ġnic":2173,"ulation":2174,"ements":2175,"aws":2176,"Ġdisp":2177,"Ġforg":2178,"bon":2179,"arts":2180,"Ġrac":2181,"ases":2182,"ased":2183,"lyc":2184,"Ġeur":2185,"Ġkil":2186,"otic":2187,"Ġstra":2188,"ief":2189,"ews":2190,"yness":2191,"wwwwwwww":2192,"aurus":2193,"iam":2194,"ware":2195,"Ġib":2196,"init":2197,"Ġtal":2198,"Ġtit":2199,"Ġtam":2200,"Ġfan":2201,"Ġgirl":2202,"eting":2203,"Ġeh":2204,"Ġoc":2205,"quares":2206,"uge":2207,"uction":2208,"Ġprom":2209,"aaaaaaa":2210,"Ġsens":2211,"Ġmist":2212,"ington":2213,"Ġoct":2214,"ifer":2215,"acking":2216,"eption":2217,"asses":2218,"Ġprob":2219,"ettes":2220,"aud":2221,"iu":2222,"kh":2223,"iny":2224,"oosh":2225,"Ġhay":2226,"acter":2227,"ilt":2228,"ched":2229,"ching":2230,"owed":2231,"Ġstat":2232,"aves":2233,"book":2234,"like":2235,"tim":2236,"ining":2237,"inate":2238,"Ġpub":2239,"Ġmm":2240,"Ġreddit":2241,"Ġhu":2242,"Ġwall":2243,"Ġluc":2244,"ires":2245,"ologists":2246,"bt":2247,"js":2248,"inst":2249,"Ġpoop":2250,"Ġbee":2251,"Ġmich":2252,"lett":2253,"Ġgw":2254,"used":2255,"Ġnar":2256,"ument":2257,"ika":2258,"Ġadv":2259,"ological":2260,"guy":2261,"Ġdoub":2262,"hhhhhhhhhhhhhhhhhhhhhhhhhhhhhhhh":2263,"ea":2264,"hood":2265,"vs":2266,"ways":2267,"yo":2268,"Ġbell":2269,"Ġdw":2270,"Ġdim":2271,"Ġroll":2272,"Ġgall":2273,"uster":2274,"ilia":2275,"olo":2276,"esses":2277,"Ġobl":2278,"Ġunm":2279,"Ġthem":2280,"quaresquares":2281,"can":2282,"ez":2283,"va":2284,"Ġsing":2285,"Ġsound":2286,"aling":2287,"Ġbh":2288,"Ġbay":2289,"Ġmath":2290,"reat":2291,"uman":2292,"Ġprim":2293,"Ġanim":2294,"Ġenv":2295,"full":2296,"you":2297,"Ġbow":2298,"Ġfat":2299,"aces":2300,"Ġjo":2301,"ested":2302,"Ġperc":2303,"reddit":2304,"Ġsucc":2305,"Ġble":2306,"Ġboy":2307,"aman":2308,"amed":2309,"Ġven":2310,"Ġinfl":2311,"Ġspeed":2312,"away":2313,"cast":2314,"ged":2315,"Ġoooo":2316,"Ġcart":2317,"ories":2318,"Ġdest":2319,"ico":2320,"leucyl":2321,"Ġgang":2322,"ami":2323,"aded":2324,"uld":2325,"Ġunh":2326,"ancy":2327,"Ġmcd":2328,"uuuuuuuuuuuuuuuuuuuuuuuuuuuuuuuu":2329,"bow":2330,"gen":2331,"Ġsad":2332,"Ġpy":2333,"Ġbit":2334,"Ġmom":2335,"itions":2336,"Ġroad":2337,"Ġwill":2338,"Ġwatch":2339,"rock":2340,"round":2341,"Ġlaw":2342,"ando":2343,"ifs":2344,"raz":2345,"ucker":2346,"bd":2347,"wash":2348,"Ġsar":2349,"aled":2350,"Ġpatr":2351,"Ġmaster":2352,"Ġtop":2353,"Ġrap":2354,"Ġgor":2355,"Ġgun":2356,"olic":2357,"aby":2358,"img":2359,"Ġvir":2360,"Ġshad":2361,"anna":2362,"ammer":2363,"mmmmmmmmmmmmmmmm":2364,"Ġtechn":2365,"ean":2366,"ning":2367,"ple":2368,"porn":2369,"Ġsac":2370,"Ġcav":2371,"Ġtak":2372,"Ġree":2373,"ason":2374,"Ġlim":2375,"essed":2376,"ived":2377,"oooooooooo":2378,"pres":2379,"jo":2380,"kins":2381,"ret":2382,"Ġath":2383,"Ġsaf":2384,"Ġcorr":2385,"Ġmah":2386,"Ġmort":2387,"Ġdh":2388,"Ġfer":2389,"Ġfut":2390,"Ġfant":2391,"Ġfav":2392,"ader":2393,"ago":2394,"ired":2395,"owing":2396,"acked":2397,"ishing":2398,"Ġscar":2399,"ique":2400,"jd":2401,"mat":2402,"wer":2403,"Ġsep":2404,"anes":2405,"alc":2406,"Ġput":2407,"Ġposs":2408,"iced":2409,"una":2410,"Ġwee":2411,"Ġwoo":2412,"Ġwil":2413,"usion":2414,"Ġll":2415,"ember":2416,"Ġunl":2417,"Ġchild":2418,"Ġchees":2419,"Ġshe":2420,"iant":2421,"oing":2422,"pot":2423,"itive":2424,"Ġgrav":2425,"Ġnan":2426,"agu":2427,"ibly":2428,"ibility":2429,"Ġdemon":2430,"Ġirr":2431,"Ġgreen":2432,"from":2433,"ono":2434,"Ġcour":2435,"aring":2436,"Ġmos":2437,"aced":2438,"ural":2439,"ross":2440,"Ġlight":2441,"utes":2442,"ential":2443,"Ġclass":2444,"cy":2445,"ges":2446,"mans":2447,"ries":2448,"was":2449,"Ġaaaaaaaa":2450,"Ġpa":2451,"Ġmoth":2452,"Ġdan":2453,"ected":2454,"ession":2455,"Ġax":2456,"ebo":2457,"overs":2458,"Ġprov":2459,"ache":2460,"sssss":2461,"Ġschool":2462,"right":2463,"tw":2464,"alth":2465,"Ġbob":2466,"Ġmess":2467,"itar":2468,"Ġrain":2469,"Ġway":2470,"uted":2471,"Ġvac":2472,"sters":2473,"ipper":2474,"icker":2475,"Ġpriv":2476,"rrrrrr":2477,"etta":2478,"fest":2479,"ked":2480,"town":2481,"Ġpant":2482,"Ġdid":2483,"Ġfel":2484,"unts":2485,"amer":2486,"Ġlik":2487,"aga":2488,"fa":2489,"ju":2490,"mark":2491,"nes":2492,"ras":2493,"Ġsen":2494,"Ġcool":2495,"Ġmoo":2496,"Ġdream":2497,"Ġtemp":2498,"Ġga":2499,"ided":2500,"opol":2501,"that":2502,"ishes":2503,"shot":2504,"Ġexper":2505,"ples":2506,"Ġalt":2507,"Ġarg":2508,"etti":2509,"lands":2510,"aine":2511,"iating":2512,"ned":2513,"uous":2514,"yph":2515,"oots":2516,"Ġbeg":2517,"Ġbitch":2518,"Ġmu":2519,"ican":2520,"Ġfort":2521,"Ġhit":2522,"Ġhors":2523,"etz":2524,"Ġliv":2525,"aper":2526,"Ġchick":2527,"Ġthro":2528,"Ġcomb":2529,"isms":2530,"Ġmech":2531,"ooooooo":2532,"xxxx":2533,"cool":2534,"iem":2535,"watch":2536,"inks":2537,"Ġss":2538,"ared":2539,"Ġment":2540,"Ġdys":2541,"Ġtyp":2542,"Ġrub":2543,"Ġhur":2544,"iding":2545,"igs":2546,"aying":2547,"anda":2548,"esting":2549,"ipl":2550,"tern":2551,"angel":2552,"Ġsleep":2553,"Ġschl":2554,"bot":2555,"ced":2556,"Ġold":2557,"ania":2558,"Ġmam":2559,"itation":2560,"icle":2561,"Ġhos":2562,"umer":2563,"ahs":2564,"Ġshort":2565,"ifies":2566,"illing":2567,"awa":2568,"Ġpros":2569,"Ġfriend":2570,"inds":2571,"itty":2572,"ophobia":2573,"fire":2574,"hand":2575,"view":2576,"wa":2577,"xd":2578,"Ġif":2579,"Ġans":2580,"aro":2581,"Ġbuck":2582,"Ġdouch":2583,"asts":2584,"Ġger":2585,"acts":2586,"Ġwal":2587,"Ġkam":2588,"ought":2589,"Ġdistr":2590,"bro":2591,"ga":2592,"ho":2593,"inated":2594,"Ġsin":2595,"Ġcoc":2596,"Ġbot":2597,"Ġmes":2598,"Ġdat":2599,"iction":2600,"Ġrav":2601,"Ġhist":2602,"Ġlam":2603,"Ġnov":2604,"agen":2605,"Ġve":2606,"Ġunre":2607,"Ġrefr":2608,"ahaha":2609,"worth":2610,"heads":2611,"onewild":2612,"fort":2613,"gy":2614,"job":2615,"key":2616,"lt":2617,"lings":2618,"Ġcer":2619,"Ġbes":2620,"Ġmother":2621,"Ġhorn":2622,"usc":2623,"Ġkat":2624,"ida":2625,"emon":2626,"Ġov":2627,"ivity":2628,"ods":2629,"acker":2630,"Ġanth":2631,"Ġearth":2632,"kd":2633,"Ġcamp":2634,"ali":2635,"Ġmud":2636,"Ġmaj":2637,"Ġrun":2638,"Ġlob":2639,"reon":2640,"umps":2641,"iller":2642,"ebr":2643,"Ġanal":2644,"bi":2645,"band":2646,"ctr":2647,"dy":2648,"water":2649,"alism":2650,"Ġba":2651,"Ġtub":2652,"itted":2653,"Ġredd":2654,"Ġhee":2655,"etting":2656,"Ġlas":2657,"Ġkid":2658,"ahr":2659,"Ġinh":2660,"Ġju":2661,"thes":2662,"ddd":2663,"Ġmagn":2664,"list":2665,"life":2666,"time":2667,"zo":2668,"Ġub":2669,"Ġign":2670,"Ġsed":2671,"Ġsuff":2672,"Ġcant":2673,"alist":2674,"Ġpil":2675,"Ġby":2676,"Ġmov":2677,"Ġdumb":2678,"iti":2679,"unic":2680,"Ġgir":2681,"Ġlay":2682,"agan":2683,"oped":2684,"icking":2685,"Ġpret":2686,"Ġfrank":2687,"ittle":2688,"iousness":2689,"dddddddd":2690,"kr":2691,"ving":2692,"Ġsug":2693,"eno":2694,"eets":2695,"Ġpenn":2696,"ingers":2697,"Ġdor":2698,"Ġdil":2699,"Ġton":2700,"child":2701,"aped":2702,"star":2703,"Ġstand":2704,"alled":2705,"Ġexh":2706,"aches":2707,"ained":2708,"apping":2709,"Ġsmart":2710,"ools":2711,"Ġbarb":2712,"Ġbreak":2713,"ffffffff":2714,"dom":2715,"ek":2716,"sa":2717,"Ġess":2718,"Ġbac":2719,"Ġbear":2720,"Ġboot":2721,"Ġdir":2722,"Ġdish":2723,"asy":2724,"Ġgig":2725,"roid":2726,"Ġna":2727,"ido":2728,"Ġvent":2729,"Ġthat":2730,"iana":2731,"enders":2732,"Ġcompl":2733,"mann":2734,"nnnnnnnn":2735,"ji":2736,"more":2737,"pic":2738,"zer":2739,"Ġsel":2740,"Ġsul":2741,"Ġcoo":2742,"atin":2743,"Ġpent":2744,"Ġtob":2745,"asing":2746,"Ġlit":2747,"Ġlang":2748,"Ġlock":2749,"Ġnat":2750,"aba":2751,"ahn":2752,"Ġshar":2753,"Ġread":2754,"odes":2755,"uuuuu":2756,"ahahah":2757,"Ġphys":2758,"eeeeeeeeeeeeeeeeeeeeeeeeeeeeeeeeeeeeeeeeeeeeeeeeeeeeeeeeeeeeeeeeeeeeeeeeeeeeeeeeeeeeeeeeeeeeeeeeeeeeeeeeeeeeeeeeeeeeeeeeeeeeeeee":2759,"cer":2760,"jack":2761,"met":2762,"oni":2763,"Ġcu":2764,"enly":2765,"Ġpee":2766,"Ġdeg":2767,"Ġrich":2768,"Ġff":2769,"Ġherm":2770,"Ġlar":2771,"chen":2772,"Ġnob":2773,"Ġnorm":2774,"rey":2775,"irm":2776,"eme":2777,"Ġvan":2778,"ival":2779,"Ġflat":2780,"ipped":2781,"udamudamudamudam":2782,"uberuberuberuber":2783,"born":2784,"cent":2785,"did":2786,"iable":2787,"lan":2788,"mos":2789,"oa":2790,"tor":2791,"inth":2792,"enh":2793,"Ġpul":2794,"Ġpoll":2795,"Ġperson":2796,"Ġbutter":2797,"Ġry":2798,"Ġgot":2799,"Ġwer":2800,"Ġlaz":2801,"Ġnet":2802,"Ġkur":2803,"otes":2804,"igger":2805,"ems":2806,"stone":2807,"iped":2808,"udes":2809,"Ġconn":2810,"asty":2811,"ikes":2812,"bert":2813,"Ġhoney":2814,"memes":2815,"lam":2816,"Ġiv":2817,"inator":2818,"Ġpac":2819,"Ġbuff":2820,"Ġmart":2821,"Ġrid":2822,"Ġhop":2823,"ela":2824,"Ġgent":2825,"Ġwalk":2826,"Ġlav":2827,"char":2828,"Ġns":2829,"Ġnav":2830,"abr":2831,"osed":2832,"ented":2833,"ira":2834,"irs":2835,"quest":2836,"Ġthey":2837,"Ġyee":2838,"eller":2839,"icky":2840,"anged":2841,"ighting":2842,"ylglut":2843,"Ġque":2844,"yyyyyy":2845,"Ġperf":2846,"iiiiiiiiiiiiiiiiiiiiiiiiiiiiiiiiiiiiiiiiiiiiiiiiiiiiiiiiiiiiiiiiiiiiiiiiiiiiiiiiiiiiiiiiiiiiiiiiiiiiiiiiiiiiiiiiiiiiiiiiiiiiiiiiiiiiiiiiiiiiiiiiiiiiiiiiiiiiiiiiiiiiiiiiiiiiiiiiiiiiiiiiiiiiiiiiiiiiiiiiiiiiiiiiiiiiiiiiiiiiiiiiiiiiiiiiiiiiiiiiiiiiiiiiiiiiiiii":2847,"ienc":2848,"ping":2849,"Ġeeee":2850,"anth":2851,"onia":2852,"Ġcub":2853,"Ġcov":2854,"aters":2855,"Ġbag":2856,"Ġmerc":2857,"Ġdd":2858,"Ġfull":2859,"Ġhob":2860,"Ġholl":2861,"acted":2862,"Ġloc":2863,"Ġvo":2864,"Ġof":2865,"iki":2866,"cover":2867,"di":2868,"oner":2869,"oning":2870,"alal":2871,"Ġpel":2872,"Ġbest":2873,"Ġfly":2874,"Ġfund":2875,"Ġfair":2876,"ury":2877,"Ġloo":2878,"Ġlol":2879,"ioned":2880,"rect":2881,"oto":2882,"Ġvar":2883,"Ġjam":2884,"istr":2885,"elli":2886,"ashi":2887,"Ġdragon":2888,"unction":2889,"Ġcapt":2890,"Ġultr":2891,"cd":2892,"yle":2893,"zen":2894,"Ġsle":2895,"Ġsay":2896,"esy":2897,"Ġpuss":2898,"Ġbil":2899,"Ġbef":2900,"Ġtel":2901,"Ġtol":2902,"Ġhipp":2903,"Ġhorr":2904,"unting":2905,"abe":2906,"Ġkw":2907,"igan":2908,"Ġjap":2909,"Ġshin":2910,"iber":2911,"Ġblow":2912,"okes":2913,"Ġplan":2914,"boards":2915,"inking":2916,"ipping":2917,"Ġbreath":2918,"Ġunderst":2919,"Ġafter":2920,"bol":2921,"cal":2922,"ging":2923,"lines":2924,"mn":2925,"rd":2926,"uer":2927,"Ġip":2928,"Ġide":2929,"Ġseg":2930,"Ġserv":2931,"Ġsoft":2932,"Ġcath":2933,"eeper":2934,"Ġbrain":2935,"itu":2936,"Ġwas":2937,"cha":2938,"chi":2939,"Ġnick":2940,"omes":2941,"Ġker":2942,"stand":2943,"alling":2944,"oooooooooooo":2945,"Ġquar":2946,"Ġsupers":2947,"Ġschw":2948,"Ġknow":2949,"but":2950,"dog":2951,"py":2952,"ten":2953,"uits":2954,"Ġcost":2955,"Ġbath":2956,"Ġtow":2957,"Ġfet":2958,"Ġharr":2959,"ador":2960,"Ġnam":2961,"Ġech":2962,"ume":2963,"ayed":2964,"threon":2965,"Ġsham":2966,"bled":2967,"Ġcount":2968,"Ġmark":2969,"count":2970,"aux":2971,"ounds":2972,"Ġauth":2973,"Ġbread":2974,"iece":2975,"lu":2976,"put":2977,"Ġcul":2978,"Ġcass":2979,"Ġpir":2980,"Ġmidd":2981,"ori":2982,"Ġdj":2983,"Ġdol":2984,"Ġdod":2985,"Ġty":2986,"Ġwin":2987,"ila":2988,"reh":2989,"Ġstup":2990,"Ġcheck":2991,"icked":2992,"asted":2993,"actic":2994,"rows":2995,"lessly":2996,"sky":2997,"ography":2998,"bh":2999,"bel":3000,"cats":3001,"Ġerr":3002,"Ġsent":3003,"Ġself":3004,"esis":3005,"onym":3006,"alized":3007,"Ġbill":3008,"Ġdun":3009,"Ġhang":3010,"chy":3011,"Ġnin":3012,"Ġnom":3013,"Ġken":3014,"ecr":3015,"Ġvel":3016,"Ġstor":3017,"ouses":3018,"Ġalex":3019,"ongs":3020,"anne":3021,"Ġperm":3022,"Ġprem":3023,"actor":3024,"Ġmeat":3025,"aptapt":3026,"Ġnorth":3027,"Ġsocial":3028,"hat":3029,"lee":3030,"name":3031,"word":3032,"Ġig":3033,"Ġaaaaaa":3034,"Ġsy":3035,"Ġcel":3036,"Ġciv":3037,"Ġcele":3038,"Ġmust":3039,"Ġdav":3040,"icles":3041,"Ġray":3042,"Ġvers":3043,"Ġvap":3044,"Ġvul":3045,"Ġvill":3046,"Ġsho":3047,"ellow":3048,"obic":3049,"ateg":3050,"ova":3051,"Ġcreep":3052,"Ġlet":3053,"ught":3054,"eeds":3055,"Ġxx":3056,"umble":3057,"ght":3058,"fulness":3059,"llllllll":3060,"Ġsurv":3061,"odododod":3062,"bc":3063,"ban":3064,"backs":3065,"mus":3066,"vin":3067,"wear":3068,"Ġsv":3069,"edit":3070,"Ġbug":3071,"Ġtax":3072,"Ġfig":3073,"Ġfood":3074,"Ġwild":3075,"rep":3076,"agger":3077,"ects":3078,"Ġvict":3079,"Ġunr":3080,"Ġjew":3081,"Ġstick":3082,"Ġstorm":3083,"Ġtherm":3084,"arted":3085,"Ġprinc":3086,"ssssss":3087,"ype":3088,"icals":3089,"Ġglob":3090,"Ġrecon":3091,"onds":3092,"bury":3093,"Ġhuman":3094,"gw":3095,"Ġuu":3096,"Ġih":3097,"inating":3098,"Ġcust":3099,"Ġpp":3100,"Ġpad":3101,"Ġpill":3102,"Ġbast":3103,"Ġmul":3104,"Ġduck":3105,"Ġtyr":3106,"Ġfall":3107,"Ġhan":3108,"Ġhaz":3109,"Ġlu":3110,"Ġliqu":3111,"Ġkick":3112,"ulating":3113,"Ġunst":3114,"Ġstud":3115,"Ġchoc":3116,"Ġrepl":3117,"ogh":3118,"iful":3119,"Ġtrip":3120,"ighted":3121,"Ġwholes":3122,"Ġflash":3123,"ehe":3124,"addy":3125,"eels":3126,"aaaaaaaaaaaaaaaaaaaaaaaaaaaaaaaaaaaaaaaaaaaaaaaaaaaaaaaaaaaaaaaaaaaaaaaaaaaaaaaaaaaaaaaaaaaaaaaaaaaaaaaaaaaaaaaaaaaaaaaaaaaaaaaaaaaaaaaaaaaaaaaaaaaaaaaaaaaaaaaaaaaaaaaaaaaaaaaaaaaaaaaaaaaaaaaaaaaaaaaaaaaaaaaaaaaaaaaaaaaaaaaaaaaaaaaaaaaaaaaaaaaaaaaaaaaaaaaa":3127,"Ġrandom":3128,"do":3129,"lich":3130,"mr":3131,"zh":3132,"Ġsuck":3133,"Ġce":3134,"alg":3135,"Ġbis":3136,"Ġmang":3137,"orc":3138,"Ġdoor":3139,"Ġroo":3140,"lean":3141,"Ġwash":3142,"amine":3143,"Ġka":3144,"Ġking":3145,"uma":3146,"Ġja":3147,"Ġtrad":3148,"ighter":3149,"aining":3150,"eads":3151,"Ġemp":3152,"Ġcolon":3153,"Ġomn":3154,"cut":3155,"ding":3156,"eur":3157,"gt":3158,"mate":3159,"oi":3160,"ois":3161,"pet":3162,"Ġsob":3163,"aaay":3164,"Ġcad":3165,"ooz":3166,"alo":3167,"Ġpiss":3168,"Ġrick":3169,"Ġgob":3170,"acs":3171,"Ġly":3172,"Ġkir":3173,"reck":3174,"Ġvide":3175,"ahl":3176,"Ġyou":3177,"uds":3178,"ibl":3179,"Ġcrack":3180,"Ġacqu":3181,"orms":3182,"Ġmcg":3183,"Ġappro":3184,"Ġautom":3185,"Ġhydro":3186,"ever":3187,"iod":3188,"just":3189,"mp":3190,"rad":3191,"rag":3192,"wo":3193,"ws":3194,"your":3195,"Ġii":3196,"aal":3197,"arily":3198,"Ġms":3199,"isf":3200,"Ġdry":3201,"Ġdeep":3202,"Ġtap":3203,"Ġtort":3204,"itude":3205,"Ġwel":3206,"Ġlac":3207,"Ġlip":3208,"Ġkor":3209,"Ġstock":3210,"izers":3211,"Ġgrad":3212,"ething":3213,"axx":3214,"anced":3215,"point":3216,"jjjjjjjjjjjjjjjjjjjjjjjjjjjjjjjj":3217,"ci":3218,"df":3219,"ech":3220,"law":3221,"lov":3222,"mas":3223,"uin":3224,"Ġack":3225,"Ġsr":3226,"eder":3227,"Ġpt":3228,"Ġpush":3229,"Ġbott":3230,"Ġtalk":3231,"Ġrip":3232,"Ġhh":3233,"ili":3234,"eta":3235,"Ġlap":3236,"Ġnow":3237,"Ġuncon":3238,"ipes":3239,"Ġtran":3240,"iko":3241,"Ġflav":3242,"Ġimper":3243,"bling":3244,"ether":3245,"itters":3246,"eeze":3247,"Ġesp":3248,"zzzzzzzz":3249,"aim":3250,"bad":3251,"eal":3252,"maker":3253,"oat":3254,"uing":3255,"uce":3256,"win":3257,"Ġsod":3258,"onom":3259,"enk":3260,"atively":3261,"eeth":3262,"Ġpath":3263,"Ġded":3264,"Ġdre":3265,"Ġdub":3266,"Ġdeh":3267,"Ġtab":3268,"Ġrig":3269,"asa":3270,"eler":3271,"Ġww":3272,"using":3273,"oli":3274,"lyl":3275,"Ġky":3276,"Ġjay":3277,"open":3278,"Ġthund":3279,"ieve":3280,"ibe":3281,"epl":3282,"Ġbrit":3283,"oodle":3284,"Ġclar":3285,"Ġameric":3286,"irect":3287,"Ġneigh":3288,"what":3289,"nnnnn":3290,"Ġelectr":3291,"dh":3292,"glyc":3293,"jf":3294,"Ġuh":3295,"Ġsouth":3296,"anic":3297,"Ġcunt":3298,"Ġpig":3299,"Ġbub":3300,"Ġbang":3301,"Ġbern":3302,"isole":3303,"Ġdin":3304,"Ġtut":3305,"Ġtick":3306,"Ġfal":3307,"Ġwak":3308,"osph":3309,"emb":3310,"Ġviv":3311,"owers":3312,"opes":3313,"Ġchill":3314,"Ġyour":3315,"asters":3316,"Ġprod":3317,"Ġcrypt":3318,"acher":3319,"ashed":3320,"Ġquadr":3321,"anned":3322,"bf":3323,"bear":3324,"mt":3325,"ui":3326,"wich":3327,"Ġost":3328,"Ġcob":3329,"Ġcult":3330,"Ġcurr":3331,"edr":3332,"Ġpse":3333,"Ġbah":3334,"Ġding":3335,"Ġtrav":3336,"Ġfw":3337,"eline":3338,"Ġwaaaa":3339,"Ġwonder":3340,"rous":3341,"Ġlin":3342,"Ġneed":3343,"osa":3344,"ota":3345,"essing":3346,"istan":3347,"Ġcha":3348,"eps":3349,"rrrrrrr":3350,"phen":3351,"Ġslow":3352,"Ġplat":3353,"block":3354,"proof":3355,"Ġskr":3356,"Ġcarn":3357,"Ġsmall":3358,"burn":3359,"Ġdesp":3360,"agged":3361,"Ġradi":3362,"Ġpleas":3363,"bird":3364,"col":3365,"eer":3366,"god":3367,"lord":3368,"nik":3369,"wy":3370,"yer":3371,"Ġens":3372,"erf":3373,"Ġsum":3374,"Ġsir":3375,"Ġcrow":3376,"oose":3377,"Ġpic":3378,"Ġpas":3379,"isch":3380,"oro":3381,"Ġtouch":3382,"Ġfour":3383,"Ġfarm":3384,"Ġhed":3385,"Ġhus":3386,"Ġwo":3387,"Ġnatur":3388,"iders":3389,"oted":3390,"imal":3391,"Ġvas":3392,"Ġvag":3393,"stein":3394,"Ġster":3395,"opper":3396,"ista":3397,"uded":3398,"Ġspir":3399,"obile":3400,"iance":3401,"ships":3402,"Ġcrim":3403,"achi":3404,"ached":3405,"Ġalb":3406,"apper":3407,"Ġany":3408,"Ġadm":3409,"Ġbeat":3410,"bbbb":3411,"Ġworld":3412,"aver":3413,"mates":3414,"vo":3415,"Ġell":3416,"Ġsev":3417,"alia":3418,"Ġterm":3419,"lel":3420,"Ġfast":3421,"Ġfix":3422,"eters":3423,"Ġneck":3424,"Ġko":3425,"Ġkay":3426,"Ġvacc":3427,"Ġodd":3428,"itten":3429,"Ġschm":3430,"Ġpreg":3431,"ailed":3432,"Ġiw":3433,"ything":3434,"log":3435,"lass":3436,"pen":3437,"ring":3438,"top":3439,"van":3440,"woman":3441,"ints":3442,"Ġsq":3443,"aaah":3444,"Ġcin":3445,"Ġbog":3446,"icing":3447,"Ġfing":3448,"Ġfol":3449,"Ġhat":3450,"amn":3451,"Ġnarc":3452,"uter":3453,"apes":3454,"Ġvand":3455,"aken":3456,"obe":3457,"Ġprost":3458,"acht":3459,"verse":3460,"opping":3461,"Ġattr":3462,"works":3463,"Ġmilk":3464,"Ġmusk":3465,"valyl":3466,"Ġorgan":3467,"cp":3468,"don":3469,"fall":3470,"mom":3471,"rat":3472,"rist":3473,"wise":3474,"ycl":3475,"Ġsudd":3476,"Ġcell":3477,"eny":3478,"Ġbush":3479,"Ġmys":3480,"Ġmatr":3481,"Ġdoll":3482,"Ġtang":3483,"Ġring":3484,"Ġretr":3485,"Ġhack":3486,"Ġhear":3487,"Ġgur":3488,"Ġgast":3489,"Ġwell":3490,"Ġwolf":3491,"urp":3492,"chool":3493,"Ġnap":3494,"Ġkle":3495,"Ġjud":3496,"isting":3497,"fff":3498,"Ġrein":3499,"aved":3500,"Ġfront":3501,"Ġplac":3502,"Ġsuperm":3503,"airs":3504,"oxic":3505,"burger":3506,"Ġopen":3507,"Ġground":3508,"Ġcircum":3509,"Ġpseud":3510,"des":3511,"lie":3512,"ran":3513,"sy":3514,"uation":3515,"uals":3516,"esus":3517,"Ġpand":3518,"Ġpip":3519,"oral":3520,"Ġdy":3521,"Ġdoo":3522,"Ġdad":3523,"Ġdup":3524,"Ġdud":3525,"Ġtin":3526,"Ġtog":3527,"Ġtatt":3528,"itas":3529,"Ġfab":3530,"Ġhill":3531,"unted":3532,"elp":3533,"Ġgi":3534,"Ġword":3535,"iler":3536,"uting":3537,"ecting":3538,"umin":3539,"tered":3540,"Ġaug":3541,"illo":3542,"ellig":3543,"ebl":3544,"ewor":3545,"ension":3546,"Ġbrand":3547,"afe":3548,"Ġdrag":3549,"Ġagg":3550,"heim":3551,"Ġcontin":3552,"iya":3553,"bn":3554,"lik":3555,"night":3556,"tv":3557,"tch":3558,"inity":3559,"Ġsuc":3560,"Ġsour":3561,"Ġsix":3562,"Ġpain":3563,"Ġbank":3564,"Ġboom":3565,"Ġbird":3566,"Ġmik":3567,"Ġtail":3568,"itc":3569,"ician":3570,"Ġhold":3571,"Ġharm":3572,"eland":3573,"Ġget":3574,"ady":3575,"Ġles":3576,"Ġlan":3577,"Ġling":3578,"Ġnit":3579,"iiiii":3580,"igo":3581,"ules":3582,"irds":3583,"emy":3584,"stick":3585,"Ġcher":3586,"Ġchap":3587,"Ġshm":3588,"Ġthw":3589,"Ġtru":3590,"Ġtruck":3591,"ploy":3592,"undund":3593,"ashes":3594,"Ġquick":3595,"Ġphen":3596,"Ġengl":3597,"Ġdrunk":3598,"ancer":3599,"ammed":3600,"Ġmean":3601,"fucker":3602,"unner":3603,"opped":3604,"prolyl":3605,"oints":3606,"threonyl":3607,"bed":3608,"bour":3609,"fh":3610,"hi":3611,"lab":3612,"mith":3613,"pit":3614,"pants":3615,"uo":3616,"Ġsant":3617,"Ġsaw":3618,"anim":3619,"arth":3620,"Ġbak":3621,"Ġmong":3622,"inging":3623,"isis":3624,"Ġdood":3625,"Ġrag":3626,"lew":3627,"Ġgon":3628,"aco":3629,"amar":3630,"Ġlook":3631,"omer":3632,"emia":3633,"ayay":3634,"Ġstre":3635,"aaaaaaaaaaaa":3636,"Ġchrom":3637,"occ":3638,"Ġsky":3639,"Ġparal":3640,"Ġxen":3641,"mmmmm":3642,"brbr":3643,"argin":3644,"Ġunders":3645,"Ġimmun":3646,"Ġcyber":3647,"oraoraoraora":3648,"isoleucyl":3649,"bu":3650,"bone":3651,"here":3652,"jk":3653,"lar":3654,"lim":3655,"md":3656,"Ġits":3657,"Ġsee":3658,"onc":3659,"ature":3660,"Ġpod":3661,"Ġbox":3662,"Ġtat":3663,"Ġriv":3664,"Ġright":3665,"Ġfee":3666,"Ġfox":3667,"Ġhaw":3668,"Ġgra":3669,"acing":3670,"uri":3671,"Ġlon":3672,"omas":3673,"Ġeas":3674,"Ġemm":3675,"ema":3676,"Ġvic":3677,"Ġunn":3678,"arded":3679,"Ġtrib":3680,"asting":3681,"ebook":3682,"Ġflor":3683,"appy":3684,"ashing":3685,"aft":3686,"yyyyyyy":3687,"Ġsweet":3688,"eeding":3689,"crip":3690,"olds":3691,"ppp":3692,"eeping":3693,"wwwww":3694,"Ġdepress":3695,"people":3696,"Ġmount":3697,"girls":3698,"aire":3699,"equ":3700,"fo":3701,"fol":3702,"lif":3703,"vy":3704,"Ġult":3705,"Ġcook":3706,"Ġdoom":3707,"Ġtok":3708,"Ġfra":3709,"Ġhamm":3710,"Ġgul":3711,"Ġnoc":3712,"olution":3713,"real":3714,"Ġunw":3715,"Ġjan":3716,"isted":3717,"thef":3718,"Ġsher":3719,"Ġshak":3720,"allly":3721,"Ġtrump":3722,"aven":3723,"anging":3724,"Ġalph":3725,"Ġimpl":3726,"Ġamaz":3727,"Ġcarr":3728,"Ġorth":3729,"lessness":3730,"Ġintern":3731,"spir":3732,"Ġdesc":3733,"Ġpoly":3734,"Ġirre":3735,"Ġentr":3736,"Ġgener":3737,"Ġturn":3738,"Ġmultip":3739,"Ġsilver":3740,"aminyl":3741,"Ġbirth":3742,"aq":3743,"cons":3744,"gun":3745,"gate":3746,"hr":3747,"hs":3748,"holes":3749,"ioc":3750,"kw":3751,"low":3752,"long":3753,"mi":3754,"oint":3755,"pers":3756,"ris":3757,"Ġcra":3758,"enf":3759,"aris":3760,"Ġpock":3761,"Ġbart":3762,"Ġbomb":3763,"Ġmain":3764,"Ġmyst":3765,"Ġdic":3766,"Ġdro":3767,"Ġtun":3768,"Ġtex":3769,"lement":3770,"Ġfuk":3771,"Ġhey":3772,"Ġgil":3773,"Ġwet":3774,"Ġwol":3775,"Ġwow":3776,"Ġwait":3777,"usting":3778,"amat":3779,"Ġlyn":3780,"rees":3781,"apy":3782,"opy":3783,"Ġchem":3784,"Ġthere":3785,"Ġspell":3786,"shire":3787,"eve":3788,"etty":3789,"Ġabr":3790,"ussy":3791,"unny":3792,"Ġcalc":3793,"Ġconserv":3794,"Ġhalf":3795,"Ġmurder":3796,"Ġdiffer":3797,"seryl":3798,"fu":3799,"hm":3800,"iad":3801,"len":3802,"pace":3803,"rim":3804,"sen":3805,"wing":3806,"Ġish":3807,"aria":3808,"Ġpix":3809,"Ġbic":3810,"Ġbos":3811,"Ġmous":3812,"Ġmans":3813,"Ġtay":3814,"Ġrer":3815,"Ġhad":3816,"Ġgoo":3817,"Ġgas":3818,"Ġgoog":3819,"Ġwid":3820,"etics":3821,"rov":3822,"check":3823,"omn":3824,"about":3825,"Ġej":3826,"idy":3827,"otr":3828,"otion":3829,"enting":3830,"igen":3831,"Ġunsh":3832,"Ġuncl":3833,"storm":3834,"Ġcham":3835,"Ġrequ":3836,"Ġaur":3837,"ardo":3838,"Ġtrash":3839,"assed":3840,"aving":3841,"Ġfresh":3842,"ahahaha":3843,"Ġgran":3844,"Ġdisapp":3845,"ortion":3846,"orse":3847,"Ġcoff":3848,"ectomy":3849,"kkk":3850,"Ġteam":3851,"Ġnever":3852,"ydr":3853,"agging":3854,"aspar":3855,"Ġmemor":3856,"bee":3857,"care":3858,"ming":3859,"ters":3860,"uan":3861,"Ġaaaaaaaaaaaaaaaa":3862,"Ġsick":3863,"Ġpon":3864,"Ġpizz":3865,"Ġbou":3866,"Ġmw":3867,"Ġmix":3868,"Ġdip":3869,"Ġdial":3870,"itus":3871,"iters":3872,"Ġround":3873,"lep":3874,"Ġfle":3875,"Ġfib":3876,"adi":3877,"Ġloooo":3878,"Ġlitt":3879,"olut":3880,"Ġeb":3881,"Ġkitt":3882,"emic":3883,"Ġchlor":3884,"them":3885,"things":3886,"odo":3887,"uda":3888,"eye":3889,"ocking":3890,"lesh":3891,"ynam":3892,"Ġphon":3893,"ypse":3894,"active":3895,"blems":3896,"Ġbuzz":3897,"Ġnews":3898,"know":3899,"Ġevery":3900,"craft":3901,"fil":3902,"jerk":3903,"lest":3904,"Ġorn":3905,"Ġsig":3906,"Ġsoul":3907,"Ġcup":3908,"enes":3909,"ativ":3910,"Ġmt":3911,"Ġmit":3912,"Ġmck":3913,"Ġmant":3914,"Ġmob":3915,"Ġdee":3916,"Ġdang":3917,"Ġdrop":3918,"icious":3919,"Ġflex":3920,"elo":3921,"Ġgy":3922,"Ġgaz":3923,"acting":3924,"urf":3925,"Ġkim":3926,"Ġkind":3927,"utch":3928,"enter":3929,"irst":3930,"Ġoper":3931,"Ġstop":3932,"istically":3933,"iiiiiiiiii":3934,"Ġpress":3935,"aching":3936,"Ġflu":3937,"boi":3938,"boys":3939,"etto":3940,"Ġsmok":3941,"cript":3942,"ector":3943,"Ġneut":3944,"Ġups":3945,"boxes":3946,"dick":3947,"eff":3948,"mc":3949,"mouth":3950,"ree":3951,"Ġik":3952,"Ġoth":3953,"Ġcash":3954,"edness":3955,"alf":3956,"alize":3957,"Ġmim":3958,"Ġmann":3959,"Ġmouth":3960,"Ġtan":3961,"itos":3962,"itim":3963,"leman":3964,"Ġferr":3965,"asia":3966,"Ġhip":3967,"Ġhog":3968,"untr":3969,"Ġgol":3970,"Ġgard":3971,"Ġgaw":3972,"Ġwt":3973,"Ġlor":3974,"Ġlub":3975,"Ġnd":3976,"iri":3977,"Ġincr":3978,"ayer":3979,"owski":3980,"Ġaj":3981,"uper":3982,"ubw":3983,"Ġyeee":3984,"Ġspe":3985,"ackers":3986,"ocked":3987,"Ġfruit":3988,"oods":3989,"zzz":3990,"Ġimagin":3991,"bound":3992,"ective":3993,"lete":3994,"Ġappar":3995,"Ġcolor":3996,"Ġmotor":3997,"bus":3998,"fly":3999,"get":4000,"nut":4001,"ru":4002,"wall":4003,"zing":4004,"Ġsud":4005,"anos":4006,"aat":4007,"Ġcd":4008,"Ġcs":4009,"Ġcord":4010,"enz":4011,"eech":4012,"oops":4013,"ede":4014,"alis":4015,"Ġbb":4016,"Ġbik":4017,"Ġdirt":4018,"icus":4019,"icid":4020,"icate":4021,"icated":4022,"Ġrow":4023,"Ġfart":4024,"Ġhil":4025,"Ġhug":4026,"Ġhost":4027,"unity":4028,"Ġwit":4029,"ilit":4030,"Ġner":4031,"Ġnag":4032,"Ġkan":4033,"Ġkre":4034,"Ġkarm":4035,"ulous":4036,"Ġjac":4037,"Ġjur":4038,"opia":4039,"Ġchur":4040,"Ġchron":4041,"Ġship":4042,"Ġsharp":4043,"Ġthor":4044,"Ġconstr":4045,"avers":4046,"Ġcrit":4047,"Ġdiscr":4048,"Ġquest":4049,"Ġabd":4050,"ission":4051,"Ġxxx":4052,"ailing":4053,"rome":4054,"Ġouts":4055,"lllll":4056,"Ġrespons":4057,"quaresquaresquaresquares":4058,"Ġshadow":4059,"core":4060,"gan":4061,"gonewild":4062,"ht":4063,"mes":4064,"ounc":4065,"pan":4066,"pop":4067,"rt":4068,"vi":4069,"wd":4070,"Ġuuuu":4071,"aas":4072,"onal":4073,"Ġpit":4074,"Ġpup":4075,"Ġpunch":4076,"Ġboog":4077,"inge":4078,"orous":4079,"Ġdal":4080,"Ġtall":4081,"Ġtown":4082,"icular":4083,"Ġratt":4084,"Ġgyn":4085,"Ġwoooo":4086,"Ġwarm":4087,"amas":4088,"ados":4089,"chem":4090,"Ġnu":4091,"ecks":4092,"ahahh":4093,"Ġstart":4094,"Ġthumb":4095,"ego":4096,"earch":4097,"Ġadj":4098,"othes":4099,"othing":4100,"Ġcoup":4101,"Ġpref":4102,"Ġorig":4103,"front":4104,"leton":4105,"Ġcompet":4106,"Ġincon":4107,"ttttt":4108,"bang":4109,"lav":4110,"mart":4111,"oons":4112,"pg":4113,"post":4114,"Ġard":4115,"Ġuk":4116,"innn":4117,"inct":4118,"Ġcit":4119,"aton":4120,"atly":4121,"arl":4122,"Ġpw":4123,"Ġpull":4124,"Ġbun":4125,"Ġbaaaa":4126,"Ġboob":4127,"Ġdow":4128,"Ġtext":4129,"Ġrum":4130,"Ġhap":4131,"Ġwy":4132,"Ġwif":4133,"Ġwik":4134,"uro":4135,"urst":4136,"eto":4137,"roy":4138,"rough":4139,"Ġlic":4140,"Ġkab":4141,"ulates":4142,"emen":4143,"Ġvl":4144,"Ġverb":4145,"Ġchew":4146,"anted":4147,"Ġreall":4148,"Ġyeeee":4149,"udge":4150,"Ġconvers":4151,"aste":4152,"ega":4153,"shop":4154,"eared":4155,"Ġcarm":4156,"Ġprep":4157,"amming":4158,"brush":4159,"offs":4160,"Ġopt":4161,"guard":4162,"aspart":4163,"Ġstraight":4164,"glycyl":4165,"aqu":4166,"myg":4167,"wind":4168,"yx":4169,"Ġord":4170,"inates":4171,"Ġsof":4172,"oney":4173,"onian":4174,"atat":4175,"Ġpink":4176,"Ġdum":4177,"Ġderm":4178,"Ġtid":4179,"itan":4180,"Ġru":4181,"Ġrar":4182,"Ġric":4183,"Ġraw":4184,"Ġfu":4185,"Ġhen":4186,"Ġherb":4187,"elin":4188,"Ġgrow":4189,"Ġwis":4190,"Ġwarr":4191,"amy":4192,"etly":4193,"etry":4194,"Ġlen":4195,"Ġlist":4196,"Ġlind":4197,"Ġliter":4198,"ulator":4199,"esss":4200,"Ġog":4201,"Ġinj":4202,"Ġjer":4203,"Ġjerk":4204,"stop":4205,"Ġstal":4206,"Ġshre":4207,"Ġspin":4208,"eeeeeeeeee":4209,"anga":4210,"Ġprogr":4211,"Ġfluff":4212,"ahahahh":4213,"Ġbrut":4214,"aze":4215,"anny":4216,"club":4217,"ccc":4218,"Ġoverd":4219,"graph":4220,"Ġsubt":4221,"coat":4222,"Ġsequ":4223,"ippy":4224,"itches":4225,"Ġminim":4226,"Ġactiv":4227,"Ġpepper":4228,"bas":4229,"card":4230,"hoo":4231,"oan":4232,"oil":4233,"person":4234,"ram":4235,"wards":4236,"Ġaaa":4237,"inch":4238,"Ġset":4239,"Ġsss":4240,"Ġcold":4241,"Ġcert":4242,"atically":4243,"oobs":4244,"alog":4245,"Ġbass":4246,"Ġmaint":4247,"Ġdank":4248,"itable":4249,"icide":4250,"Ġhas":4251,"Ġwing":4252,"usa":4253,"amyl":4254,"Ġlie":4255,"cht":4256,"oses":4257,"Ġkap":4258,"Ġkak":4259,"idly":4260,"aping":4261,"Ġvin":4262,"Ġviol":4263,"Ġjh":4264,"Ġjun":4265,"Ġjul":4266,"this":4267,"izard":4268,"Ġthank":4269,"very":4270,"tsh":4271,"ishly":4272,"egu":4273,"plan":4274,"Ġflam":4275,"Ġbron":4276,"Ġgramm":4277,"ooooooooo":4278,"yne":4279,"earing":4280,"uki":4281,"Ġovert":4282,"Ġsubst":4283,"inning":4284,"ippers":4285,"Ġmisc":4286,"Ġiam":4287,"Ġghost":4288,"Ġgodd":4289,"vvvv":4290,"Ġcycl":4291,"books":4292,"cam":4293,"fc":4294,"han":4295,"kj":4296,"kes":4297,"kill":4298,"lies":4299,"ni":4300,"oed":4301,"oqu":4302,"vis":4303,"Ġist":4304,"eries":4305,"Ġsund":4306,"Ġsome":4307,"atable":4308,"Ġpack":4309,"Ġbiz":4310,"Ġmoh":4311,"Ġmamm":4312,"Ġtl":4313,"Ġtent":4314,"Ġtour":4315,"ici":4316,"ication":4317,"lele":4318,"Ġfound":4319,"Ġfinger":4320,"Ġhes":4321,"Ġhex":4322,"elop":4323,"etically":4324,"Ġlak":4325,"Ġlunch":4326,"Ġlux":4327,"Ġnev":4328,"omin":4329,"ometr":4330,"omorph":4331,"idi":4332,"irus":4333,"ahd":4334,"Ġincl":4335,"Ġstink":4336,"opic":4337,"Ġchuck":4338,"thew":4339,"anting":4340,"eball":4341,"Ġscre":4342,"athers":4343,"acha":4344,"Ġpharm":4345,"ologically":4346,"free":4347,"iums":4348,"Ġpolit":4349,"Ġautoc":4350,"Ġoptim":4351,"Ġfrost":4352,"bit":4353,"butt":4354,"cg":4355,"fp":4356,"kl":4357,"kers":4358,"kind":4359,"mal":4360,"most":4361,"nh":4362,"pd":4363,"pin":4364,"pad":4365,"sn":4366,"Ġsept":4367,"aad":4368,"Ġpis":4369,"Ġpupp":4370,"Ġbend":4371,"Ġbio":4372,"Ġbudd":4373,"Ġmmm":4374,"orted":4375,"Ġdent":4376,"Ġdew":4377,"Ġtod":4378,"Ġfak":4379,"Ġfoll":4380,"Ġhr":4381,"Ġnik":4382,"ols":4383,"abi":4384,"Ġkaz":4385,"ulations":4386,"emes":4387,"Ġjen":4388,"ston":4389,"Ġchang":4390,"Ġshot":4391,"ifi":4392,"Ġyak":4393,"Ġspark":4394,"Ġcring":4395,"Ġleft":4396,"apple":4397,"Ġsnap":4398,"Ġschn":4399,"Ġstrang":4400,"Ġmeow":4401,"gler":4402,"ength":4403,"irls":4404,"eese":4405,"problems":4406,"Ġedg":4407,"Ġmoist":4408,"iety":4409,"iacs":4410,"rrrrrrrrrrrrrrrrrrrrrrrrrrrrrrrr":4411,"cor":4412,"gal":4413,"iatr":4414,"oun":4415,"vel":4416,"errr":4417,"ince":4418,"eeks":4419,"Ġpag":4420,"Ġpict":4421,"Ġbust":4422,"Ġdash":4423,"Ġtee":4424,"Ġtroll":4425,"itated":4426,"icip":4427,"Ġrog":4428,"leys":4429,"Ġhund":4430,"Ġgs":4431,"chn":4432,"Ġecon":4433,"imate":4434,"ecl":4435,"ections":4436,"Ġvert":4437,"Ġung":4438,"Ġuncom":4439,"Ġinstr":4440,"Ġincomp":4441,"Ġjump":4442,"Ġreass":4443,"Ġregr":4444,"tering":4445,"Ġaus":4446,"Ġthink":4447,"Ġyear":4448,"ibles":4449,"Ġconj":4450,"show":4451,"shots":4452,"Ġexec":4453,"Ġexist":4454,"ucle":4455,"Ġscreen":4456,"Ġcru":4457,"Ġclos":4458,"Ġclick":4459,"orns":4460,"Ġdriv":4461,"uke":4462,"enny":4463,"Ġhealth":4464,"Ġmoney":4465,"ields":4466,"oppers":4467,"uctive":4468,"onkey":4469,"Ġsusp":4470,"coolcool":4471,"phenylalanyl":4472,"bags":4473,"cing":4474,"gin":4475,"mind":4476,"pass":4477,"rich":4478,"so":4479,"wave":4480,"zi":4481,"Ġiz":4482,"Ġille":4483,"Ġpom":4484,"Ġpik":4485,"Ġbing":4486,"Ġmatt":4487,"Ġdn":4488,"Ġtt":4489,"Ġtight":4490,"Ġtrain":4491,"Ġtales":4492,"iit":4493,"Ġfist":4494,"Ġfact":4495,"Ġfore":4496,"Ġgab":4497,"Ġgerm":4498,"Ġgym":4499,"aca":4500,"Ġlg":4501,"Ġlum":4502,"abar":4503,"osaurus":4504,"Ġkon":4505,"Ġkol":4506,"irts":4507,"Ġvi":4508,"Ġshl":4509,"rax":4510,"eeeeeeeee":4511,"ebe":4512,"Ġexcl":4513,"Ġblock":4514,"Ġfranc":4515,"Ġark":4516,"Ġanc":4517,"oooooooooooooo":4518,"ehr":4519,"Ġquant":4520,"rying":4521,"hhhhhhhhh":4522,"Ġswitch":4523,"irec":4524,"Ġasc":4525,"Ġteen":4526,"inner":4527,"ihil":4528,"force":4529,"Ġbroad":4530,"Ġgroup":4531,"ssssssssssssssssssssssssssssssss":4532,"arginyl":4533,"asparagin":4534,"bie":4535,"ded":4536,"door":4537,"fig":4538,"food":4539,"joy":4540,"mag":4541,"nuts":4542,"vr":4543,"words":4544,"zu":4545,"Ġich":4546,"onics":4547,"Ġbud":4548,"Ġbew":4549,"Ġmun":4550,"Ġmap":4551,"Ġmell":4552,"Ġmush":4553,"Ġdob":4554,"Ġdraw":4555,"Ġtend":4556,"Ġtooth":4557,"itate":4558,"itors":4559,"icity":4560,"Ġrol":4561,"Ġroy":4562,"Ġfoo":4563,"Ġful":4564,"Ġfasc":4565,"aser":4566,"Ġhun":4567,"Ġges":4568,"Ġgem":4569,"Ġgiv":4570,"Ġgover":4571,"actions":4572,"rof":4573,"Ġlot":4574,"chat":4575,"Ġnerd":4576,"Ġkah":4577,"Ġoz":4578,"Ġchim":4579,"aku":4580,"quer":4581,"Ġrever":4582,"Ġthing":4583,"Ġthunder":4584,"Ġyam":4585,"arding":4586,"Ġproph":4587,"Ġbrick":4588,"oured":4589,"Ġlex":4590,"phone":4591,"berries":4592,"afuck":4593,"Ġcoh":4594,"ancing":4595,"Ġstrong":4596,"igned":4597,"eepers":4598,"where":4599,"Ġinters":4600,"Ġatl":4601,"Ġburn":4602,"Ġinform":4603,"gggggggg":4604,"Ġlaugh":4605,"Ġspecial":4606,"roduc":4607,"Ġsteam":4608,"layer":4609,"Ġcelebr":4610,"Ġwholesom":4611,"dale":4612,"good":4613,"hd":4614,"kay":4615,"mb":4616,"ray":4617,"talk":4618,"will":4619,"wolf":4620,"Ġuc":4621,"Ġiss":4622,"Ġoooooo":4623,"aaaw":4624,"Ġcatch":4625,"atu":4626,"Ġbant":4627,"Ġbib":4628,"Ġbanan":4629,"Ġmatch":4630,"Ġmyc":4631,"isers":4632,"Ġtetr":4633,"icial":4634,"Ġft":4635,"Ġfit":4636,"Ġfest":4637,"Ġgott":4638,"Ġweed":4639,"ilic":4640,"Ġlil":4641,"Ġlag":4642,"abol":4643,"iden":4644,"otyp":4645,"ention":4646,"eco":4647,"Ġvibr":4648,"Ġinex":4649,"sts":4650,"izations":4651,"uba":4652,"rains":4653,"illian":4654,"iano":4655,"Ġtric":4656,"ishness":4657,"Ġscal":4658,"athe":4659,"efor":4660,"oka":4661,"ortun":4662,"atta":4663,"even":4664,"azing":4665,"uka":4666,"inked":4667,"ymph":4668,"Ġheav":4669,"umping":4670,"uhr":4671,"escent":4672,"Ġident":4673,"ystem":4674,"Ġinvest":4675,"pression":4676,"aoao":4677,"Ġfamil":4678,"Ġmaxim":4679,"enstein":4680,"Ġauthor":4681,"fg":4682,"fy":4683,"iing":4684,"iah":4685,"kf":4686,"lins":4687,"nam":4688,"pi":4689,"sed":4690,"warm":4691,"inas":4692,"inary":4693,"Ġsou":4694,"Ġcraz":4695,"arians":4696,"Ġpaw":4697,"Ġpont":4698,"Ġpetr":4699,"Ġbum":4700,"Ġbrown":4701,"Ġmall":4702,"Ġmend":4703,"Ġmish":4704,"Ġmater":4705,"Ġmuth":4706,"isa":4707,"orf":4708,"Ġdust":4709,"Ġtoo":4710,"Ġtip":4711,"Ġtenn":4712,"itating":4713,"Ġrod":4714,"Ġruss":4715,"Ġfinn":4716,"Ġfunk":4717,"Ġfeel":4718,"Ġheeee":4719,"elia":4720,"Ġweek":4721,"Ġlee":4722,"Ġlun":4723,"Ġluck":4724,"charg":4725,"Ġnas":4726,"rex":4727,"otom":4728,"ague":4729,"essor":4730,"Ġjav":4731,"Ġston":4732,"Ġstro":4733,"Ġstyl":4734,"Ġcho":4735,"Ġchip":4736,"Ġaft":4737,"ibil":4738,"oco":4739,"arty":4740,"ework":4741,"Ġcrunch":4742,"Ġalc":4743,"iere":4744,"Ġadmin":4745,"inkle":4746,"uffs":4747,"Ġbeaut":4748,"erty":4749,"ooms":4750,"bridge":4751,"Ġinterr":4752,"Ġsever":4753,"ghgh":4754,"Ġappl":4755,"Ġuw":4756,"Ġtheor":4757,"Ġmusc":4758,"Ġyoung":4759,"eas":4760,"gd":4761,"gro":4762,"gifs":4763,"har":4764,"iates":4765,"mor":4766,"mil":4767,"oug":4768,"pat":4769,"uary":4770,"yan":4771,"Ġud":4772,"Ġsap":4773,"Ġsyl":4774,"Ġsong":4775,"eeing":4776,"alizing":4777,"alities":4778,"Ġpall":4779,"Ġbigg":4780,"Ġminn":4781,"isions":4782,"Ġdaw":4783,"Ġdogg":4784,"Ġrud":4785,"leh":4786,"Ġht":4787,"Ġhw":4788,"aaaaay":4789,"acon":4790,"Ġwaa":4791,"Ġwitch":4792,"usts":4793,"Ġlou":4794,"Ġlaur":4795,"olt":4796,"omic":4797,"ometer":4798,"abor":4799,"lyn":4800,"osing":4801,"Ġew":4802,"idity":4803,"agers":4804,"again":4805,"entr":4806,"enty":4807,"Ġvil":4808,"Ġoce":4809,"Ġunsp":4810,"Ġjon":4811,"Ġjess":4812,"Ġjenn":4813,"Ġjizz":4814,"Ġjourn":4815,"oping":4816,"opter":4817,"quis":4818,"Ġthes":4819,"Ġthis":4820,"Ġthrow":4821,"ibut":4822,"Ġzh":4823,"Ġwhate":4824,"ensive":4825,"Ġcred":4826,"Ġlem":4827,"Ġlearn":4828,"onger":4829,"boat":4830,"Ġaccom":4831,"hhhhhhhhhh":4832,"class":4833,"Ġmarsh":4834,"Ġparad":4835,"aired":4836,"encies":4837,"beard":4838,"ottom":4839,"Ġtransl":4840,"utters":4841,"Ġmorg":4842,"Ġspring":4843,"loads":4844,"Ġbattle":4845,"oooooooooooooooooooooooooooooooooooooooooooooooooooooooooooooooo":4846,"Ġanthrop":4847,"ubwubw":4848,"bg":4849,"bal":4850,"case":4851,"gard":4852,"ground":4853,"jobs":4854,"kas":4855,"lish":4856,"mic":4857,"nf":4858,"pm":4859,"pool":4860,"run":4861,"xy":4862,"yss":4863,"zed":4864,"erp":4865,"esn":4866,"Ġcuck":4867,"enic":4868,"eded":4869,"Ġpav":4870,"Ġboss":4871,"Ġbody":4872,"Ġmaa":4873,"Ġdm":4874,"Ġtir":4875,"Ġtant":4876,"Ġraz":4877,"Ġfed":4878,"Ġhod":4879,"Ġhep":4880,"Ġgan":4881,"Ġwish":4882,"Ġwank":4883,"Ġwigg":4884,"user":4885,"uru":4886,"Ġlord":4887,"oly":4888,"abo":4889,"oting":4890,"otch":4891,"ulus":4892,"Ġvit":4893,"Ġvig":4894,"Ġunivers":4895,"ahu":4896,"Ġinit":4897,"Ġjar":4898,"Ġjab":4899,"anding":4900,"anders":4901,"Ġchat":4902,"Ġrele":4903,"Ġrepr":4904,"Ġafr":4905,"Ġspect":4906,"ellers":4907,"ocial":4908,"astr":4909,"ighth":4910,"iks":4911,"Ġblind":4912,"ewh":4913,"Ġwher":4914,"Ġwheel":4915,"Ġgrim":4916,"appers":4917,"Ġquint":4918,"ryp":4919,"ofl":4920,"uuuuuuuuuu":4921,"Ġglass":4922,"Ġresh":4923,"gery":4924,"ophilia":4925,"ycle":4926,"immer":4927,"onna":4928,"Ġclear":4929,"Ġnutr":4930,"cel":4931,"cock":4932,"dm":4933,"liest":4934,"pc":4935,"pn":4936,"qs":4937,"ti":4938,"uate":4939,"women":4940,"inations":4941,"Ġsit":4942,"Ġsag":4943,"Ġsuuuu":4944,"Ġseb":4945,"Ġsadd":4946,"Ġcatt":4947,"enw":4948,"Ġpf":4949,"Ġpi":4950,"Ġpend":4951,"Ġpne":4952,"Ġbaj":4953,"Ġbald":4954,"Ġmull":4955,"oria":4956,"Ġdunk":4957,"Ġtoy":4958,"Ġfuuuu":4959,"Ġfind":4960,"Ġfunn":4961,"Ġwed":4962,"Ġwack":4963,"usted":4964,"amen":4965,"etes":4966,"Ġnak":4967,"olin":4968,"omo":4969,"omat":4970,"emi":4971,"Ġvr":4972,"Ġvoc":4973,"Ġjet":4974,"Ġjos":4975,"owow":4976,"Ġaustr":4977,"ublic":4978,"alla":4979,"Ġsports":4980,"eyes":4981,"Ġcongr":4982,"epend":4983,"asta":4984,"ebox":4985,"Ġze":4986,"Ġblank":4987,"aths":4988,"ourt":4989,"tte":4990,"ehead":4991,"oking":4992,"Ġplant":4993,"Ġqual":4994,"ethe":4995,"mental":4996,"anner":4997,"Ġmarg":4998,"Ġoverh":4999,"activ":5000,"Ġmeas":5001,"Ġantiv":5002,"Ġmonst":5003,"nnnnnn":5004,"Ġweird":5005,"Ġmetal":5006,"Ġcommun":5007,"Ġsalt":5008,"posed":5009,"Ġturb":5010,"tttttttt":5011,"Ġfreak":5012,"Ġexplain":5013,"aught":5014,"rafts":5015,"ocalypse":5016,"uuuuuuuuuuuuuuuuuuuuuuuuuuuuuuuuuuuuuuuuuuuuuuuuuuuuuuuuuuuuuuuu":5017,"uberuberuberuberuberuberuberuber":5018,"ylglutaminyl":5019,"houses":5020,"jr":5021,"jw":5022,"lon":5023,"mod":5024,"making":5025,"nit":5026,"qq":5027,"tons":5028,"wan":5029,"zilla":5030,"Ġatr":5031,"errrr":5032,"inv":5033,"Ġcumm":5034,"eeps":5035,"ooper":5036,"Ġpu":5037,"Ġpopp":5038,"Ġbaa":5039,"Ġboooo":5040,"Ġbund":5041,"Ġbach":5042,"Ġbaz":5043,"Ġmex":5044,"Ġmond":5045,"order":5046,"Ġdidd":5047,"Ġtb":5048,"Ġfog":5049,"Ġhag":5050,"Ġhash":5051,"Ġhook":5052,"eli":5053,"Ġwom":5054,"Ġwinn":5055,"Ġwinter":5056,"amus":5057,"Ġlur":5058,"Ġlitter":5059,"chch":5060,"Ġneb":5061,"Ġnons":5062,"Ġkin":5063,"iga":5064,"iman":5065,"iring":5066,"Ġverm":5067,"Ġuntr":5068,"Ġjob":5069,"Ġstay":5070,"Ġtheb":5071,"Ġtri":5072,"asse":5073,"ishment":5074,"oves":5075,"Ġdisg":5076,"Ġcomment":5077,"evil":5078,"Ġamph":5079,"bler":5080,"Ġadvent":5081,"Ġsneak":5082,"anning":5083,"isse":5084,"ither":5085,"ohn":5086,"ontin":5087,"olding":5088,"Ġglut":5089,"Ġstrat":5090,"igns":5091,"iffs":5092,"Ġbarn":5093,"Ġautob":5094,"unning":5095,"Ġdepend":5096,"Ġiron":5097,"conn":5098,"Ġgreat":5099,"Ġobject":5100,"prod":5101,"rained":5102,"ggggg":5103,"Ġmedic":5104,"organ":5105,"iiiiiii":5106,"locks":5107,"Ġembarr":5108,"Ġpublic":5109,"Ġsacr":5110,"Ġfantas":5111,"aan":5112,"body":5113,"cos":5114,"cap":5115,"dad":5116,"hn":5117,"lights":5118,"pol":5119,"uar":5120,"wal":5121,"erry":5122,"inis":5123,"esia":5124,"atives":5125,"aroo":5126,"Ġpadd":5127,"Ġbaw":5128,"Ġbark":5129,"Ġbung":5130,"Ġmn":5131,"Ġmoooo":5132,"Ġmaz":5133,"orting":5134,"Ġdonn":5135,"Ġtac":5136,"Ġtear":5137,"Ġrd":5138,"Ġroom":5139,"Ġrestr":5140,"Ġfals":5141,"Ġfert":5142,"Ġhaa":5143,"Ġhaaaa":5144,"Ġhoooo":5145,"Ġhij":5146,"Ġgest":5147,"acle":5148,"Ġwear":5149,"amon":5150,"etter":5151,"Ġlm":5152,"osoph":5153,"Ġkom":5154,"Ġkiss":5155,"utz":5156,"ente":5157,"ecraft":5158,"esser":5159,"Ġjoy":5160,"iva":5161,"Ġstill":5162,"oper":5163,"isth":5164,"isters":5165,"anded":5166,"Ġthre":5167,"ifting":5168,"ifier":5169,"Ġsport":5170,"Ġconce":5171,"ickers":5172,"Ġtry":5173,"Ġtree":5174,"ucked":5175,"Ġwhor":5176,"place":5177,"Ġalg":5178,"Ġphill":5179,"after":5180,"Ġperp":5181,"ologies":5182,"Ġparas":5183,"uuuuuuuuuuuu":5184,"Ġstreet":5185,"enced":5186,"ajaj":5187,"ussed":5188,"Ġintens":5189,"Ġupd":5190,"Ġevent":5191,"Ġincons":5192,"ugged":5193,"Ġpeac":5194,"Ġclean":5195,"ircle":5196,"rooms":5197,"adadadad":5198,"Ġjohn":5199,"Ġelectro":5200,"ael":5201,"code":5202,"ei":5203,"fin":5204,"fight":5205,"hard":5206,"liness":5207,"pal":5208,"points":5209,"tob":5210,"wee":5211,"xs":5212,"zn":5213,"zone":5214,"Ġoooooooo":5215,"eria":5216,"Ġsah":5217,"Ġsoph":5218,"annn":5219,"eners":5220,"atio":5221,"aru":5222,"ario":5223,"alot":5224,"Ġpier":5225,"Ġbev":5226,"Ġbrom":5227,"Ġbamb":5228,"Ġml":5229,"Ġmail":5230,"Ġmuh":5231,"Ġmunch":5232,"orth":5233,"Ġds":5234,"Ġtd":5235,"iton":5236,"itut":5237,"Ġris":5238,"Ġrib":5239,"Ġrust":5240,"Ġrect":5241,"leigh":5242,"Ġfors":5243,"Ġhood":5244,"Ġhome":5245,"elon":5246,"Ġgat":5247,"Ġgel":5248,"Ġwaff":5249,"Ġwtf":5250,"usions":5251,"amic":5252,"etime":5253,"rote":5254,"adv":5255,"chick":5256,"Ġnarr":5257,"lying":5258,"osaur":5259,"Ġket":5260,"umn":5261,"iron":5262,"emt":5263,"Ġvid":5264,"Ġverd":5265,"Ġvirt":5266,"Ġunch":5267,"owl":5268,"sticks":5269,"Ġsteel":5270,"cks":5271,"esters":5272,"Ġchamp":5273,"Ġshop":5274,"Ġshower":5275,"iper":5276,"ogy":5277,"uph":5278,"Ġthick":5279,"Ġthread":5280,"uding":5281,"ousness":5282,"Ġsperm":5283,"ocon":5284,"Ġscand":5285,"oven":5286,"Ġpract":5287,"Ġcrap":5288,"Ġfloor":5289,"Ġfrat":5290,"Ġfrench":5291,"Ġlew":5292,"oku":5293,"pert":5294,"Ġslav":5295,"atty":5296,"Ġphant":5297,"Ġsuppos":5298,"Ġcarb":5299,"Ġpert":5300,"ohoh":5301,"eeded":5302,"onte":5303,"Ġprev":5304,"uffin":5305,"atcher":5306,"atched":5307,"Ġmcm":5308,"Ġinterc":5309,"Ġpolic":5310,"iggle":5311,"ytes":5312,"itioned":5313,"itional":5314,"ifications":5315,"uddy":5316,"Ġhands":5317,"Ġital":5318,"ephal":5319,"Ġmasturb":5320,"friends":5321,"xdxd":5322,"iiiiiiiiiiiiiiiiiiiiiiiiiiiiiiiiiiiiiiiiiiiiiiiiiiiiiiiiiiiiiiiiiiiiiiiiiiiiiiiiiiiiiiiiiiiiiiiiiiiiiiiiiiiiiiiiiiiiiiiiiiiiiiiiiiiiiiiiiiiiiiiiiiiiiiiiiiiiiiiiiiiiiiiiiiiiiiiiiiiiiiiiiiiiiiiiiiiiiiiiiiiiiiiiiiiiiiiiiiiiiiiiiiiiiiiiiiiiiiiiiiiiiiiiiiiiiiiiiiiiiiiiiiiiiiiiiiiiiiiiiiiiiiiiiiiiiiiiiiiiiiiiiiiiiiiiiiiiiiiiiiiiiiiiiiiiiiiiiiiiiiiiiiiiiiiiiiiiiiiiiiiiiiiiiiiiiiiiiiiiiiiiiiiiiiiiiiiiiiiiiiiiiiiiiiiiiiiiiiiiiiiiiiiiiiiiiiiiiiiiiiiiiiiiiiiiiiiiiiiiiiiiiiiiiiiiiiiiiiiiiiiiiiiiiiiiiiiiiiiiiiiiiiiiiiii":5323,"bat":5324,"cm":5325,"fit":5326,"iens":5327,"jay":5328,"lf":5329,"mother":5330,"news":5331,"oids":5332,"pre":5333,"pack":5334,"web":5335,"xt":5336,"yll":5337,"zel":5338,"eri":5339,"eres":5340,"iners":5341,"Ġsang":5342,"Ġcir":5343,"Ġcort":5344,"Ġcanc":5345,"Ġcraw":5346,"arly":5347,"arks":5348,"edy":5349,"Ġpec":5350,"Ġbc":5351,"Ġbuk":5352,"Ġbeck":5353,"Ġbunn":5354,"Ġbagg":5355,"Ġmorr":5356,"Ġmyth":5357,"ingo":5358,"isl":5359,"Ġdab":5360,"Ġdont":5361,"Ġdadd":5362,"Ġdetr":5363,"Ġtast":5364,"Ġtool":5365,"Ġtamp":5366,"icted":5367,"Ġfaaaa":5368,"Ġfug":5369,"Ġfill":5370,"Ġhul":5371,"Ġhub":5372,"Ġhind":5373,"Ġheck":5374,"Ġgerman":5375,"Ġwir":5376,"Ġwast":5377,"roke":5378,"Ġlact":5379,"Ġlamb":5380,"cho":5381,"chron":5382,"Ġnah":5383,"Ġnaz":5384,"reak":5385,"uta":5386,"otted":5387,"sth":5388,"ivid":5389,"opt":5390,"akk":5391,"Ġshel":5392,"Ġrej":5393,"Ġreen":5394,"ationally":5395,"ogo":5396,"ibg":5397,"Ġspoon":5398,"obl":5399,"assing":5400,"Ġwhist":5401,"Ġprior":5402,"pled":5403,"Ġfried":5404,"Ġbrig":5405,"Ġars":5406,"Ġarth":5407,"efr":5408,"appro":5409,"oked":5410,"Ġplag":5411,"ichi":5412,"inky":5413,"grand":5414,"erton":5415,"ammy":5416,"enne":5417,"ungs":5418,"umped":5419,"ussion":5420,"ooping":5421,"xxx":5422,"tyros":5423,"Ġenth":5424,"Ġgeneral":5425,"Ġmorph":5426,"Ġrefer":5427,"Ġgeorg":5428,"Ġsecret":5429,"Ġcheer":5430,"Ġcheap":5431,"Ġutil":5432,"olololol":5433,"Ġtotally":5434,"lette":5435,"Ġmechan":5436,"udamudamudamudamudamudamudamudam":5437,"Ġtalesfrom":5438,"aug":5439,"birds":5440,"eing":5441,"fan":5442,"look":5443,"mit":5444,"neck":5445,"oir":5446,"pain":5447,"rin":5448,"Ġsyr":5449,"anas":5450,"aam":5451,"atus":5452,"atics":5453,"arb":5454,"arf":5455,"eda":5456,"Ġpaul":5457,"Ġbin":5458,"Ġmd":5459,"Ġmord":5460,"Ġmcl":5461,"Ġmild":5462,"Ġmadd":5463,"ingle":5464,"Ġdoof":5465,"Ġreeee":5466,"Ġrail":5467,"Ġfif":5468,"Ġhobb":5469,"Ġgoos":5470,"acies":5471,"Ġwould":5472,"usk":5473,"ilder":5474,"url":5475,"amps":5476,"adian":5477,"Ġlod":5478,"Ġloos":5479,"olas":5480,"aboo":5481,"oster":5482,"Ġkas":5483,"iday":5484,"agi":5485,"imo":5486,"stuff":5487,"Ġstev":5488,"andy":5489,"esty":5490,"aaaaaaaaa":5491,"Ġchic":5492,"Ġaver":5493,"Ġaww":5494,"oda":5495,"ubber":5496,"iiiiiiiiiiii":5497,"Ġconspir":5498,"eeeeeeeeeee":5499,"isha":5500,"Ġwhoo":5501,"ovich":5502,"Ġcry":5503,"Ġflow":5504,"Ġarb":5505,"Ġgrap":5506,"Ġimpr":5507,"inda":5508,"Ġsketch":5509,"Ġcover":5510,"Ġdrug":5511,"owns":5512,"Ġoverex":5513,"Ġparam":5514,"Ġembar":5515,"Ġrecogn":5516,"Ġresc":5517,"ledge":5518,"ulture":5519,"auce":5520,"otto":5521,"Ġapolog":5522,"ooped":5523,"nnnnnnn":5524,"lander":5525,"Ġdefin":5526,"Ġbreast":5527,"Ġboard":5528,"Ġburg":5529,"oughts":5530,"Ġcoron":5531,"Ġaccident":5532,"Ġidi":5533,"iently":5534,"Ġimmed":5535,"Ġmegal":5536,"pressed":5537,"Ġangel":5538,"ucci":5539,"Ġmodern":5540,"Ġostr":5541,"Ġpoint":5542,"Ġoverst":5543,"Ġsauc":5544,"Ġdomin":5545,"eheheheh":5546,"cccccccc":5547,"eeeeeeeeeeeeeeeeeeeeeeeeeeeeeeeeeeeeeeeeeeeeeeeeeeeeeeeeeeeeeeeeeeeeeeeeeeeeeeeeeeeeeeeeeeeeeeeeeeeeeeeeeeeeeeeeeeeeeeeeeeeeeeeeeeeeeeeeeeeeeeeeeeeeeeeeeeeeeeeeeeeeeeeeeeeeeeeeeeeeeeeeeeeeeeeeeeeeeeeeeeeeeeeeeeeeeeeeeeeeeeeeeeeeeeeeeeeeeeeeeeeeeeeeeeeeeeee":5548,"Ġcustom":5549,"bw":5550,"bell":5551,"bait":5552,"cn":5553,"chh":5554,"fields":5555,"hist":5556,"jang":5557,"kid":5558,"kids":5559,"lr":5560,"lot":5561,"lier":5562,"park":5563,"rum":5564,"Ġcig":5565,"Ġcott":5566,"Ġbugg":5567,"Ġbrav":5568,"Ġbask":5569,"Ġmasc":5570,"orable":5571,"Ġdestr":5572,"Ġtg":5573,"Ġtu":5574,"Ġtell":5575,"Ġtank":5576,"icts":5577,"Ġridd":5578,"Ġfy":5579,"Ġfear":5580,"Ġhd":5581,"Ġhib":5582,"Ġhass":5583,"Ġhurr":5584,"Ġheter":5585,"Ġhawk":5586,"unct":5587,"elyn":5588,"Ġgut":5589,"Ġgoss":5590,"Ġgoof":5591,"Ġwool":5592,"usi":5593,"rosc":5594,"Ġlos":5595,"Ġlith":5596,"abab":5597,"Ġeat":5598,"Ġkum":5599,"Ġkenn":5600,"idel":5601,"idence":5602,"apa":5603,"ulu":5604,"Ġunfor":5605,"Ġinsp":5606,"Ġjudg":5607,"station":5608,"Ġshark":5609,"Ġreas":5610,"Ġthed":5611,"ifts":5612,"eyer":5613,"endr":5614,"angs":5615,"Ġcruc":5616,"Ġfrag":5617,"Ġaltern":5618,"Ġgrat":5619,"Ġanesth":5620,"ehouse":5621,"Ġques":5622,"Ġmarc":5623,"Ġpark":5624,"Ġrece":5625,"uffle":5626,"atching":5627,"beat":5628,"otty":5629,"ounded":5630,"Ġundert":5631,"llllll":5632,"heart":5633,"Ġtransf":5634,"Ġobv":5635,"ogram":5636,"Ġsometh":5637,"ographic":5638,"rogen":5639,"agram":5640,"anananan":5641,"break":5642,"ership":5643,"Ġsoci":5644,"Ġjeff":5645,"yeah":5646,"Ġdocument":5647,"Ġfemin":5648,"onononon":5649,"Ġtemper":5650,"Ġgirls":5651,"bank":5652,"eo":5653,"eu":5654,"fd":5655,"fold":5656,"game":5657,"km":5658,"nos":5659,"power":5660,"redd":5661,"td":5662,"wick":5663,"zes":5664,"erer":5665,"inform":5666,"Ġsj":5667,"Ġsuit":5668,"esque":5669,"aner":5670,"Ġcyn":5671,"Ġcaus":5672,"Ġcogn":5673,"enia":5674,"aty":5675,"aron":5676,"alistic":5677,"Ġpn":5678,"Ġpter":5679,"Ġpens":5680,"Ġpork":5681,"Ġpyr":5682,"Ġpoor":5683,"Ġbour":5684,"Ġbett":5685,"Ġbord":5686,"Ġbrow":5687,"Ġbeef":5688,"Ġmaaaa":5689,"Ġmerr":5690,"Ġmake":5691,"Ġdop":5692,"Ġdra":5693,"Ġdump":5694,"Ġtes":5695,"Ġtet":5696,"Ġtart":5697,"Ġtaz":5698,"Ġtomm":5699,"itical":5700,"icer":5701,"Ġroman":5702,"Ġfuu":5703,"Ġforn":5704,"Ġfanc":5705,"Ġhung":5706,"Ġgad":5707,"Ġgav":5708,"acious":5709,"rogr":5710,"Ġlis":5711,"Ġlamp":5712,"chan":5713,"Ġnull":5714,"olar":5715,"oline":5716,"Ġef":5717,"Ġkv":5718,"uto":5719,"imon":5720,"umi":5721,"Ġjal":5722,"Ġjol":5723,"Ġjunk":5724,"owe":5725,"Ġchin":5726,"thed":5727,"Ġshith":5728,"quil":5729,"iple":5730,"Ġthen":5731,"Ġyog":5732,"Ġyout":5733,"illas":5734,"Ġspider":5735,"Ġcong":5736,"epp":5737,"iang":5738,"oca":5739,"endo":5740,"Ġtrick":5741,"ucky":5742,"ucted":5743,"Ġzomb":5744,"Ġscream":5745,"Ġscrew":5746,"exist":5747,"Ġprett":5748,"Ġprono":5749,"Ġprocr":5750,"Ġcryst":5751,"Ġflesh":5752,"Ġbritt":5753,"ggh":5754,"manship":5755,"oker":5756,"oken":5757,"Ġamer":5758,"Ġcounc":5759,"Ġcountr":5760,"Ġsupp":5761,"Ġoverr":5762,"Ġemph":5763,"ooked":5764,"Ġasp":5765,"ondr":5766,"Ġsubm":5767,"Ġcomput":5768,"Ġknif":5769,"street":5770,"Ġcollect":5771,"aggy":5772,"Ġdiam":5773,"immieg":5774,"Ġrelation":5775,"pose":5776,"iosis":5777,"Ġepid":5778,"Ġpurs":5779,"Ġhypers":5780,"Ġdissap":5781,"Ġnecess":5782,"Ġbullsh":5783,"Ġsympath":5784,"ogenic":5785,"downs":5786,"school":5787,"lady":5788,"Ġcivil":5789,"Ġvapor":5790,"jjjjjjjjjjjjjjjjjjjjjjjjjjjjjjjjjjjjjjjjjjjjjjjjjjjjjjjjjjjjjjjj":5791,"Ġincred":5792,"mygod":5793,"bp":5794,"bros":5795,"foot":5796,"feld":5797,"gers":5798,"hu":5799,"ku":5800,"los":5801,"makers":5802,"nis":5803,"oys":5804,"pock":5805,"ril":5806,"uously":5807,"Ġsz":5808,"Ġsill":5809,"Ġsass":5810,"anus":5811,"Ġcp":5812,"aler":5813,"Ġpatt":5814,"Ġpuff":5815,"Ġbuu":5816,"Ġbey":5817,"Ġdos":5818,"Ġdok":5819,"Ġdorm":5820,"Ġtens":5821,"Ġron":5822,"Ġras":5823,"Ġfuzz":5824,"Ġgumm":5825,"Ġled":5826,"Ġnur":5827,"Ġnum":5828,"Ġnerv":5829,"Ġneph":5830,"olves":5831,"oming":5832,"Ġeph":5833,"Ġkee":5834,"Ġkob":5835,"apers":5836,"igt":5837,"umd":5838,"empt":5839,"Ġvex":5840,"Ġvern":5841,"Ġour":5842,"Ġunic":5843,"Ġinfr":5844,"Ġjaw":5845,"Ġstab":5846,"Ġstere":5847,"Ġshov":5848,"odies":5849,"ubl":5850,"Ġyah":5851,"Ġspong":5852,"enda":5853,"ovie":5854,"Ġpron":5855,"Ġcran":5856,"tree":5857,"achy":5858,"ysis":5859,"Ġgrind":5860,"Ġgraph":5861,"Ġcloud":5862,"Ġquad":5863,"azy":5864,"blade":5865,"Ġskin":5866,"Ġenerg":5867,"Ġswe":5868,"Ġsweat":5869,"Ġsmooth":5870,"ondo":5871,"atches":5872,"Ġorch":5873,"Ġorang":5874,"arms":5875,"inned":5876,"oopy":5877,"Ġintim":5878,"Ġbarbar":5879,"bye":5880,"Ġimport":5881,"izzle":5882,"Ġhomeb":5883,"Ġdiagn":5884,"Ġsurf":5885,"immy":5886,"Ġsales":5887,"Ġrelig":5888,"lined":5889,"ija":5890,"Ġkrist":5891,"wrong":5892,"Ġbuild":5893,"rolls":5894,"Ġextrem":5895,"resp":5896,"ocracy":5897,"Ġbusiness":5898,"cribed":5899,"opathy":5900,"Ġoblig":5901,"mmmmmmmmmmmmmmmmmmmmmmmmmmmmmmmm":5902,"Ġrubber":5903,"Ġsuddenly":5904,"thefuck":5905,"Ġpneum":5906,"bers":5907,"bies":5908,"bill":5909,"cake":5910,"ception":5911,"days":5912,"gay":5913,"lg":5914,"mot":5915,"mont":5916,"mobile":5917,"ners":5918,"oup":5919,"uated":5920,"vt":5921,"wn":5922,"esqu":5923,"Ġcn":5924,"Ġcyb":5925,"enb":5926,"enen":5927,"enis":5928,"arium":5929,"ooow":5930,"alists":5931,"Ġpm":5932,"Ġpist":5933,"Ġpew":5934,"Ġpanc":5935,"Ġbam":5936,"Ġbann":5937,"Ġboll":5938,"Ġboh":5939,"Ġbios":5940,"Ġmh":5941,"Ġmack":5942,"Ġmuff":5943,"oric":5944,"Ġdirect":5945,"Ġtil":5946,"Ġtag":5947,"Ġtig":5948,"Ġtrop":5949,"Ġtarg":5950,"itual":5951,"Ġrr":5952,"Ġrt":5953,"Ġrabb":5954,"Ġfarr":5955,"Ġherr":5956,"uno":5957,"Ġgorg":5958,"Ġwav":5959,"ilar":5960,"roman":5961,"Ġli":5962,"Ġload":5963,"change":5964,"Ġnn":5965,"Ġnaa":5966,"Ġnee":5967,"Ġness":5968,"Ġnord":5969,"Ġnuk":5970,"Ġnights":5971,"olis":5972,"oso":5973,"Ġkel":5974,"Ġkok":5975,"Ġkoh":5976,"agle":5977,"imin":5978,"imed":5979,"ully":5980,"umes":5981,"Ġoak":5982,"stones":5983,"Ġsta":5984,"Ġstan":5985,"istics":5986,"aaaaaaaaaaaaaa":5987,"Ġshap":5988,"anta":5989,"Ġaust":5990,"Ġthef":5991,"ubby":5992,"Ġyork":5993,"Ġyellow":5994,"udo":5995,"iba":5996,"obber":5997,"epe":5998,"ocation":5999,"Ġtrack":6000,"assion":6001,"Ġscot":6002,"Ġscient":6003,"Ġprol":6004,"Ġfreed":6005,"Ġalleg":6006,"ouring":6007,"Ġleaf":6008,"Ġcomed":6009,"Ġanx":6010,"Ġanyth":6011,"ouf":6012,"Ġske":6013,"iche":6014,"Ġabb":6015,"itte":6016,"Ġsupern":6017,"iths":6018,"ookie":6019,"Ġbean":6020,"ushed":6021,"beer":6022,"Ġels":6023,"Ġheath":6024,"Ġmisd":6025,"umbers":6026,"Ġagr":6027,"Ġweak":6028,"ugging":6029,"Ġsuperc":6030,"ointed":6031,"Ġoversh":6032,"Ġloud":6033,"Ġfirst":6034,"Ġtroub":6035,"ieved":6036,"member":6037,"Ġescal":6038,"Ġshitty":6039,"umbled":6040,"communic":6041,"efully":6042,"Ġfavor":6043,"aing":6044,"bm":6045,"cup":6046,"cont":6047,"draw":6048,"fi":6049,"fm":6050,"fast":6051,"iary":6052,"jet":6053,"kit":6054,"mant":6055,"mail":6056,"nal":6057,"oub":6058,"piece":6059,"sd":6060,"tail":6061,"worm":6062,"Ġons":6063,"Ġsie":6064,"esa":6065,"anian":6066,"oners":6067,"Ġcw":6068,"Ġcay":6069,"Ġcous":6070,"enge":6071,"aren":6072,"arrrr":6073,"alin":6074,"Ġpeg":6075,"Ġpear":6076,"Ġpuk":6077,"Ġpound":6078,"Ġpomp":6079,"Ġmp":6080,"Ġmyl":6081,"Ġmock":6082,"Ġmash":6083,"Ġmudd":6084,"inged":6085,"Ġduk":6086,"Ġdread":6087,"Ġted":6088,"Ġtah":6089,"Ġtitt":6090,"Ġtorr":6091,"Ġrim":6092,"Ġrif":6093,"Ġraj":6094,"Ġrational":6095,"Ġfaa":6096,"Ġfell":6097,"Ġfail":6098,"asis":6099,"Ġhir":6100,"Ġhah":6101,"elm":6102,"elves":6103,"Ġgib":6104,"Ġgarr":6105,"acles":6106,"Ġwah":6107,"Ġwant":6108,"usive":6109,"urrr":6110,"ropp":6111,"Ġlah":6112,"chs":6113,"Ġnop":6114,"Ġnod":6115,"Ġez":6116,"Ġkinder":6117,"apon":6118,"enta":6119,"igmat":6120,"essional":6121,"ahan":6122,"ste":6123,"Ġchil":6124,"Ġchik":6125,"tha":6126,"Ġshits":6127,"oder":6128,"ugen":6129,"illes":6130,"ickle":6131,"ege":6132,"shsh":6133,"Ġexs":6134,"iking":6135,"Ġzoo":6136,"eway":6137,"Ġwhats":6138,"Ġcrab":6139,"Ġflag":6140,"Ġarc":6141,"ource":6142,"Ġank":6143,"tings":6144,"ynd":6145,"Ġacad":6146,"eville":6147,"azi":6148,"Ġskull":6149,"othe":6150,"oths":6151,"Ġdrink":6152,"edding":6153,"ophobic":6154,"ooty":6155,"otta":6156,"umpt":6157,"Ġcompar":6158,"Ġknock":6159,"iffer":6160,"ahahahaha":6161,"Ġevangel":6162,"Ġsuperb":6163,"Ġsuperv":6164,"izzy":6165,"Ġsurpr":6166,"Ġmicros":6167,"Ġdelic":6168,"Ġcapital":6169,"writing":6170,"Ġawes":6171,"ogging":6172,"Ġlegal":6173,"elessly":6174,"Ġmotiv":6175,"kkkkkkkk":6176,"marks":6177,"Ġaudi":6178,"Ġmachin":6179,"Ġhalluc":6180,"hhhhhhhhhhhhhhhhhhhhhhhhhhhhhhhhhhhhhhhhhhhhhhhhhhhhhhhhhhhhhhhh":6181,"Ġinflu":6182,"Ġkidn":6183,"Ġfetish":6184,"immiegimmieg":6185,"ault":6186,"bull":6187,"call":6188,"die":6189,"games":6190,"iis":6191,"iors":6192,"jt":6193,"jng":6194,"keeper":6195,"natch":6196,"pac":6197,"pay":6198,"pie":6199,"rap":6200,"wit":6201,"zm":6202,"Ġaph":6203,"Ġsis":6204,"Ġsas":6205,"Ġsak":6206,"Ġsib":6207,"Ġcm":6208,"Ġct":6209,"Ġcac":6210,"Ġcuc":6211,"Ġcoor":6212,"Ġcudd":6213,"Ġcream":6214,"enberg":6215,"atis":6216,"atting":6217,"aline":6218,"Ġpak":6219,"Ġpra":6220,"Ġpale":6221,"Ġpigg":6222,"Ġpuzz":6223,"Ġbs":6224,"Ġmens":6225,"Ġmeh":6226,"Ġdv":6227,"Ġdaaaa":6228,"Ġdag":6229,"Ġdah":6230,"Ġdov":6231,"Ġtad":6232,"Ġtib":6233,"itory":6234,"itarian":6235,"Ġrab":6236,"Ġress":6237,"Ġramp":6238,"Ġfeed":6239,"Ġhm":6240,"Ġhover":6241,"unge":6242,"Ġgd":6243,"Ġgeh":6244,"Ġwass":6245,"Ġwax":6246,"amo":6247,"etal":6248,"etts":6249,"etted":6250,"road":6251,"Ġnr":6252,"Ġnoooo":6253,"Ġnnn":6254,"olved":6255,"omed":6256,"Ġeuth":6257,"otting":6258,"ental":6259,"ulf":6260,"ulum":6261,"umed":6262,"Ġvagin":6263,"Ġview":6264,"Ġou":6265,"Ġunint":6266,"Ġunsc":6267,"aaaaaaaaaaa":6268,"Ġchall":6269,"thr":6270,"there":6271,"Ġshay":6272,"iping":6273,"Ġreim":6274,"Ġahh":6275,"iform":6276,"rail":6277,"Ġyess":6278,"Ġspar":6279,"Ġspid":6280,"elles":6281,"ardy":6282,"eeeeeeeeeeee":6283,"angle":6284,"uckle":6285,"Ġexpected":6286,"ucts":6287,"Ġscor":6288,"ewe":6289,"Ġbru":6290,"Ġale":6291,"Ġgray":6292,"oodles":6293,"Ġclam":6294,"Ġclim":6295,"ashion":6296,"Ġslim":6297,"Ġimag":6298,"orning":6299,"Ġskid":6300,"Ġench":6301,"olls":6302,"Ġemploy":6303,"mmmmmm":6304,"ermother":6305,"Ġglor":6306,"Ġaspir":6307,"ixed":6308,"ertain":6309,"Ġstretch":6310,"space":6311,"inny":6312,"Ġantip":6313,"Ġoutr":6314,"Ġassh":6315,"Ġupper":6316,"wwwwww":6317,"Ġrepos":6318,"Ġweas":6319,"Ġcolour":6320,"Ġindustr":6321,"Ġtransm":6322,"affe":6323,"Ġscratch":6324,"Ġbackst":6325,"eezy":6326,"Ġmagnet":6327,"eptic":6328,"Ġwrong":6329,"Ġmultic":6330,"Ġdeterm":6331,"Ġbenef":6332,"Ġposit":6333,"aughter":6334,"ports":6335,"boro":6336,"Ġbehav":6337,"Ġblueb":6338,"Ġobsc":6339,"Ġfutur":6340,"Ġhistor":6341,"Ġnsfw":6342,"eworld":6343,"bul":6344,"eon":6345,"gm":6346,"gam":6347,"las":6348,"lia":6349,"pf":6350,"vn":6351,"zs":6352,"Ġeee":6353,"Ġedd":6354,"Ġeeeeee":6355,"Ġother":6356,"erate":6357,"eses":6358,"atz":6359,"atos":6360,"aloo":6361,"alph":6362,"Ġbip":6363,"Ġberg":6364,"Ġbbb":6365,"Ġmk":6366,"Ġmuk":6367,"Ġmomm":6368,"iso":6369,"oran":6370,"Ġdug":6371,"Ġdegr":6372,"Ġtum":6373,"Ġtack":6374,"Ġtact":6375,"icly":6376,"Ġrah":6377,"Ġrak":6378,"Ġrough":6379,"Ġfus":6380,"Ġfinal":6381,"asion":6382,"Ġhak":6383,"Ġhitch":6384,"unce":6385,"Ġgarn":6386,"Ġwend":6387,"amily":6388,"eton":6389,"rops":6390,"Ġlion":6391,"Ġlud":6392,"Ġlack":6393,"Ġline":6394,"Ġnumber":6395,"osion":6396,"Ġek":6397,"Ġeast":6398,"Ġearn":6399,"Ġkit":6400,"Ġkad":6401,"Ġkink":6402,"Ġkitch":6403,"otomy":6404,"apf":6405,"iments":6406,"ulin":6407,"ulent":6408,"ece":6409,"umat":6410,"uming":6411,"irk":6412,"Ġvamp":6413,"Ġunpro":6414,"Ġjord":6415,"opr":6416,"akin":6417,"Ġshell":6418,"anto":6419,"Ġrepres":6420,"Ġthought":6421,"Ġyas":6422,"Ġyank":6423,"illi":6424,"ibble":6425,"obi":6426,"Ġconsc":6427,"ianna":6428,"Ġtruth":6429,"ebre":6430,"arting":6431,"uced":6432,"yland":6433,"Ġprest":6434,"Ġprogress":6435,"Ġald":6436,"Ġgren":6437,"Ġgriff":6438,"Ġana":6439,"asher":6440,"icht":6441,"Ġcouns":6442,"Ġcarp":6443,"uko":6444,"Ġmars":6445,"Ġemerg":6446,"Ġempath":6447,"Ġpregn":6448,"actyl":6449,"flow":6450,"iley":6451,"sequ":6452,"Ġmcn":6453,"being":6454,"arma":6455,"ipple":6456,"Ġintro":6457,"Ġupv":6458,"idden":6459,"drive":6460,"Ġpeop":6461,"Ġhypnot":6462,"ographer":6463,"locked":6464,"Ġastron":6465,"Ġsuicid":6466,"going":6467,"Ġsepar":6468,"Ġlangu":6469,"aptaptaptapt":6470,"tyrosyl":6471,"aed":6472,"bob":6473,"cf":6474,"cakes":6475,"dogs":6476,"fair":6477,"gi":6478,"gas":6479,"hill":6480,"horn":6481,"hold":6482,"lh":6483,"loo":6484,"link":6485,"tz":6486,"vide":6487,"xc":6488,"yu":6489,"Ġie":6490,"Ġuber":6491,"erts":6492,"inz":6493,"Ġsov":6494,"Ġsugg":6495,"Ġsunn":6496,"eeling":6497,"alised":6498,"alty":6499,"Ġpitch":6500,"Ġpurr":6501,"Ġbd":6502,"Ġbenn":6503,"Ġbobb":6504,"Ġmee":6505,"Ġmaw":6506,"Ġmuc":6507,"Ġmugg":6508,"Ġmuch":6509,"Ġmmmm":6510,"isin":6511,"Ġdaa":6512,"Ġdul":6513,"Ġdak":6514,"Ġtas":6515,"Ġtough":6516,"icy":6517,"Ġrrr":6518,"Ġrug":6519,"Ġreee":6520,"leth":6521,"Ġfm":6522,"Ġfoc":6523,"Ġfond":6524,"Ġhid":6525,"Ġhuff":6526,"Ġhumm":6527,"Ġgt":6528,"Ġgonewild":6529,"acr":6530,"Ġwadd":6531,"ilized":6532,"amel":6533,"aders":6534,"Ġlast":6535,"Ġlights":6536,"chie":6537,"christ":6538,"cheese":6539,"Ġnig":6540,"Ġnud":6541,"Ġnast":6542,"olon":6543,"olor":6544,"Ġecc":6545,"rev":6546,"agons":6547,"entric":6548,"igans":6549,"imi":6550,"eca":6551,"umper":6552,"essions":6553,"Ġvocal":6554,"Ġjee":6555,"Ġjug":6556,"Ġjazz":6557,"Ġsto":6558,"cked":6559,"Ġchal":6560,"tery":6561,"odor":6562,"ifted":6563,"Ġyours":6564,"oused":6565,"Ġspook":6566,"oct":6567,"Ġtriv":6568,"anges":6569,"uctions":6570,"Ġwhisk":6571,"pling":6572,"Ġcrisp":6573,"Ġfrapp":6574,"Ġleth":6575,"Ġclo":6576,"dered":6577,"oko":6578,"asha":6579,"tingly":6580,"yng":6581,"ighty":6582,"Ġacet":6583,"Ġaccount":6584,"sssssss":6585,"Ġadul":6586,"Ġadvert":6587,"nesses":6588,"pret":6589,"Ġcarbon":6590,"uku":6591,"Ġmarr":6592,"Ġsword":6593,"atsu":6594,"Ġsmith":6595,"Ġembr":6596,"actors":6597,"yme":6598,"Ġrecip":6599,"Ġrecomm":6600,"erred":6601,"fried":6602,"come":6603,"ilding":6604,"Ġeld":6605,"ophile":6606,"Ġantic":6607,"ounding":6608,"Ġpolitic":6609,"Ġdefen":6610,"ummy":6611,"Ġinfant":6612,"Ġsalv":6613,"Ġcalif":6614,"Ġconsol":6615,"Ġsomet":6616,"Ġespec":6617,"Ġharv":6618,"Ġinvis":6619,"abbed":6620,"Ġtrem":6621,"Ġsexual":6622,"Ġsecond":6623,"Ġcharacter":6624,"breaker":6625,"Ġabsolut":6626,"Ġphotos":6627,"lection":6628,"Ġdamn":6629,"Ġwaters":6630,"Ġbetter":6631,"juice":6632,"Ġsurviv":6633,"aaaaaaaaaaaaaaaaaaaaaaaaaaaaaaaaaaaaaaaaaaaaaaaaaaaaaaaaaaaaaaaaaaaaaaaaaaaaaaaaaaaaaaaaaaaaaaaaaaaaaaaaaaaaaaaaaaaaaaaaaaaaaaaaaaaaaaaaaaaaaaaaaaaaaaaaaaaaaaaaaaaaaaaaaaaaaaaaaaaaaaaaaaaaaaaaaaaaaaaaaaaaaaaaaaaaaaaaaaaaaaaaaaaaaaaaaaaaaaaaaaaaaaaaaaaaaaaaaaaaaaaaaaaaaaaaaaaaaaaaaaaaaaaaaaaaaaaaaaaaaaaaaaaaaaaaaaaaaaaaaaaaaaaaaaaaaaaaaaaaaaaaaaaaaaaaaaaaaaaaaaaaaaaaaaaaaaaaaaaaaaaaaaaaaaaaaaaaaaaaaaaaaaaaaaaaaaaaaaaaaaaaaaaaaaaaaaaaaaaaaaaaaaaaaaaaaaaaaaaaaaaaaaaaaaaaaaaaaaaaaaaaaaaaaaaaaaaaaaaaaaaaaaaaaaaa":6634,"aspartyl":6635,"Ġilleg":6636,"bj":6637,"bly":6638,"beh":6639,"baby":6640,"cas":6641,"cop":6642,"dong":6643,"father":6644,"gf":6645,"iin":6646,"lip":6647,"mir":6648,"nk":6649,"oer":6650,"pw":6651,"qi":6652,"rate":6653,"rise":6654,"wed":6655,"yard":6656,"Ġian":6657,"Ġont":6658,"inj":6659,"Ġsey":6660,"Ġsew":6661,"Ġsoy":6662,"Ġsole":6663,"aning":6664,"only":6665,"Ġcaut":6666,"enos":6667,"ensh":6668,"aten":6669,"arrr":6670,"alization":6671,"Ġpd":6672,"Ġpott":6673,"Ġpimp":6674,"Ġpuls":6675,"Ġbm":6676,"Ġbump":6677,"Ġbeet":6678,"Ġburr":6679,"Ġbraw":6680,"Ġmyn":6681,"Ġmids":6682,"orge":6683,"Ġdoooo":6684,"Ġdink":6685,"Ġdox":6686,"Ġdopp":6687,"Ġdwar":6688,"Ġri":6689,"Ġrasp":6690,"Ġribb":6691,"Ġfath":6692,"Ġfrom":6693,"Ġhs":6694,"Ġhis":6695,"Ġhahahahah":6696,"Ġhonk":6697,"elig":6698,"Ġgoooo":6699,"Ġgear":6700,"Ġgust":6701,"Ġgigg":6702,"Ġgolf":6703,"aaaah":6704,"acer":6705,"acion":6706,"urer":6707,"amor":6708,"etown":6709,"Ġnaw":6710,"Ġnost":6711,"Ġnumb":6712,"olv":6713,"omies":6714,"ersch":6715,"abitch":6716,"Ġkub":6717,"Ġkidd":6718,"reme":6719,"entially":6720,"igi":6721,"imps":6722,"ulg":6723,"econd":6724,"essa":6725,"empl":6726,"Ġvoy":6727,"Ġjigg":6728,"sted":6729,"stock":6730,"stream":6731,"Ġstraw":6732,"Ġsteph":6733,"ande":6734,"andr":6735,"Ġchor":6736,"ffer":6737,"antin":6738,"izen":6739,"Ġau":6740,"oded":6741,"ifiable":6742,"Ġyosh":6743,"ibus":6744,"Ġsph":6745,"Ġspank":6746,"ellas":6747,"Ġconver":6748,"ende":6749,"asser":6750,"angers":6751,"llly":6752,"Ġwho":6753,"Ġwhis":6754,"athing":6755,"yles":6756,"enses":6757,"enson":6758,"plain":6759,"Ġflour":6760,"eface":6761,"Ġgrac":6762,"appa":6763,"oks":6764,"ongo":6765,"blood":6766,"blbl":6767,"print":6768,"Ġskyl":6769,"mented":6770,"Ġsne":6771,"annon":6772,"othy":6773,"hhhhhhhhhhh":6774,"Ġdrum":6775,"Ġasian":6776,"Ġsubd":6777,"rowing":6778,"aphobia":6779,"yde":6780,"Ġdecom":6781,"wheel":6782,"Ġantid":6783,"Ġmonopol":6784,"Ġmanip":6785,"Ġguar":6786,"fucked":6787,"fuckermother":6788,"escence":6789,"iddle":6790,"Ġcorpor":6791,"Ġidol":6792,"Ġgross":6793,"Ġturt":6794,"eeking":6795,"headed":6796,"Ġmilit":6797,"peak":6798,"Ġsimpl":6799,"Ġpalm":6800,"ogged":6801,"Ġoffic":6802,"Ġsext":6803,"working":6804,"Ġbenz":6805,"Ġterror":6806,"Ġhaem":6807,"Ġdarks":6808,"Ġsuspic":6809,"Ġpropag":6810,"ahahahahahahahahahahahahahahahah":6811,"Ġhosp":6812,"ategor":6813,"Ġchocol":6814,"cription":6815,"Ġquestion":6816,"Ġprocrast":6817,"ahhh":6818,"bin":6819,"bra":6820,"base":6821,"bread":6822,"bomb":6823,"bands":6824,"cb":6825,"fic":6826,"fighter":6827,"gb":6828,"ghh":6829,"jh":6830,"ln":6831,"lit":6832,"lah":6833,"love":6834,"mall":6835,"matic":6836,"nr":6837,"nar":6838,"pussy":6839,"qr":6840,"rent":6841,"vc":6842,"weed":6843,"Ġumb":6844,"Ġaaaaa":6845,"erh":6846,"Ġsop":6847,"Ġsys":6848,"Ġsett":6849,"Ġsax":6850,"Ġsitu":6851,"Ġcaa":6852,"Ġcou":6853,"enburg":6854,"arious":6855,"ooon":6856,"ooting":6857,"alon":6858,"Ġpaint":6859,"Ġbt":6860,"Ġbid":6861,"Ġbeth":6862,"Ġbumb":6863,"Ġbunk":6864,"Ġbapt":6865,"Ġbench":6866,"Ġballs":6867,"Ġmab":6868,"orer":6869,"Ġdut":6870,"Ġtumbl":6871,"icit":6872,"Ġfd":6873,"asu":6874,"Ġhate":6875,"Ġhier":6876,"Ġhaaaaaa":6877,"Ġhahahah":6878,"unks":6879,"Ġweeee":6880,"Ġwoooooo":6881,"Ġwoman":6882,"Ġwreck":6883,"adas":6884,"Ġlick":6885,"Ġlive":6886,"Ġlink":6887,"chw":6888,"chik":6889,"Ġnol":6890,"Ġnumer":6891,"oler":6892,"osexual":6893,"Ġkry":6894,"Ġkev":6895,"rea":6896,"ref":6897,"idn":6898,"idate":6899,"agement":6900,"ento":6901,"Ġverg":6902,"Ġunth":6903,"Ġunhe":6904,"Ġinher":6905,"Ġjus":6906,"Ġjim":6907,"Ġjok":6908,"stad":6909,"step":6910,"ivly":6911,"Ġstew":6912,"Ġstern":6913,"Ġstiff":6914,"Ġstream":6915,"Ġchant":6916,"Ġchev":6917,"theb":6918,"Ġshaw":6919,"qual":6920,"upted":6921,"Ġyh":6922,"Ġspread":6923,"Ġspagh":6924,"obes":6925,"Ġconfl":6926,"ocs":6927,"Ġtrich":6928,"eeeeeeeeeeeeee":6929,"ango":6930,"isher":6931,"eber":6932,"Ġexcr":6933,"iker":6934,"aways":6935,"uca":6936,"Ġzoom":6937,"Ġbrad":6938,"ysc":6939,"Ġgrab":6940,"Ġclin":6941,"Ġslee":6942,"Ġimb":6943,"Ġquiz":6944,"Ġamar":6945,"Ġskee":6946,"Ġcoinc":6947,"hhhhhhhhhhhh":6948,"Ġdram":6949,"ithe":6950,"into":6951,"uffed":6952,"orean":6953,"arking":6954,"erring":6955,"Ġseal":6956,"ippin":6957,"Ġdecl":6958,"Ġapprec":6959,"alking":6960,"fucks":6961,"Ġsquir":6962,"Ġincor":6963,"atrix":6964,"Ġdemocr":6965,"Ġinvent":6966,"Ġsimp":6967,"Ġepic":6968,"abbing":6969,"atures":6970,"Ġrhin":6971,"rolled":6972,"rolling":6973,"Ġhelp":6974,"Ġcrem":6975,"Ġholly":6976,"Ġtoile":6977,"Ġvolunt":6978,"yyyyyyyyyyyyyyyy":6979,"parents":6980,"Ġnois":6981,"Ġmethyl":6982,"Ġpunct":6983,"Ġsugar":6984,"borne":6985,"Ġjapan":6986,"Ġcounters":6987,"folk":6988,"asparaginyl":6989,"fuckermotherfuckermother":6990,"bing":6991,"bab":6992,"cum":6993,"cars":6994,"fk":6995,"fed":6996,"fights":6997,"got":6998,"gob":6999,"hub":7000,"iations":7001,"jon":7002,"jar":7003,"jor":7004,"lig":7005,"lords":7006,"pics":7007,"rh":7008,"uly":7009,"uating":7010,"west":7011,"Ġyy":7012,"Ġoog":7013,"Ġooooo":7014,"Ġsi":7015,"Ġsinc":7016,"anh":7017,"onts":7018,"Ġcot":7019,"Ġcaw":7020,"Ġcors":7021,"Ġcinn":7022,"arin":7023,"arar":7024,"ooter":7025,"alam":7026,"alright":7027,"Ġbok":7028,"Ġmole":7029,"isi":7030,"orum":7031,"orry":7032,"Ġdie":7033,"Ġdies":7034,"Ġdenn":7035,"Ġdict":7036,"Ġdarn":7037,"Ġdyst":7038,"Ġtul":7039,"Ġtik":7040,"Ġteh":7041,"Ġtong":7042,"Ġtender":7043,"Ġtodd":7044,"Ġrath":7045,"Ġrais":7046,"lef":7047,"Ġfas":7048,"Ġfang":7049,"Ġfatt":7050,"Ġfung":7051,"Ġhick":7052,"Ġgand":7053,"Ġgill":7054,"Ġgord":7055,"acet":7056,"etit":7057,"adel":7058,"Ġliiii":7059,"Ġnational":7060,"oled":7061,"omi":7062,"omething":7063,"lyd":7064,"lynn":7065,"uum":7066,"Ġkot":7067,"idt":7068,"idan":7069,"apr":7070,"uli":7071,"ecut":7072,"Ġunim":7073,"Ġunfl":7074,"Ġineff":7075,"ayers":7076,"Ġjd":7077,"Ġjes":7078,"Ġjag":7079,"Ġjail":7080,"stra":7081,"store":7082,"Ġstim":7083,"istant":7084,"Ġchir":7085,"Ġcharm":7086,"Ġchoos":7087,"thec":7088,"Ġshall":7089,"quel":7090,"Ġrevers":7091,"upe":7092,"ifiers":7093,"Ġyaa":7094,"illin":7095,"ibs":7096,"oust":7097,"Ġspit":7098,"eyn":7099,"eporn":7100,"eby":7101,"ebag":7102,"eback":7103,"Ġexter":7104,"Ġexerc":7105,"Ġexpress":7106,"uces":7107,"ucing":7108,"Ġblast":7109,"Ġwhack":7110,"ensit":7111,"Ġcron":7112,"Ġcrist":7113,"Ġbridg":7114,"Ġals":7115,"Ġarach":7116,"Ġdiscl":7117,"dering":7118,"tional":7119,"iera":7120,"Ġskill":7121,"Ġcough":7122,"usters":7123,"clap":7124,"Ġcarc":7125,"Ġperv":7126,"inker":7127,"intend":7128,"ammers":7129,"aires":7130,"eeeen":7131,"auer":7132,"bees":7133,"bean":7134,"igning":7135,"Ġseat":7136,"spect":7137,"Ġdeal":7138,"Ġantis":7139,"Ġcompos":7140,"Ġcomplet":7141,"Ġsquirr":7142,"Ġcolleg":7143,"lllllll":7144,"Ġincre":7145,"hea":7146,"meat":7147,"erved":7148,"Ġdiab":7149,"Ġpeople":7150,"Ġinfinit":7151,"Ġpsyc":7152,"eezer":7153,"weight":7154,"lining":7155,"Ġelev":7156,"dddddd":7157,"Ġturk":7158,"Ġeduc":7159,"Ġreform":7160,"iasis":7161,"Ġawk":7162,"Ġattend":7163,"Ġhypn":7164,"omania":7165,"woods":7166,"Ġmillion":7167,"Ġpaper":7168,"Ġcumber":7169,"Ġsatisf":7170,"ieces":7171,"ppppp":7172,"Ġvisual":7173,"walker":7174,"cribe":7175,"Ġcardi":7176,"Ġdouble":7177,"Ġtheydid":7178,"esyesy":7179,"odododododododod":7180,"Ġsteril":7181,"Ġcinem":7182,"Ġneutral":7183,"Ġaccompl":7184,"bk":7185,"ben":7186,"bid":7187,"function":7188,"jn":7189,"jp":7190,"jer":7191,"jan":7192,"lm":7193,"lw":7194,"may":7195,"prom":7196,"poop":7197,"rid":7198,"rant":7199,"ruit":7200,"ties":7201,"vl":7202,"vm":7203,"vet":7204,"weet":7205,"xm":7206,"yers":7207,"zt":7208,"Ġiiiiiiii":7209,"Ġoom":7210,"Ġoss":7211,"erie":7212,"inx":7213,"Ġsd":7214,"Ġshh":7215,"Ġsut":7216,"Ġsort":7217,"Ġsold":7218,"Ġsamm":7219,"anal":7220,"annnn":7221,"Ġck":7222,"Ġcus":7223,"Ġcah":7224,"Ġcater":7225,"enger":7226,"atar":7227,"arus":7228,"around":7229,"Ġpes":7230,"Ġpog":7231,"Ġpump":7232,"Ġbem":7233,"Ġbif":7234,"Ġbyr":7235,"Ġmaur":7236,"Ġmosh":7237,"inga":7238,"isons":7239,"Ġdt":7240,"Ġdot":7241,"Ġdill":7242,"Ġdia":7243,"Ġdong":7244,"Ġdou":7245,"Ġdild":7246,"Ġtm":7247,"Ġtp":7248,"Ġtard":7249,"Ġtox":7250,"icating":7251,"Ġrs":7252,"Ġrut":7253,"Ġrack":7254,"Ġrapp":7255,"Ġrout":7256,"Ġross":7257,"Ġroof":7258,"Ġfn":7259,"Ġfizz":7260,"Ġfuuuuuu":7261,"Ġhin":7262,"Ġhern":7263,"unes":7264,"Ġgle":7265,"Ġgame":7266,"acity":7267,"Ġwes":7268,"Ġwitt":7269,"ilation":7270,"urm":7271,"americ":7272,"Ġlt":7273,"Ġlig":7274,"Ġlass":7275,"Ġloll":7276,"Ġlanc":7277,"Ġlimp":7278,"Ġnc":7279,"Ġng":7280,"Ġnad":7281,"Ġnim":7282,"Ġnigh":7283,"Ġnich":7284,"Ġnugg":7285,"Ġnigg":7286,"omg":7287,"ombs":7288,"ione":7289,"Ġkop":7290,"Ġkaw":7291,"utin":7292,"agus":7293,"entai":7294,"esse":7295,"Ġveh":7296,"Ġvari":7297,"Ġoil":7298,"Ġunpr":7299,"Ġjimm":7300,"Ġjuv":7301,"sta":7302,"Ġstabil":7303,"opot":7304,"esta":7305,"estar":7306,"Ġchan":7307,"Ġchol":7308,"Ġchain":7309,"Ġcheez":7310,"thers":7311,"aky":7312,"Ġshee":7313,"quin":7314,"antes":7315,"Ġrew":7316,"iever":7317,"Ġyl":7318,"uga":7319,"uder":7320,"ellar":7321,"uuuuuuu":7322,"eger":7323,"Ġwhere":7324,"athed":7325,"oved":7326,"ovic":7327,"plant":7328,"Ġcrank":7329,"tron":7330,"Ġflood":7331,"Ġbrook":7332,"Ġalk":7333,"efe":7334,"Ġgree":7335,"Ġlett":7336,"Ġlemon":7337,"phere":7338,"Ġclay":7339,"pered":7340,"Ġaccr":7341,"atters":7342,"orne":7343,"Ġadr":7344,"Ġadapt":7345,"Ġsniff":7346,"click":7347,"Ġschiz":7348,"ohol":7349,"Ġprevent":7350,"icaly":7351,"Ġglad":7352,"Ġasph":7353,"arred":7354,"Ġstrateg":7355,"flu":7356,"encing":7357,"ushes":7358,"ushing":7359,"Ġasshol":7360,"unky":7361,"unked":7362,"Ġpolym":7363,"ftft":7364,"Ġdefinit":7365,"orrh":7366,"teen":7367,"unners":7368,"aggers":7369,"Ġdepl":7370,"Ġhomes":7371,"Ġmetall":7372,"posts":7373,"Ġmagic":7374,"writer":7375,"Ġbabys":7376,"itzer":7377,"gggggg":7378,"Ġuncons":7379,"iques":7380,"Ġhelic":7381,"ubbed":7382,"ubbing":7383,"Ġsynd":7384,"Ġpenis":7385,"ieving":7386,"iotic":7387,"Ġingen":7388,"oscope":7389,"lysyl":7390,"Ġveget":7391,"Ġromantic":7392,"Ġethn":7393,"Ġpatron":7394,"Ġnormal":7395,"anthrop":7396,"Ġstupid":7397,"Ġvictim":7398,"Ġprincip":7399,"Ġamerican":7400,"Ġoste":7401,"Ġpocket":7402,"Ġlgbt":7403,"Ġgovern":7404,"bug":7405,"bys":7406,"dn":7407,"dead":7408,"fle":7409,"fac":7410,"fur":7411,"fix":7412,"gang":7413,"jection":7414,"killer":7415,"loc":7416,"pur":7417,"rus":7418,"riend":7419,"side":7420,"vd":7421,"woo":7422,"wagon":7423,"yte":7424,"zk":7425,"zw":7426,"Ġooo":7427,"erin":7428,"eration":7429,"Ġsuz":7430,"Ġcens":7431,"Ġcouch":7432,"eeer":7433,"ooch":7434,"edo":7435,"Ġpc":7436,"Ġpus":7437,"Ġbeeee":7438,"Ġbail":7439,"Ġbudg":7440,"Ġmig":7441,"Ġmum":7442,"Ġmund":7443,"Ġmaf":7444,"orian":7445,"Ġdl":7446,"Ġdex":7447,"Ġdigg":7448,"Ġdanger":7449,"Ġtaa":7450,"Ġtec":7451,"Ġtup":7452,"Ġtoll":7453,"Ġtread":7454,"icans":7455,"Ġraaaa":7456,"Ġrup":7457,"Ġrend":7458,"Ġrans":7459,"Ġroth":7460,"Ġrobb":7461,"Ġfen":7462,"Ġfap":7463,"Ġfiv":7464,"Ġfuj":7465,"asn":7466,"asaurus":7467,"Ġhet":7468,"Ġhart":7469,"Ġhann":7470,"Ġhide":7471,"Ġhatch":7472,"Ġhero":7473,"Ġhurt":7474,"Ġging":7475,"Ġgew":7476,"Ġgarg":7477,"Ġgamb":7478,"acial":7479,"Ġwot":7480,"Ġwag":7481,"Ġwick":7482,"Ġwoof":7483,"urable":7484,"urance":7485,"rose":7486,"Ġlut":7487,"Ġluk":7488,"Ġlyr":7489,"Ġlymph":7490,"Ġnoth":7491,"omon":7492,"Ġeman":7493,"Ġect":7494,"agic":7495,"agag":7496,"imat":7497,"ecc":7498,"irth":7499,"essss":7500,"essive":7501,"Ġves":7502,"Ġvind":7503,"Ġvaj":7504,"Ġjed":7505,"Ġjugg":7506,"strom":7507,"stories":7508,"andel":7509,"Ġcheet":7510,"thro":7511,"ako":7512,"ssh":7513,"ques":7514,"quit":7515,"Ġreason":7516,"oday":7517,"Ġthec":7518,"Ġthough":7519,"ubt":7520,"Ġyay":7521,"Ġyell":7522,"Ġspear":7523,"Ġspeak":7524,"oba":7525,"ocol":7526,"astroph":7527,"ebra":7528,"uckers":7529,"Ġexpos":7530,"artment":7531,"Ġzd":7532,"Ġblur":7533,"Ġblaz":7534,"Ġscrot":7535,"ewolf":7536,"Ġwhoooo":7537,"Ġproh":7538,"Ġprotr":7539,"plus":7540,"Ġcrash":7541,"tress":7542,"achable":7543,"Ġbright":7544,"efest":7545,"Ġgrass":7546,"Ġdispos":7547,"Ġdiscover":7548,"zzy":7549,"Ġslut":7550,"iality":7551,"boats":7552,"Ġsnak":7553,"inski":7554,"Ġcoul":7555,"hhhhhhhhhhhhh":7556,"cloud":7557,"issa":7558,"Ġperiod":7559,"oya":7560,"Ġpars":7561,"ooking":7562,"ulls":7563,"ernal":7564,"onda":7565,"Ġbeast":7566,"arri":7567,"Ġorient":7568,"auf":7569,"beast":7570,"Ġinterd":7571,"Ġheat":7572,"Ġdeaf":7573,"Ġmisre":7574,"Ġantim":7575,"Ġmonkey":7576,"Ġguy":7577,"Ġguard":7578,"Ġpolar":7579,"Ġminut":7580,"Ġsuperh":7581,"ycles":7582,"Ġdepos":7583,"Ġimprov":7584,"conc":7585,"Ġcontro":7586,"Ġcontext":7587,"Ġgreg":7588,"Ġenter":7589,"Ġobst":7590,"Ġacceler":7591,"ddddd":7592,"ercial":7593,"Ġbaby":7594,"Ġimmort":7595,"workers":7596,"Ġlegit":7597,"attering":7598,"Ġtraff":7599,"Ġpopular":7600,"boarding":7601,"regn":7602,"Ġsymbol":7603,"Ġescap":7604,"iverse":7605,"Ġcasual":7606,"Ġsanct":7607,"Ġtherap":7608,"glutamyl":7609,"Ġcosm":7610,"Ġcannib":7611,"Ġoppos":7612,"Ġobliv":7613,"Ġcourt":7614,"Ġargent":7615,"ienced":7616,"Ġninj":7617,"Ġletter":7618,"Ġalphab":7619,"quaresquaresquaresquaresquaresquaresquaresquares":7620,"boss":7621,"belt":7622,"cart":7623,"din":7624,"fat":7625,"fro":7626,"ghhh":7627,"guns":7628,"hart":7629,"iour":7630,"meth":7631,"moon":7632,"oit":7633,"oise":7634,"pole":7635,"pipe":7636,"qa":7637,"rp":7638,"rel":7639,"rick":7640,"tm":7641,"worms":7642,"Ġion":7643,"Ġone":7644,"Ġerm":7645,"Ġahahahah":7646,"Ġosh":7647,"erated":7648,"erve":7649,"inally":7650,"Ġsuu":7651,"Ġsatur":7652,"anie":7653,"aney":7654,"onium":7655,"Ġcag":7656,"Ġcity":7657,"Ġcof":7658,"enan":7659,"atisf":7660,"alian":7661,"Ġpys":7662,"Ġpeck":7663,"Ġpeng":7664,"Ġbuc":7665,"Ġbond":7666,"Ġbadd":7667,"Ġbogg":7668,"Ġbubb":7669,"Ġbegg":7670,"Ġmew":7671,"ingu":7672,"orate":7673,"Ġdc":7674,"Ġduu":7675,"Ġdock":7676,"Ġdicks":7677,"Ġdinos":7678,"Ġtch":7679,"Ġtime":7680,"itates":7681,"itute":7682,"Ġran":7683,"Ġroh":7684,"Ġrole":7685,"Ġfot":7686,"Ġfern":7687,"Ġfurr":7688,"Ġfudg":7689,"Ġhhh":7690,"Ġhahh":7691,"uni":7692,"elor":7693,"Ġgim":7694,"Ġwann":7695,"Ġworm":7696,"Ġwald":7697,"amous":7698,"Ġlys":7699,"Ġlust":7700,"Ġlittle":7701,"chair":7702,"Ġnep":7703,"Ġnause":7704,"abad":7705,"aboy":7706,"Ġeaster":7707,"Ġkem":7708,"Ġkings":7709,"Ġkron":7710,"reams":7711,"Ġvs":7712,"Ġved":7713,"Ġvom":7714,"Ġunle":7715,"Ġuncr":7716,"rry":7717,"Ġjung":7718,"Ġsting":7719,"Ġstair":7720,"Ġstamp":7721,"Ġstaff":7722,"istry":7723,"estim":7724,"they":7725,"akis":7726,"Ġshir":7727,"Ġshock":7728,"Ġshould":7729,"Ġreally":7730,"odi":7731,"Ġthel":7732,"Ġthous":7733,"uble":7734,"Ġya":7735,"Ġyuu":7736,"illions":7737,"Ġspot":7738,"Ġspont":7739,"obil":7740,"eyed":7741,"Ġtrig":7742,"Ġtrist":7743,"Ġtrust":7744,"ava":7745,"awks":7746,"Ġscro":7747,"Ġscul":7748,"ewr":7749,"Ġwhir":7750,"Ġwheat":7751,"athan":7752,"Ġcritic":7753,"Ġflip":7754,"Ġbran":7755,"Ġbrid":7756,"Ġarn":7757,"Ġarab":7758,"Ġarist":7759,"yse":7760,"efl":7761,"ourse":7762,"ainer":7763,"Ġlever":7764,"Ġdisass":7765,"Ġcompr":7766,"ooooooooooo":7767,"phant":7768,"atedly":7769,"Ġclip":7770,"Ġclown":7771,"zzle":7772,"Ġslack":7773,"Ġquiet":7774,"attle":7775,"orno":7776,"Ġamm":7777,"ording":7778,"Ġabst":7779,"itties":7780,"hhhhhhhhhhhhhhh":7781,"Ġsmell":7782,"ccck":7783,"Ġprepar":7784,"axed":7785,"inton":7786,"pped":7787,"onde":7788,"Ġresur":7789,"lingly":7790,"Ġorb":7791,"unters":7792,"romb":7793,"eepy":7794,"spot":7795,"inng":7796,"Ġdece":7797,"aja":7798,"Ġcomple":7799,"Ġagain":7800,"oopers":7801,"ueing":7802,"Ġtwent":7803,"Ġmanuf":7804,"Ġguid":7805,"Ġguild":7806,"Ġappend":7807,"Ġautop":7808,"etric":7809,"umming":7810,"Ġbrew":7811,"idding":7812,"aneous":7813,"aurs":7814,"skin":7815,"Ġuz":7816,"Ġqw":7817,"Ġbrok":7818,"uchi":7819,"Ġpsy":7820,"Ġislam":7821,"oshi":7822,"ween":7823,"eeker":7824,"nsfw":7825,"Ġepis":7826,"oogle":7827,"worker":7828,"Ġcamel":7829,"Ġfrequ":7830,"Ġsynchron":7831,"Ġfurn":7832,"Ġcharl":7833,"Ġdiscip":7834,"Ġdivers":7835,"ievable":7836,"loader":7837,"playing":7838,"Ġactual":7839,"Ġgoat":7840,"mount":7841,"Ġbirds":7842,"Ġinnoc":7843,"Ġunbel":7844,"Ġoccup":7845,"abilities":7846,"Ġaeros":7847,"Ġdishon":7848,"Ġtyrann":7849,"oraoraoraoraoraoraoraora":7850,"Ġejac":7851,"Ġmoistur":7852,"irclejerk":7853,"advice":7854,"reddits":7855,"bay":7856,"bles":7857,"bitch":7858,"bars":7859,"brain":7860,"boob":7861,"city":7862,"fill":7863,"fart":7864,"fund":7865,"fect":7866,"fox":7867,"hing":7868,"how":7869,"hunter":7870,"kar":7871,"kah":7872,"lut":7873,"lick":7874,"leep":7875,"luts":7876,"nick":7877,"rupt":7878,"ueh":7879,"vu":7880,"yed":7881,"zb":7882,"zers":7883,"eros":7884,"inus":7885,"Ġsock":7886,"Ġsorr":7887,"Ġsurr":7888,"esi":7889,"onians":7890,"Ġcc":7891,"Ġces":7892,"Ġcyst":7893,"Ġcamb":7894,"Ġcategor":7895,"atas":7896,"attr":7897,"atted":7898,"arys":7899,"edes":7900,"alise":7901,"Ġpam":7902,"Ġpiv":7903,"Ġpach":7904,"Ġbored":7905,"Ġmch":7906,"Ġmost":7907,"Ġmesh":7908,"Ġmyr":7909,"isco":7910,"orient":7911,"orship":7912,"Ġdans":7913,"Ġdork":7914,"Ġdais":7915,"Ġdynam":7916,"Ġtimm":7917,"Ġtask":7918,"itution":7919,"icut":7920,"icting":7921,"Ġrn":7922,"Ġrul":7923,"Ġrach":7924,"Ġrash":7925,"Ġrenn":7926,"Ġroot":7927,"Ġraff":7928,"Ġriver":7929,"Ġfs":7930,"Ġfidd":7931,"Ġhig":7932,"Ġhast":7933,"Ġhok":7934,"Ġhump":7935,"Ġhopp":7936,"uned":7937,"Ġgog":7938,"Ġgif":7939,"aaaay":7940,"Ġws":7941,"Ġwan":7942,"Ġwii":7943,"Ġweh":7944,"Ġwomen":7945,"urger":7946,"aments":7947,"rox":7948,"roids":7949,"Ġlond":7950,"Ġloom":7951,"Ġlump":7952,"Ġlarg":7953,"Ġlocal":7954,"Ġnm":7955,"Ġnih":7956,"older":7957,"olve":7958,"omatic":7959,"abit":7960,"Ġeis":7961,"Ġkush":7962,"rek":7963,"oten":7964,"apl":7965,"igate":7966,"imus":7967,"Ġvor":7968,"Ġvib":7969,"Ġjing":7970,"Ġjak":7971,"Ġjock":7972,"Ġjoj":7973,"Ġstip":7974,"istent":7975,"istance":7976,"then":7977,"akt":7978,"akak":7979,"Ġshout":7980,"sson":7981,"Ġreaaaa":7982,"ogl":7983,"ubes":7984,"Ġyard":7985,"Ġyuk":7986,"Ġyeeeeee":7987,"ibi":7988,"Ġspo":7989,"verts":7990,"Ġtrif":7991,"avor":7992,"ighs":7993,"ikan":7994,"iked":7995,"ucting":7996,"plays":7997,"trans":7998,"Ġfreel":7999,"Ġalien":8000,"efore":8001,"Ġleb":8002,"Ġleon":8003,"Ġleav":8004,"Ġclub":8005,"Ġslap":8006,"ouh":8007,"ksks":8008,"blah":8009,"blue":8010,"atingly":8011,"Ġsnugg":8012,"Ġenne":8013,"inson":8014,"Ġdramat":8015,"Ġsuppl":8016,"Ġmarv":8017,"Ġmargar":8018,"ologic":8019,"olla":8020,"oho":8021,"Ġsmack":8022,"anked":8023,"Ġoverre":8024,"axes":8025,"grad":8026,"arked":8027,"Ġstress":8028,"airy":8029,"beans":8030,"edded":8031,"unga":8032,"Ġseab":8033,"Ġdeleg":8034,"Ġdecon":8035,"ussing":8036,"Ġantagon":8037,"Ġapocal":8038,"Ġoutl":8039,"Ġmonet":8040,"Ġforb":8041,"Ġagn":8042,"Ġsqueak":8043,"Ġeven":8044,"Ġautof":8045,"Ġtransform":8046,"Ġinsan":8047,"dress":8048,"Ġhomest":8049,"ytime":8050,"Ġcorrect":8051,"aaahhh":8052,"Ġmetam":8053,"Ġmetabol":8054,"imming":8055,"eezing":8056,"Ġaccept":8057,"Ġcaps":8058,"Ġcatal":8059,"uctor":8060,"Ġinstant":8061,"Ġpurpos":8062,"Ġcurt":8063,"uttered":8064,"uttering":8065,"Ġlegitim":8066,"Ġcrew":8067,"Ġannoy":8068,"Ġsynthes":8069,"Ġparticip":8070,"Ġosc":8071,"ifters":8072,"Ġsoup":8073,"Ġtrail":8074,"Ġokay":8075,"Ġphilosoph":8076,"Ġdigit":8077,"mission":8078,"Ġvirg":8079,"Ġexperiment":8080,"children":8081,"Ġexhib":8082,"ffffffffffffffff":8083,"Ġbastard":8084,"osphere":8085,"brbrbrbr":8086,"Ġthereal":8087,"Ġfluor":8088,"Ġchurch":8089,"Ġmaterial":8090,"appropr":8091,"auc":8092,"bx":8093,"bugs":8094,"corn":8095,"cape":8096,"fet":8097,"finger":8098,"had":8099,"hands":8100,"jc":8101,"jam":8102,"jokes":8103,"kle":8104,"nw":8105,"names":8106,"pas":8107,"pig":8108,"rub":8109,"rine":8110,"uity":8111,"uana":8112,"vey":8113,"vania":8114,"wings":8115,"wars":8116,"wait":8117,"Ġeeeee":8118,"erl":8119,"Ġsb":8120,"Ġsf":8121,"Ġsach":8122,"Ġsuk":8123,"Ġseem":8124,"Ġsarc":8125,"Ġsieg":8126,"esk":8127,"esed":8128,"Ġcz":8129,"Ġcaaaa":8130,"Ġcours":8131,"atem":8132,"Ġpans":8133,"Ġpett":8134,"Ġpudd":8135,"Ġbound":8136,"Ġbonn":8137,"Ġbacter":8138,"Ġmii":8139,"Ġmug":8140,"Ġmine":8141,"Ġmint":8142,"Ġmeet":8143,"Ġmumm":8144,"isations":8145,"orus":8146,"Ġdart":8147,"Ġdamp":8148,"Ġdaaaaaa":8149,"Ġdipl":8150,"Ġtc":8151,"Ġtyl":8152,"Ġtarr":8153,"Ġtake":8154,"Ġtourn":8155,"icon":8156,"icians":8157,"Ġridg":8158,"lege":8159,"Ġfi":8160,"Ġfool":8161,"Ġfork":8162,"Ġfffff":8163,"Ġhim":8164,"Ġhour":8165,"Ġgeb":8166,"Ġgov":8167,"Ġgoth":8168,"Ġgild":8169,"Ġgimm":8170,"Ġgosh":8171,"Ġgoz":8172,"Ġward":8173,"Ġworr":8174,"ilian":8175,"urch":8176,"urate":8177,"amos":8178,"etor":8179,"Ġleeee":8180,"Ġless":8181,"Ġlug":8182,"Ġlenn":8183,"Ġlumber":8184,"Ġeck":8185,"Ġkro":8186,"Ġkiw":8187,"idos":8188,"idoc":8189,"agog":8190,"ulas":8191,"ooooow":8192,"emin":8193,"Ġvest":8194,"Ġoph":8195,"Ġunion":8196,"Ġunse":8197,"aht":8198,"Ġjs":8199,"Ġjeb":8200,"Ġjeh":8201,"Ġjacks":8202,"Ġjesus":8203,"owitz":8204,"ivable":8205,"Ġstom":8206,"Ġstag":8207,"Ġstard":8208,"cking":8209,"estation":8210,"Ġchok":8211,"thel":8212,"Ġshiv":8213,"Ġreap":8214,"Ġreplic":8215,"iza":8216,"izable":8217,"odel":8218,"Ġthir":8219,"Ġtheg":8220,"ieves":8221,"Ġyel":8222,"Ġyest":8223,"Ġyous":8224,"vern":8225,"ardi":8226,"eyour":8227,"Ġcongress":8228,"eplay":8229,"ickt":8230,"ebooks":8231,"egen":8232,"iken":8233,"awh":8234,"awing":8235,"arten":8236,"Ġzw":8237,"Ġzen":8238,"Ġzab":8239,"Ġzip":8240,"Ġzeal":8241,"Ġblas":8242,"Ġscen":8243,"Ġwhoop":8244,"exuals":8245,"Ġpric":8246,"Ġproff":8247,"plate":8248,"try":8249,"truck":8250,"Ġfrik":8251,"Ġalm":8252,"Ġarrr":8253,"eft":8254,"Ġgram":8255,"Ġgroom":8256,"Ġlegg":8257,"Ġlect":8258,"Ġcomf":8259,"phones":8260,"Ġclap":8261,"Ġclav":8262,"Ġclock":8263,"eheads":8264,"eaded":8265,"Ġpho":8266,"Ġphar":8267,"pray":8268,"Ġskinn":8269,"iches":8270,"Ġenh":8271,"Ġcoal":8272,"anking":8273,"axe":8274,"Ġxy":8275,"ername":8276,"gram":8277,"Ġrecord":8278,"Ġbez":8279,"erta":8280,"amma":8281,"unty":8282,"brook":8283,"usher":8284,"Ġinternet":8285,"ophren":8286,"otten":8287,"spec":8288,"Ġdeff":8289,"yday":8290,"when":8291,"Ġapr":8292,"glers":8293,"Ġmanif":8294,"unking":8295,"ossed":8296,"version":8297,"Ġupt":8298,"Ġweight":8299,"Ġsque":8300,"Ġindepend":8301,"hearted":8302,"Ġsupercal":8303,"Ġtransc":8304,"Ġdepr":8305,"Ġdeprec":8306,"Ġburger":8307,"Ġremem":8308,"Ġinfin":8309,"Ġmete":8310,"Ġmetaph":8311,"itioning":8312,"Ġaccum":8313,"ochrom":8314,"Ġcapit":8315,"eeked":8316,"worthy":8317,"ularly":8318,"wrap":8319,"Ġdoug":8320,"Ġmegap":8321,"Ġghos":8322,"Ġexped":8323,"Ġdevelop":8324,"laugh":8325,"Ġfacep":8326,"Ġcamer":8327,"Ġairb":8328,"upport":8329,"uuuun":8330,"Ġroboc":8331,"Ġdogs":8332,"Ġcondem":8333,"Ġnecroph":8334,"Ġbutth":8335,"Ġactu":8336,"Ġarchit":8337,"urned":8338,"Ġyoun":8339,"lected":8340,"Ġreneg":8341,"Ġchristian":8342,"Ġwaterm":8343,"Ġjohnn":8344,"walking":8345,"Ġdemonstr":8346,"dddddddddddddddd":8347,"ylglutamyl":8348,"Ġvoic":8349,"standing":8350,"music":8351,"Ġacknow":8352,"Ġsodom":8353,"Ġneighb":8354,"Ġbubble":8355,"Ġharmon":8356,"Ġenglish":8357,"othingwrong":8358,"Ġdermat":8359,"boo":8360,"buck":8361,"cards":8362,"dot":8363,"doll":8364,"falls":8365,"gre":8366,"has":8367,"ients":8368,"kan":8369,"lp":8370,"lis":8371,"lty":8372,"lds":8373,"mine":8374,"pid":8375,"pies":8376,"race":8377,"tra":8378,"uos":8379,"vp":8380,"witch":8381,"zd":8382,"Ġort":8383,"Ġaaaaaaaaaaaaaaaaaaaaaaaaaaaaaaaa":8384,"Ġump":8385,"Ġitch":8386,"Ġestr":8387,"Ġuuuuuu":8388,"erable":8389,"inin":8390,"inia":8391,"inals":8392,"infl":8393,"innnn":8394,"Ġsoo":8395,"Ġsoooo":8396,"Ġsell":8397,"Ġsard":8398,"aaat":8399,"Ġcog":8400,"Ġcyr":8401,"eding":8402,"Ġply":8403,"Ġbard":8404,"Ġbong":8405,"Ġmj":8406,"Ġmuu":8407,"Ġmog":8408,"Ġmood":8409,"Ġmons":8410,"Ġmight":8411,"Ġmitt":8412,"Ġmoll":8413,"Ġmmmmm":8414,"Ġmoch":8415,"Ġmatur":8416,"Ġmigr":8417,"Ġduff":8418,"Ġderr":8419,"Ġtj":8420,"Ġtann":8421,"itious":8422,"icz":8423,"icism":8424,"ictions":8425,"Ġrok":8426,"Ġruff":8427,"Ġrox":8428,"Ġryth":8429,"Ġfj":8430,"Ġfier":8431,"Ġfuuuuuuuu":8432,"Ġfunction":8433,"Ġhp":8434,"Ġhort":8435,"Ġgum":8436,"Ġgate":8437,"Ġgain":8438,"aaaaat":8439,"Ġwj":8440,"Ġwu":8441,"Ġwink":8442,"Ġwaaaaaa":8443,"urk":8444,"urts":8445,"adon":8446,"Ġlup":8447,"Ġlaf":8448,"Ġloon":8449,"Ġni":8450,"Ġnoo":8451,"Ġnest":8452,"Ġnucle":8453,"aber":8454,"abra":8455,"lyph":8456,"Ġeuph":8457,"Ġkc":8458,"Ġkell":8459,"Ġkyr":8460,"idor":8461,"otiv":8462,"apaw":8463,"entiv":8464,"ulars":8465,"Ġvall":8466,"Ġober":8467,"aham":8468,"ayin":8469,"Ġjub":8470,"iste":8471,"istas":8472,"andi":8473,"aaaaaaaaaaaaa":8474,"akh":8475,"akov":8476,"Ġshoul":8477,"quet":8478,"oga":8479,"oding":8480,"ifically":8481,"Ġyaaaa":8482,"Ġyug":8483,"Ġspy":8484,"Ġspic":8485,"vered":8486,"eyou":8487,"eptions":8488,"Ġtram":8489,"ishi":8490,"eballs":8491,"egan":8492,"ikers":8493,"awed":8494,"Ġzeb":8495,"ewood":8496,"Ġwhee":8497,"Ġwhal":8498,"athon":8499,"ensis":8500,"Ġpractic":8501,"Ġcrus":8502,"Ġcrip":8503,"Ġcrapp":8504,"Ġcrust":8505,"achers":8506,"Ġbry":8507,"Ġgroo":8508,"gghhh":8509,"Ġanh":8510,"Ġcla":8511,"pering":8512,"Ġslam":8513,"berger":8514,"Ġimg":8515,"Ġquack":8516,"Ġacr":8517,"Ġaccl":8518,"Ġphall":8519,"Ġampl":8520,"blind":8521,"ethyl":8522,"pring":8523,"Ġsnack":8524,"Ġaband":8525,"clips":8526,"Ġdress":8527,"Ġperpet":8528,"ohmygod":8529,"anka":8530,"anky":8531,"Ġoverth":8532,"Ġparap":8533,"Ġparaph":8534,"Ġemot":8535,"axing":8536,"uuuuuuuuu":8537,"Ġglow":8538,"Ġreserv":8539,"ammit":8540,"flower":8541,"eeeer":8542,"ushy":8543,"eddon":8544,"Ġinterview":8545,"Ġheal":8546,"letes":8547,"Ġseas":8548,"speak":8549,"inners":8550,"Ġmisst":8551,"aji":8552,"usses":8553,"why":8554,"Ġapar":8555,"uality":8556,"Ġmonog":8557,"Ġforc":8558,"Ġforce":8559,"Ġagon":8560,"Ġtwitch":8561,"addle":8562,"Ġdesign":8563,"Ġintegr":8564,"Ġintellig":8565,"Ġupst":8566,"wwwwwww":8567,"Ġrept":8568,"Ġweather":8569,"Ġsquish":8570,"Ġauto":8571,"tech":8572,"Ġindivid":8573,"heit":8574,"Ġsuperd":8575,"erville":8576,"oads":8577,"forc":8578,"Ġuv":8579,"Ġatom":8580,"Ġremember":8581,"Ġbackp":8582,"Ġundes":8583,"Ġcommod":8584,"Ġmicrow":8585,"Ġmicrop":8586,"Ġgreas":8587,"Ġcrotch":8588,"Ġdeliver":8589,"Ġcatastroph":8590,"liner":8591,"ijk":8592,"prot":8593,"Ġdoes":8594,"Ġmedi":8595,"utsch":8596,"Ġsimil":8597,"abba":8598,"abbit":8599,"Ġexpect":8600,"Ġuncont":8601,"Ġtimet":8602,"ableness":8603,"Ġconcept":8604,"Ġcocks":8605,"Ġunfortun":8606,"ressed":8607,"Ġextra":8608,"attered":8609,"Ġmurd":8610,"Ġplayt":8611,"omping":8612,"Ġhydroc":8613,"yyyyyyyyyy":8614,"breaking":8615,"loaded":8616,"Ġlibr":8617,"Ġliber":8618,"Ġbraz":8619,"Ġencour":8620,"Ġrespect":8621,"Ġdomest":8622,"Ġsanit":8623,"Ġladyb":8624,"Ġdoct":8625,"ference":8626,"Ġobserv":8627,"Ġcartoon":8628,"america":8629,"Ġjuic":8630,"Ġignor":8631,"Ġaugust":8632,"Ġdifferent":8633,"Ġpharmac":8634,"Ġforever":8635,"Ġfertil":8636,"Ġcaliforn":8637,"bec":8638,"bones":8639,"buster":8640,"ction":8641,"cience":8642,"dam":8643,"dark":8644,"drop":8645,"eus":8646,"fing":8647,"feed":8648,"gon":8649,"gold":8650,"his":8651,"hur":8652,"hop":8653,"hawk":8654,"iom":8655,"jing":8656,"kel":8657,"kie":8658,"kies":8659,"mand":8660,"matter":8661,"pill":8662,"part":8663,"poon":8664,"rc":8665,"rk":8666,"tag":8667,"uis":8668,"uates":8669,"uve":8670,"wide":8671,"wreck":8672,"yk":8673,"Ġern":8674,"Ġork":8675,"Ġugg":8676,"Ġaaaaaaaaaa":8677,"inted":8678,"Ġsaa":8679,"Ġsend":8680,"Ġseed":8681,"Ġsect":8682,"Ġserr":8683,"Ġsams":8684,"Ġssss":8685,"Ġsooth":8686,"aned":8687,"anol":8688,"aak":8689,"onne":8690,"Ġcic":8691,"Ġcumb":8692,"Ġcaff":8693,"Ġcaul":8694,"Ġcraft":8695,"atan":8696,"ooted":8697,"edg":8698,"edge":8699,"aland":8700,"alone":8701,"Ġpest":8702,"Ġpff":8703,"Ġpard":8704,"Ġpeep":8705,"Ġboth":8706,"Ġbaff":8707,"Ġbitter":8708,"Ġmorm":8709,"Ġmct":8710,"Ġmoor":8711,"Ġmirr":8712,"issss":8713,"orig":8714,"oration":8715,"Ġdeeee":8716,"Ġdeth":8717,"Ġdough":8718,"Ġduch":8719,"Ġdimm":8720,"Ġtn":8721,"Ġting":8722,"Ġtoooo":8723,"Ġtable":8724,"Ġtons":8725,"Ġtomb":8726,"itely":8727,"itics":8728,"itled":8729,"iture":8730,"itutes":8731,"Ġrw":8732,"Ġraa":8733,"Ġriiii":8734,"Ġroc":8735,"Ġreeeee":8736,"lease":8737,"Ġfay":8738,"Ġfrog":8739,"Ġhahah":8740,"Ġhust":8741,"Ġhagg":8742,"Ġgend":8743,"Ġgett":8744,"Ġguns":8745,"acus":8746,"Ġwm":8747,"Ġwim":8748,"Ġwiz":8749,"ilk":8750,"urrrr":8751,"eti":8752,"Ġlaaaa":8753,"Ġloop":8754,"Ġlma":8755,"chos":8756,"Ġnh":8757,"Ġnun":8758,"Ġnib":8759,"osp":8760,"Ġeug":8761,"Ġeps":8762,"Ġku":8763,"Ġkard":8764,"Ġkath":8765,"Ġkash":8766,"Ġkern":8767,"idon":8768,"otics":8769,"imen":8770,"emaster":8771,"employ":8772,"Ġvet":8773,"Ġvot":8774,"Ġvog":8775,"Ġvod":8776,"Ġverr":8777,"Ġvalk":8778,"Ġvisc":8779,"Ġvaxx":8780,"Ġunit":8781,"Ġunob":8782,"Ġundr":8783,"Ġinqu":8784,"Ġinquis":8785,"ayt":8786,"ayy":8787,"stant":8788,"story":8789,"Ġstark":8790,"opin":8791,"Ġchow":8792,"Ġchast":8793,"Ġchanc":8794,"Ġchains":8795,"through":8796,"Ġsha":8797,"Ġsheep":8798,"Ġreaa":8799,"Ġreun":8800,"Ġreich":8801,"Ġairl":8802,"uple":8803,"Ġthal":8804,"Ġthanks":8805,"ifter":8806,"iiiiiiiiiiiiii":8807,"Ġyol":8808,"Ġyaaaaaa":8809,"ibo":8810,"Ġspart":8811,"Ġspons":8812,"ardly":8813,"Ġconcl":8814,"Ġconcr":8815,"Ġconvert":8816,"ocate":8817,"Ġtrium":8818,"angu":8819,"Ġextern":8820,"Ġzo":8821,"Ġzer":8822,"Ġzan":8823,"Ġblam":8824,"Ġbloom":8825,"Ġscout":8826,"exp":8827,"oving":8828,"Ġcray":8829,"trip":8830,"Ġflab":8831,"Ġfrustr":8832,"Ġalter":8833,"ources":8834,"Ġlemm":8835,"apps":8836,"appin":8837,"tty":8838,"tting":8839,"Ġslug":8840,"bering":8841,"Ġpla":8842,"Ġplural":8843,"inding":8844,"inders":8845,"ialism":8846,"eva":8847,"blow":8848,"blades":8849,"Ġadam":8850,"Ġadol":8851,"Ġadult":8852,"Ġenjoy":8853,"Ġcoch":8854,"clothes":8855,"Ġdrac":8856,"Ġperman":8857,"Ġmari":8858,"Ġsched":8859,"Ġoverp":8860,"crack":8861,"olders":8862,"aily":8863,"integr":8864,"Ġglas":8865,"Ġasst":8866,"Ġreson":8867,"fruit":8868,"romagn":8869,"ennec":8870,"Ġmccl":8871,"olem":8872,"beam":8873,"Ġelder":8874,"Ġelong":8875,"ooters":8876,"Ġmispr":8877,"umba":8878,"Ġanton":8879,"Ġantib":8880,"Ġapplic":8881,"Ġcompan":8882,"Ġaggress":8883,"Ġmanag":8884,"Ġguill":8885,"ihih":8886,"Ġwein":8887,"urred":8888,"engine":8889,"ybody":8890,"Ġboat":8891,"Ġbounc":8892,"Ġinsign":8893,"Ġimpro":8894,"Ġscrib":8895,"ytic":8896,"Ġbrock":8897,"queen":8898,"Ġonly":8899,"aaaan":8900,"Ġconsist":8901,"eeeeeer":8902,"rosis":8903,"write":8904,"Ġsomething":8905,"raining":8906,"reading":8907,"peop":8908,"tttttt":8909,"ouche":8910,"legs":8911,"ucture":8912,"Ġcurs":8913,"aptor":8914,"Ġeveryth":8915,"enching":8916,"Ġlaund":8917,"Ġsolid":8918,"Ġsynth":8919,"Ġholy":8920,"Ġolig":8921,"Ġpenetr":8922,"Ġtoast":8923,"Ġcondesc":8924,"baum":8925,"ellect":8926,"player":8927,"vention":8928,"Ġbullet":8929,"Ġrocket":8930,"Ġmissp":8931,"Ġpowers":8932,"Ġsymb":8933,"worldproblems":8934,"Ġmolest":8935,"Ġdoctor":8936,"Ġcaes":8937,"Ġsummer":8938,"wwwwwwwwwwwwwwww":8939,"Ġvirgin":8940,"Ġpaed":8941,"eboard":8942,"Ġraven":8943,"Ġcomplain":8944,"charge":8945,"Ġcaptain":8946,"Ġquarter":8947,"Ġneighbor":8948,"Ġdropp":8949,"Ġpressur":8950,"Ġeconom":8951,"Ġinvestig":8952,"Ġadministr":8953,"Ġocean":8954,"tober":8955,"Ġfratern":8956,"Ġhospital":8957,"Ġprohib":8958,"bv":8959,"best":8960,"beck":8961,"boobs":8962,"cus":8963,"cro":8964,"cious":8965,"cunt":8966,"dos":8967,"far":8968,"fors":8969,"fighting":8970,"gent":8971,"hee":8972,"hair":8973,"hammer":8974,"iative":8975,"judg":8976,"keys":8977,"keeping":8978,"lk":8979,"lap":8980,"lips":8981,"mad":8982,"math":8983,"made":8984,"nav":8985,"note":8986,"neys":8987,"ount":8988,"pu":8989,"punch":8990,"pupp":8991,"qd":8992,"qw":8993,"rl":8994,"ride":8995,"tom":8996,"vee":8997,"wald":8998,"xr":8999,"yon":9000,"zie":9001,"Ġire":9002,"erious":9003,"inet":9004,"inent":9005,"inous":9006,"inian":9007,"inting":9008,"Ġses":9009,"Ġsack":9010,"Ġsik":9011,"Ġsans":9012,"Ġsear":9013,"Ġsust":9014,"Ġsail":9015,"Ġsearch":9016,"Ġsystem":9017,"eson":9018,"onald":9019,"onomy":9020,"Ġcoooo":9021,"Ġcak":9022,"Ġcaf":9023,"Ġcunn":9024,"enko":9025,"arre":9026,"argh":9027,"ooh":9028,"alising":9029,"Ġping":9030,"Ġpud":9031,"Ġpey":9032,"Ġpoc":9033,"Ġpawn":9034,"Ġbj":9035,"Ġbess":9036,"Ġbash":9037,"Ġbitt":9038,"Ġbalk":9039,"Ġborg":9040,"Ġbisc":9041,"Ġmow":9042,"Ġmiz":9043,"Ġmcr":9044,"Ġmits":9045,"Ġmade":9046,"Ġmuj":9047,"isd":9048,"isn":9049,"isan":9050,"Ġdas":9051,"Ġdif":9052,"Ġdens":9053,"Ġdign":9054,"Ġdutch":9055,"Ġtv":9056,"Ġtink":9057,"Ġtidd":9058,"Ġteeth":9059,"itle":9060,"itations":9061,"Ġrous":9062,"Ġrang":9063,"Ġreed":9064,"Ġrhe":9065,"Ġrunn":9066,"Ġrrrr":9067,"Ġroch":9068,"legg":9069,"Ġfon":9070,"Ġfah":9071,"Ġfow":9072,"Ġfand":9073,"Ġfaz":9074,"Ġfake":9075,"Ġfather":9076,"asant":9077,"Ġhuu":9078,"Ġheb":9079,"Ġhans":9080,"Ġhight":9081,"Ġhect":9082,"Ġhoop":9083,"Ġhunn":9084,"Ġhouse":9085,"Ġhahahh":9086,"eles":9087,"elier":9088,"elike":9089,"Ġgg":9090,"Ġgm":9091,"Ġgin":9092,"Ġgom":9093,"Ġgoooooooo":9094,"Ġgull":9095,"Ġgaff":9096,"acular":9097,"Ġwen":9098,"Ġwig":9099,"Ġwaz":9100,"Ġwaf":9101,"Ġwoll":9102,"ilin":9103,"urious":9104,"rost":9105,"Ġlc":9106,"Ġloy":9107,"Ġlyc":9108,"Ġlobb":9109,"chl":9110,"chest":9111,"Ġnip":9112,"Ġnann":9113,"ioning":9114,"abus":9115,"Ġeul":9116,"Ġkun":9117,"Ġkos":9118,"Ġkra":9119,"Ġkeb":9120,"Ġkerb":9121,"idad":9122,"aple":9123,"agt":9124,"ulators":9125,"ecom":9126,"umans":9127,"umbo":9128,"emet":9129,"Ġoy":9130,"aholic":9131,"Ġjp":9132,"Ġjad":9133,"Ġjeeee":9134,"Ġjah":9135,"Ġjell":9136,"Ġjov":9137,"owered":9138,"staff":9139,"Ġstubb":9140,"Ġstein":9141,"opian":9142,"isty":9143,"istle":9144,"Ġchand":9145,"Ġchest":9146,"Ġchatt":9147,"Ġchore":9148,"Ġshi":9149,"Ġshut":9150,"Ġreve":9151,"Ġreinst":9152,"Ġauf":9153,"oden":9154,"odynam":9155,"Ġthin":9156,"Ġthan":9157,"ievers":9158,"alll":9159,"Ġym":9160,"illary":9161,"Ġspor":9162,"Ġspro":9163,"Ġsplin":9164,"verything":9165,"Ġconsequ":9166,"epr":9167,"Ġtril":9168,"egar":9169,"egger":9170,"egirls":9171,"shed":9172,"shaw":9173,"arte":9174,"Ġblitz":9175,"ewith":9176,"Ġprow":9177,"Ġprocl":9178,"unds":9179,"trump":9180,"achine":9181,"ocker":9182,"Ġfright":9183,"Ġbrah":9184,"efull":9185,"Ġgreed":9186,"Ġdispar":9187,"Ġanat":9188,"zza":9189,"Ġplot":9190,"yna":9191,"orses":9192,"atti":9193,"atto":9194,"Ġphosph":9195,"Ġamate":9196,"Ġadren":9197,"Ġskyd":9198,"annel":9199,"Ġenl":9200,"Ġenlight":9201,"Ġabus":9202,"insky":9203,"Ġcould":9204,"issy":9205,"Ġsuperst":9206,"Ġsuprem":9207,"Ġcarol":9208,"Ġperform":9209,"ukt":9210,"Ġmarin":9211,"Ġschr":9212,"Ġschwar":9213,"Ġoverg":9214,"Ġparent":9215,"Ġemotion":9216,"Ġxt":9217,"Ġxxxxx":9218,"ymp":9219,"ymen":9220,"Ġglitch":9221,"erns":9222,"Ġasper":9223,"Ġreck":9224,"Ġrecom":9225,"uffing":9226,"itsu":9227,"Ġbele":9228,"ertz":9229,"cough":9230,"Ġorph":9231,"frame":9232,"enna":9233,"rowed":9234,"ilda":9235,"ophone":9236,"otte":9237,"speed":9238,"umpy":9239,"uhn":9240,"ussian":9241,"fuls":9242,"Ġfores":9243,"Ġagu":9244,"Ġaggr":9245,"adda":9246,"Ġguac":9247,"Ġknee":9248,"Ġappe":9249,"Ġappear":9250,"iels":9251,"alker":9252,"ihu":9253,"Ġrepair":9254,"Ġrepublic":9255,"Ġweath":9256,"Ġevac":9257,"Ġautos":9258,"llllly":9259,"Ġindic":9260,"atron":9261,"urring":9262,"yback":9263,"Ġopin":9264,"oppy":9265,"Ġinsur":9266,"Ġimperson":9267,"Ġburd":9268,"Ġburgl":9269,"Ġscript":9270,"arna":9271,"arning":9272,"Ġremin":9273,"Ġbacks":9274,"Ġretard":9275,"Ġconsider":9276,"Ġturd":9277,"Ġbelly":9278,"Ġureth":9279,"aldi":9280,"ready":9281,"uther":9282,"Ġnotm":9283,"Ġpurch":9284,"oggers":9285,"Ġexpir":9286,"Ġatten":9287,"Ġmusic":9288,"Ġoffs":9289,"Ġcurv":9290,"Ġkhal":9291,"Ġrevolution":9292,"erstand":9293,"Ġanglic":9294,"Ġlegisl":9295,"ographers":9296,"Ġcanad":9297,"enches":9298,"barbar":9299,"elessness":9300,"oji":9301,"ojo":9302,"elda":9303,"Ġfirm":9304,"agraph":9305,"Ġposter":9306,"rection":9307,"asmic":9308,"Ġbutts":9309,"Ġequiv":9310,"Ġnegot":9311,"Ġjustic":9312,"lllly":9313,"aard":9314,"Ġeffic":9315,"ggghh":9316,"borough":9317,"Ġlady":9318,"amente":9319,"pppppppp":9320,"Ġsubsid":9321,"Ġeggs":9322,"Ġroller":9323,"Ġthems":9324,"Ġenviron":9325,"washing":9326,"Ġathe":9327,"Ġtempor":9328,"opolis":9329,"Ġmotherf":9330,"Ġdirty":9331,"ahahahahh":9332,"Ġphysi":9333,"alalalal":9334,"Ġunderstand":9335,"Ġveloc":9336,"Ġunrel":9337,"Ġpillow":9338,"Ġduplic":9339,"Ġdragons":9340,"Ġlesb":9341,"Ġlingu":9342,"bourne":9343,"Ġexecut":9344,"uberuberuberuberuberuberuberuberuberuberuberuberuberuberuberuber":9345,"itutional":9346,"Ġplagiar":9347,"Ġcigar":9348,"alrightalright":9349,"bath":9350,"bots":9351,"cu":9352,"cre":9353,"cess":9354,"cest":9355,"cell":9356,"cry":9357,"cream":9358,"cuts":9359,"dude":9360,"eating":9361,"eater":9362,"fre":9363,"hound":9364,"iee":9365,"iately":9366,"joe":9367,"kc":9368,"lc":9369,"lors":9370,"mob":9371,"masters":9372,"nas":9373,"nap":9374,"rig":9375,"rip":9376,"tap":9377,"uish":9378,"vid":9379,"vie":9380,"wad":9381,"xn":9382,"zip":9383,"Ġiiii":9384,"Ġith":9385,"Ġott":9386,"eron":9387,"erted":9388,"erting":9389,"inen":9390,"Ġsg":9391,"Ġsic":9392,"Ġsau":9393,"Ġsamb":9394,"Ġsuns":9395,"esw":9396,"anism":9397,"aahh":9398,"onf":9399,"onst":9400,"Ġcg":9401,"Ġcen":9402,"Ġcun":9403,"Ġcec":9404,"Ġcyl":9405,"Ġcout":9406,"Ġcush":9407,"Ġcaj":9408,"Ġcigg":9409,"eni":9410,"enas":9411,"atc":9412,"aras":9413,"arion":9414,"eex":9415,"eeting":9416,"along":9417,"Ġpss":9418,"Ġpenc":9419,"Ġpaj":9420,"Ġpants":9421,"Ġbf":9422,"Ġbom":9423,"Ġbent":9424,"Ġbrr":9425,"Ġbup":9426,"Ġbeb":9427,"Ġbout":9428,"Ġbeng":9429,"Ġbuch":9430,"Ġbait":9431,"Ġmf":9432,"Ġmec":9433,"Ġmop":9434,"Ġmey":9435,"Ġmick":9436,"Ġmead":9437,"Ġmof":9438,"Ġmanc":9439,"Ġmoos":9440,"Ġmiy":9441,"Ġmerk":9442,"isst":9443,"orial":9444,"Ġdund":9445,"Ġdear":9446,"Ġdich":9447,"Ġdaf":9448,"Ġtep":9449,"Ġtunn":9450,"itg":9451,"icion":9452,"Ġrent":9453,"Ġrik":9454,"Ġrump":9455,"Ġrigg":9456,"Ġragn":9457,"Ġraid":9458,"Ġranch":9459,"Ġfh":9460,"Ġfis":9461,"Ġfii":9462,"Ġfum":9463,"Ġfuc":9464,"Ġfeh":9465,"Ġfok":9466,"Ġfett":9467,"Ġfashion":9468,"Ġhamp":9469,"Ġhhhh":9470,"Ġgrop":9471,"Ġgene":9472,"Ġgift":9473,"Ġgender":9474,"acement":9475,"Ġwad":9476,"Ġwab":9477,"Ġweg":9478,"ilating":9479,"urv":9480,"eterm":9481,"Ġlaa":9482,"Ġlii":9483,"Ġlill":9484,"Ġlok":9485,"Ġlater":9486,"Ġlips":9487,"chester":9488,"Ġnaaaa":9489,"Ġnach":9490,"Ġnof":9491,"Ġnail":9492,"Ġnext":9493,"Ġnether":9494,"Ġnintend":9495,"erse":9496,"aban":9497,"Ġked":9498,"idents":9499,"otype":9500,"apol":9501,"entw":9502,"imer":9503,"impl":9504,"ulant":9505,"ecent":9506,"ecast":9507,"esssss":9508,"emat":9509,"Ġvw":9510,"Ġviet":9511,"Ġunk":9512,"Ġunen":9513,"Ġuncomp":9514,"Ġinev":9515,"Ġjn":9516,"Ġjr":9517,"Ġjem":9518,"Ġjelly":9519,"start":9520,"stands":9521,"style":9522,"Ġstee":9523,"Ġstem":9524,"Ġstall":9525,"Ġstell":9526,"isto":9527,"Ġcheek":9528,"thread":9529,"Ġshib":9530,"Ġshack":9531,"ipher":9532,"anti":9533,"anton":9534,"antis":9535,"terr":9536,"Ġaq":9537,"Ġairc":9538,"upts":9539,"odon":9540,"odont":9541,"Ġthi":9542,"Ġthirst":9543,"ubi":9544,"uben":9545,"ifty":9546,"Ġyt":9547,"Ġyoooo":9548,"verted":9549,"Ġconqu":9550,"eprot":9551,"endent":9552,"Ġtrap":9553,"avirus":9554,"eeeeeeeeeeeee":9555,"eeeeeeeeeeeeeee":9556,"angled":9557,"eboy":9558,"she":9559,"shs":9560,"shell":9561,"Ġexpec":9562,"aware":9563,"Ġzig":9564,"ewed":9565,"ewise":9566,"ensional":9567,"Ġprel":9568,"Ġproof":9569,"Ġpreem":9570,"Ġpropr":9571,"Ġpropos":9572,"ansl":9573,"aaaaaaaaaaaaaaaaaa":9574,"tric":9575,"achs":9576,"Ġflirt":9577,"Ġfren":9578,"Ġfred":9579,"Ġfract":9580,"Ġfreez":9581,"Ġfranch":9582,"Ġbras":9583,"Ġbray":9584,"Ġargu":9585,"yson":9586,"Ġanonym":9587,"phr":9588,"phy":9589,"phet":9590,"Ġslip":9591,"Ġimpress":9592,"Ġplate":9593,"Ġplumb":9594,"Ġquot":9595,"inded":9596,"iert":9597,"evers":9598,"icher":9599,"Ġsnot":9600,"Ġencl":9601,"Ġabl":9602,"Ġabsc":9603,"itto":9604,"Ġcarth":9605,"Ġperd":9606,"ukew":9607,"Ġmary":9608,"Ġswing":9609,"Ġswamp":9610,"oyed":9611,"oholic":9612,"Ġempt":9613,"cratch":9614,"ooky":9615,"actory":9616,"olded":9617,"ermen":9618,"Ġglitter":9619,"ancies":9620,"Ġrecol":9621,"Ġbeer":9622,"arring":9623,"coats":9624,"Ġstrugg":9625,"brand":9626,"flix":9627,"floor":9628,"coming":9629,"Ġinterrog":9630,"otti":9631,"armed":9632,"esha":9633,"Ġmiscon":9634,"umbles":9635,"Ġantih":9636,"Ġapost":9637,"Ġassoc":9638,"Ġmonster":9639,"Ġcompreh":9640,"Ġtwink":9641,"Ġmanh":9642,"Ġdesper":9643,"Ġguess":9644,"Ġappra":9645,"tones":9646,"Ġweapon":9647,"inesis":9648,"Ġincest":9649,"Ġsuperf":9650,"ummer":9651,"engers":9652,"Ġimposs":9653,"Ġhyster":9654,"Ġscrap":9655,"ergy":9656,"Ġcommand":9657,"Ġcommunic":9658,"balling":9659,"Ġsalam":9660,"bbb":9661,"Ġgreens":9662,"Ġrelax":9663,"Ġretro":9664,"Ġisol":9665,"Ġdeliber":9666,"Ġaccus":9667,"ochondr":9668,"iji":9669,"ularity":9670,"writers":9671,"Ġrefin":9672,"ygen":9673,"knight":9674,"zzzzz":9675,"Ġreview":9676,"Ġtimes":9677,"Ġahukew":9678,"Ġgods":9679,"iquette":9680,"Ġannihil":9681,"bergs":9682,"Ġworth":9683,"Ġeyeb":9684,"Ġsandwich":9685,"Ġmayb":9686,"Ġlabr":9687,"burgers":9688,"arianism":9689,"played":9690,"Ġabsorb":9691,"Ġprecip":9692,"Ġcircle":9693,"Ġcircums":9694,"Ġetern":9695,"Ġpassion":9696,"Ġsymph":9697,"ibrill":9698,"Ġportr":9699,"Ġbecaus":9700,"Ġmenstr":9701,"ibbles":9702,"archy":9703,"Ġbodys":9704,"Ġsummar":9705,"opaths":9706,"iatly":9707,"Ġhabit":9708,"Ġwithdraw":9709,"Ġdimin":9710,"Ġsuccess":9711,"bowl":9712,"Ġmasterb":9713,"Ġrefresh":9714,"Ġmotherfuck":9715,"center":9716,"Ġquarant":9717,"Ġsyll":9718,"Ġcriminal":9719,"Ġadmir":9720,"Ġcircumc":9721,"undundundund":9722,"Ġnoct":9723,"Ġlubric":9724,"ometric":9725,"Ġfollow":9726,"ssssssssssssssssssssssssssssssssssssssssssssssssssssssssssssssss":9727,"Ġtotallynot":9728,"Ġsuggest":9729,"Ġarachn":9730,"Ġenneennec":9731,"Ġsupercalif":9732,"ohmygodohmygod":9733,"bender":9734,"cation":9735,"dee":9736,"dem":9737,"dont":9738,"deck":9739,"finder":9740,"faced":9741,"home":9742,"kv":9743,"lion":9744,"mass":9745,"meg":9746,"mode":9747,"nake":9748,"oic":9749,"pes":9750,"pant":9751,"pod":9752,"pick":9753,"paw":9754,"pear":9755,"ql":9756,"rik":9757,"rys":9758,"runner":9759,"test":9760,"uest":9761,"vw":9762,"wat":9763,"wire":9764,"waff":9765,"wife":9766,"xh":9767,"xim":9768,"yun":9769,"ybe":9770,"zies":9771,"Ġore":9772,"Ġery":9773,"Ġyyy":9774,"erat":9775,"erly":9776,"Ġside":9777,"Ġsidd":9778,"esive":9779,"Ġcach":9780,"Ġcym":9781,"Ġcrom":9782,"Ġcze":9783,"enin":9784,"atl":9785,"aran":9786,"arbon":9787,"alu":9788,"Ġpets":9789,"Ġbert":9790,"Ġbened":9791,"Ġbonk":9792,"Ġbacc":9793,"Ġbillion":9794,"Ġming":9795,"isy":9796,"orex":9797,"ority":9798,"Ġdb":9799,"Ġdac":9800,"Ġdib":9801,"Ġduuuu":9802,"Ġdyn":9803,"Ġdaz":9804,"Ġdamm":9805,"Ġdeter":9806,"Ġdirec":9807,"Ġtill":9808,"Ġtorn":9809,"Ġtrom":9810,"Ġteet":9811,"Ġtoad":9812,"itin":9813,"itly":9814,"itals":9815,"itively":9816,"icent":9817,"icult":9818,"Ġrm":9819,"Ġrus":9820,"Ġrank":9821,"lez":9822,"lees":9823,"leen":9824,"Ġfag":9825,"Ġfoss":9826,"Ġfoul":9827,"Ġferg":9828,"Ġfitz":9829,"Ġfidg":9830,"asms":9831,"Ġhew":9832,"Ġhaul":9833,"Ġhims":9834,"Ġhahahahahahahahah":9835,"Ġhammer":9836,"unnn":9837,"elight":9838,"elord":9839,"elife":9840,"Ġgaa":9841,"Ġgag":9842,"Ġgof":9843,"Ġgoon":9844,"Ġgaur":9845,"Ġwl":9846,"Ġwier":9847,"Ġwagg":9848,"iless":9849,"ilate":9850,"ilty":9851,"uration":9852,"etion":9853,"etable":9854,"roup":9855,"robe":9856,"Ġlv":9857,"Ġlal":9858,"Ġlul":9859,"Ġloot":9860,"Ġlike":9861,"Ġlife":9862,"Ġlength":9863,"chers":9864,"Ġnt":9865,"Ġnex":9866,"Ġnots":9867,"Ġnymph":9868,"olos":9869,"ersk":9870,"abouts":9871,"lyp":9872,"osi":9873,"Ġkart":9874,"Ġkeep":9875,"Ġkids":9876,"Ġkomm":9877,"really":9878,"repr":9879,"reality":9880,"utan":9881,"idian":9882,"oton":9883,"apor":9884,"igated":9885,"ulously":9886,"econom":9887,"Ġvik":9888,"Ġvegg":9889,"Ġvlad":9890,"Ġunab":9891,"Ġungr":9892,"Ġuninter":9893,"rrt":9894,"aho":9895,"Ġinb":9896,"Ġink":9897,"Ġinp":9898,"aye":9899,"Ġjib":9900,"Ġjets":9901,"Ġjosh":9902,"Ġjumps":9903,"sty":9904,"stars":9905,"Ġstef":9906,"Ġstead":9907,"Ġstars":9908,"estly":9909,"estone":9910,"Ġchup":9911,"Ġchav":9912,"Ġcharg":9913,"theh":9914,"thoughts":9915,"Ġshw":9916,"Ġshoo":9917,"Ġshiz":9918,"Ġshutt":9919,"antz":9920,"Ġrex":9921,"Ġreins":9922,"izon":9923,"Ġthy":9924,"Ġthet":9925,"Ġthom":9926,"Ġthreat":9927,"ubd":9928,"ubble":9929,"Ġyes":9930,"Ġyoo":9931,"Ġyos":9932,"Ġyep":9933,"ugar":9934,"ugger":9935,"illers":9936,"udi":9937,"Ġspel":9938,"Ġspend":9939,"ellfor":9940,"iani":9941,"astically":9942,"eba":9943,"shift":9944,"Ġexagger":9945,"Ġzor":9946,"Ġblue":9947,"Ġscoo":9948,"ewater":9949,"Ġwhatch":9950,"Ġwhole":9951,"atha":9952,"exy":9953,"exed":9954,"ovs":9955,"ensed":9956,"ensible":9957,"Ġpren":9958,"Ġprog":9959,"Ġproud":9960,"Ġproct":9961,"pless":9962,"plane":9963,"Ġcredit":9964,"unda":9965,"trap":9966,"Ġflatt":9967,"Ġfrig":9968,"Ġfrigg":9969,"Ġfreem":9970,"Ġbrack":9971,"Ġbragg":9972,"Ġare":9973,"Ġgry":9974,"gghh":9975,"ainable":9976,"ainted":9977,"ainment":9978,"Ġlead":9979,"Ġdisap":9980,"Ġdisney":9981,"Ġdisbel":9982,"Ġcompress":9983,"mania":9984,"Ġanyw":9985,"Ġcliff":9986,"Ġcluster":9987,"Ġquart":9988,"Ġquizz":9989,"ismo":9990,"ync":9991,"Ġaccomp":9992,"evol":9993,"Ġphs":9994,"Ġphyl":9995,"ofa":9996,"Ġskyw":9997,"Ġabh":9998,"clock":9999,"ormal":10000,"yps":10001,"ypants":10002,"Ġsuppress":10003,"Ġoverc":10004,"ectors":10005,"actly":10006,"actively":10007,"mmmmmmm":10008,"pping":10009,"gren":10010,"grade":10011,"atorial":10012,"atorium":10013,"ixes":10014,"Ġsubc":10015,"Ġsubl":10016,"Ġbeach":10017,"Ġstruct":10018,"encial":10019,"ennah":10020,"ennial":10021,"ereal":10022,"aue":10023,"usha":10024,"ignment":10025,"Ġelim":10026,"Ġinterl":10027,"Ġinterm":10028,"Ġheff":10029,"Ġselect":10030,"uhl":10031,"Ġdecor":10032,"aij":10033,"aiy":10034,"Ġassass":10035,"Ġknuck":10036,"Ġapple":10037,"iffe":10038,"aneously":10039,"office":10040,"ycat":10041,"scape":10042,"Ġinsert":10043,"forth":10044,"ipsy":10045,"Ġfucking":10046,"izza":10047,"ictive":10048,"enez":10049,"queaks":10050,"Ġmicron":10051,"Ġconsult":10052,"Ġaccord":10053,"Ġidiot":10054,"posting":10055,"wright":10056,"Ġurban":10057,"Ġmilitar":10058,"Ġmacro":10059,"ttttttt":10060,"Ġmoz":10061,"Ġimmobil":10062,"Ġconform":10063,"knife":10064,"ointing":10065,"asket":10066,"aults":10067,"Ġende":10068,"Ġhypoth":10069,"Ġhypocr":10070,"boxing":10071,"roller":10072,"Ġlegion":10073,"Ġradical":10074,"Ġchris":10075,"Ġcanv":10076,"ubbies":10077,"obbing":10078,"Ġdeton":10079,"Ġmicrob":10080,"Ġdowns":10081,"Ġparticul":10082,"Ġpoison":10083,"Ġpotter":10084,"Ġexplo":10085,"agree":10086,"Ġyea":10087,"Ġsemic":10088,"Ġpsychoan":10089,"Ġlibert":10090,"Ġneces":10091,"Ġabsent":10092,"Ġillustr":10093,"Ġinnov":10094,"Ġsatir":10095,"Ġpowerb":10096,"Ġphilipp":10097,"oscopy":10098,"Ġrenov":10099,"Ġprofession":10100,"Ġoxid":10101,"ylalanylalanyl":10102,"esthetic":10103,"inho":10104,"cribing":10105,"Ġpunish":10106,"opathic":10107,"Ġmistr":10108,"Ġcorresp":10109,"market":10110,"Ġchicken":10111,"Ġthrough":10112,"didn":10113,"Ġperfect":10114,"Ġultras":10115,"Ġplanet":10116,"Ġauthent":10117,"Ġliquid":10118,"Ġrandomacts":10119,"openopen":10120,"Ġnarciss":10121,"Ġreinv":10122,"Ġfabric":10123,"Ġphenomen":10124,"Ġgraff":10125,"rrrrrrrrrrrrrrrrrrrrrrrrrrrrrrrrrrrrrrrrrrrrrrrrrrrrrrrrrrrrrrrr":10126,"Ġfamiliar":10127,"ibilities":10128,"group":10129,"milk":10130,"Ġwhatever":10131,"Ġcongrat":10132,"onteennah":10133,"iiiiiiiiiiiiiiiiiiiiiiiiiiiiiiiiiiiiiiiiiiiiiiiiiiiiiiiiiiiiiiiiiiiiiiiiiiiiiiiiiiiiiiiiiiiiiiiiiiiiiiiiiiiiiiiiiiiiiiiiiiiiiiiiiiiiiiiiiiiiiiiiiiiiiiiiiiiiiiiiiiiiiiiiiiiiiiiiiiiiiiiiiiiiiiiiiiiiiiiiiiiiiiiiiiiiiiiiiiiiiiiiiiiiiiiiiiiiiiiiiiiiiiiiiiiiiiiiiiiiiiiiiiiiiiiiiiiiiiiiiiiiiiiiiiiiiiiiiiiiiiiiiiiiiiiiiiiiiiiiiiiiiiiiiiiiiiiiiiiiiiiiiiiiiiiiiiiiiiiiiiiiiiiiiiiiiiiiiiiiiiiiiiiiiiiiiiiiiiiiiiiiiiiiiiiiiiiiiiiiiiiiiiiiiiiiiiiiiiiiiiiiiiiiiiiiiiiiiiiiiiiiiiiiiiiiiiiiiiiiiiiiiiiiiiiiiiiiiiiiiiiiiiiiiiiiiiiiiiiiiiiiiiiiiiiiiiiiiiiiiiiiiiiiiiiiiiiiiiiiiiiiiiiiiiiiiiiiiiiiiiiiiiiiiiiiiiiiiiiiiiiiiiiiiiiiiiiiiiiiiiiiiiiiiiiiiiiiiiiiiiiiiiiiiiiiiiiiiiiiiiiiiiiiiiiiiiiiiiiiiiiiiiiiiiiiiiiiiiiiiiiiiiiiiiiiiiiiiiiiiiiiiiiiiiiiiiiiiiiiiiiiiiiiiiiiiiiiiiiiiiiiiiiiiiiiiiiiiiiiiiiiiiiiiiiiiiiiiiiiiiiiiiiiiiiiiiiiiiiiiiiiiiiiiiiiiiiiiiiiiiiiiiiiiiiiiiiiiiiiiiiiiiiiiiiiiiiiiiiiiiiiiiiiiiiiiiiiiiiiiiiiiiiiiiiiiiiiiiiiiiiiiiiiiiiiiiiiiiiiiiiiiiiiiiiiiiiiiiiiiiiiiiiiiiiiiiiiiiiiiiiiiiiiiiiiiiiiiiiiiiiiiiiiiiiiiiiiiiiiiiii":10134,"Ġarbitr":10135,"Ġpronounc":10136,"respons":10137,"Ġrepresent":10138,"Ġenneenneconteennah":10139,"aids":10140,"bike":10141,"bending":10142,"creen":10143,"dj":10144,"dan":10145,"dal":10146,"dies":10147,"daw":10148,"fits":10149,"fare":10150,"filled":10151,"fires":10152,"gend":10153,"giving":10154,"hall":10155,"hate":10156,"help":10157,"jes":10158,"jacks":10159,"ket":10160,"lug":10161,"last":10162,"lide":10163,"lift":10164,"map":10165,"mill":10166,"mash":10167,"mort":10168,"nip":10169,"nud":10170,"pent":10171,"pots":10172,"qo":10173,"qv":10174,"rah":10175,"ritis":10176,"uet":10177,"uild":10178,"vii":10179,"vision":10180,"wow":10181,"wist":10182,"wins":10183,"xb":10184,"xed":10185,"yin":10186,"zc":10187,"Ġia":10188,"Ġally":10189,"Ġoll":10190,"Ġush":10191,"Ġome":10192,"Ġoooooooooooooooo":10193,"Ġaaaaaaa":10194,"inol":10195,"innnnn":10196,"Ġsind":10197,"Ġsull":10198,"Ġsonn":10199,"Ġsuv":10200,"anist":10201,"aay":10202,"once":10203,"Ġcet":10204,"Ġcth":10205,"Ġcull":10206,"Ġcork":10207,"Ġcasc":10208,"atum":10209,"atine":10210,"arent":10211,"arius":10212,"eey":10213,"eeed":10214,"edon":10215,"alle":10216,"alus":10217,"alous":10218,"alds":10219,"alizes":10220,"Ġpah":10221,"Ġpapp":10222,"Ġpunk":10223,"Ġpoof":10224,"Ġbn":10225,"Ġbure":10226,"Ġbaaaaaa":10227,"Ġmb":10228,"Ġmi":10229,"Ġmett":10230,"Ġmats":10231,"Ġmank":10232,"Ġmagg":10233,"Ġmeek":10234,"isss":10235,"Ġdp":10236,"Ġdess":10237,"Ġdix":10238,"Ġdinn":10239,"Ġti":10240,"Ġtos":10241,"Ġtie":10242,"Ġtass":10243,"Ġtach":10244,"Ġtier":10245,"Ġtaj":10246,"Ġtaur":10247,"itous":10248,"itary":10249,"itler":10250,"icas":10251,"icient":10252,"Ġrant":10253,"Ġrast":10254,"Ġramb":10255,"Ġruth":10256,"lemen":10257,"Ġfp":10258,"Ġfaaaaaaaa":10259,"Ġfff":10260,"Ġfight":10261,"Ġfuf":10262,"Ġfucc":10263,"asian":10264,"Ġhj":10265,"Ġhoooooooo":10266,"Ġhaf":10267,"Ġhoy":10268,"Ġhoh":10269,"Ġhott":10270,"Ġhound":10271,"Ġhabl":10272,"Ġhiro":10273,"elb":10274,"Ġgef":10275,"Ġgour":10276,"Ġgong":10277,"Ġgasp":10278,"Ġgraf":10279,"Ġglyc":10280,"acad":10281,"Ġwur":10282,"Ġwre":10283,"Ġwatt":10284,"Ġwins":10285,"Ġweep":10286,"Ġwizz":10287,"Ġwoul":10288,"Ġwien":10289,"Ġwazz":10290,"Ġwalt":10291,"usively":10292,"ilers":10293,"urge":10294,"hhe":10295,"adow":10296,"Ġlax":10297,"Ġladd":10298,"Ġloooooo":10299,"Ġlawn":10300,"chal":10301,"chuck":10302,"Ġnk":10303,"Ġnac":10304,"Ġnab":10305,"Ġnub":10306,"Ġnear":10307,"Ġnond":10308,"Ġnnnnn":10309,"Ġnoob":10310,"Ġnurs":10311,"Ġnothing":10312,"abled":10313,"ababy":10314,"osn":10315,"Ġein":10316,"Ġeag":10317,"Ġks":10318,"Ġkent":10319,"Ġkep":10320,"Ġkyl":10321,"Ġketch":10322,"requ":10323,"utton":10324,"idh":10325,"idal":10326,"idas":10327,"idently":10328,"igator":10329,"iming":10330,"ecs":10331,"eces":10332,"emo":10333,"emaker":10334,"Ġva":10335,"Ġvold":10336,"Ġoe":10337,"Ġoft":10338,"Ġunapp":10339,"Ġunres":10340,"Ġunrec":10341,"ahaa":10342,"Ġinacc":10343,"stud":10344,"stroke":10345,"iven":10346,"Ġstrom":10347,"Ġsteak":10348,"Ġstigmat":10349,"andom":10350,"Ġchair":10351,"Ġsht":10352,"Ġshy":10353,"Ġshan":10354,"Ġshant":10355,"Ġshik":10356,"Ġshaz":10357,"Ġshimm":10358,"Ġrearr":10359,"ogi":10360,"ogist":10361,"Ġaunt":10362,"upon":10363,"odia":10364,"odge":10365,"Ġthicc":10366,"iez":10367,"ifl":10368,"ifed":10369,"ifing":10370,"raid":10371,"Ġyar":10372,"Ġyum":10373,"Ġyod":10374,"Ġyok":10375,"uger":10376,"Ġspan":10377,"Ġspag":10378,"iae":10379,"iao":10380,"ocus":10381,"octor":10382,"Ġtrac":10383,"Ġtrades":10384,"asshole":10385,"egh":10386,"shake":10387,"Ġexac":10388,"awak":10389,"Ġzs":10390,"Ġzy":10391,"Ġzel":10392,"Ġzak":10393,"Ġscraw":10394,"Ġwhe":10395,"Ġwhen":10396,"ovies":10397,"ensen":10398,"ensions":10399,"Ġprer":10400,"Ġprag":10401,"Ġprud":10402,"pler":10403,"Ġcrush":10404,"track":10405,"acho":10406,"Ġfredd":10407,"Ġfreef":10408,"Ġbrend":10409,"Ġbrush":10410,"Ġbrief":10411,"Ġarrrr":10412,"Ġgris":10413,"Ġgrump":10414,"Ġlef":10415,"Ġdiscom":10416,"Ġdismiss":10417,"Ġcomplic":10418,"Ġanch":10419,"Ġanom":10420,"Ġcloth":10421,"Ġplast":10422,"Ġquicks":10423,"ierre":10424,"atte":10425,"blers":10426,"blast":10427,"Ġador":10428,"Ġadop":10429,"Ġenf":10430,"cler":10431,"Ġcare":10432,"Ġmarij":10433,"Ġoverwh":10434,"Ġemer":10435,"Ġprefer":10436,"iox":10437,"Ġxer":10438,"intig":10439,"icality":10440,"anco":10441,"erner":10442,"Ġrecruit":10443,"arried":10444,"coin":10445,"erries":10446,"Ġteach":10447,"Ġnek":10448,"Ġmcs":10449,"auch":10450,"olet":10451,"ophiles":10452,"ungus":10453,"Ġseag":10454,"Ġseaf":10455,"Ġseason":10456,"uhuh":10457,"Ġdecap":10458,"ajo":10459,"ussions":10460,"white":10461,"Ġoutp":10462,"ualy":10463,"Ġmonoc":10464,"Ġcomplex":10465,"Ġagress":10466,"Ġintent":10467,"fuckfuck":10468,"Ġreproduc":10469,"Ġunderp":10470,"Ġsquirt":10471,"struction":10472,"landers":10473,"Ġdeform":10474,"inesc":10475,"inese":10476,"Ġindian":10477,"Ġimpe":10478,"Ġuf":10479,"ausen":10480,"Ġmalt":10481,"arned":10482,"Ġpean":10483,"Ġundersh":10484,"Ġcommem":10485,"Ġcroc":10486,"Ġcros":10487,"Ġcroch":10488,"oever":10489,"Ġcatap":10490,"amba":10491,"sssssssss":10492,"Ġbelg":10493,"Ġavail":10494,"Ġomg":10495,"ythe":10496,"Ġhumans":10497,"Ġnotic":10498,"Ġsimult":10499,"Ġpurp":10500,"otherapy":10501,"Ġheads":10502,"Ġregener":10503,"Ġradio":10504,"Ġchrys":10505,"Ġdownv":10506,"Ġdissapp":10507,"Ġextrav":10508,"Ġpresent":10509,"Ġtraumat":10510,"Ġgrandp":10511,"Ġcollabor":10512,"Ġroast":10513,"Ġbasic":10514,"Ġphotosh":10515,"rews":10516,"ported":10517,"wardly":10518,"Ġrespond":10519,"Ġpowder":10520,"ulsion":10521,"Ġborder":10522,"idges":10523,"Ġfaith":10524,"Ġcannon":10525,"Ġopportun":10526,"Ġmethod":10527,"oplasty":10528,"warezm":10529,"Ġsensational":10530,"Ġmichael":10531,"Ġadvoc":10532,"Ġmoment":10533,"Ġgigant":10534,"Ġdegener":10535,"Ġridicul":10536,"character":10537,"Ġqueens":10538,"Ġmiddles":10539,"Ġfigur":10540,"Ġflavor":10541,"penis":10542,"Ġgastro":10543,"Ġaggrav":10544,"Ġpixel":10545,"Ġinconven":10546,"atatatat":10547,"Ġincompet":10548,"oooooooooooooooooooooooooooooooooooooooooooooooooooooooooooooooooooooooooooooooooooooooooooooooooooooooooooooooooooooooooooooooo":10549,"Ġanthropomorph":10550,"Ġvigil":10551,"Ġpriorit":10552,"Ġostrac":10553,"Ġcongreg":10554,"jjjjjjjjjjjjjjjjjjjjjjjjjjjjjjjjjjjjjjjjjjjjjjjjjjjjjjjjjjjjjjjjjjjjjjjjjjjjjjjjjjjjjjjjjjjjjjjjjjjjjjjjjjjjjjjjjjjjjjjjjjjjjjjj":10555,"Ġcybers":10556,"Ġeuthan":10557,"apfapf":10558,"clapclap":10559,"Ġcontextual":10560,"methion":10561,"Ġoscill":10562,"entwintig":10563,"byn":10564,"beds":10565,"caster":10566,"cept":10567,"caps":10568,"cases":10569,"ders":10570,"daddy":10571,"fb":10572,"found":10573,"gasm":10574,"hou":10575,"iams":10576,"jesus":10577,"john":10578,"kick":10579,"lite":10580,"lists":10581,"mg":10582,"mel":10583,"mond":10584,"mare":10585,"nin":10586,"nic":10587,"nig":10588,"rats":10589,"sim":10590,"site":10591,"tly":10592,"uid":10593,"vh":10594,"var":10595,"vah":10596,"want":10597,"wipe":10598,"wurst":10599,"zan":10600,"Ġuuu":10601,"Ġoooooooooo":10602,"erous":10603,"erence":10604,"Ġsaaaa":10605,"Ġsly":10606,"Ġsok":10607,"Ġsoll":10608,"Ġsenn":10609,"Ġsaur":10610,"Ġsuf":10611,"Ġseph":10612,"anium":10613,"onally":10614,"onaut":10615,"Ġci":10616,"Ġcack":10617,"Ġcrav":10618,"Ġcabb":10619,"Ġcums":10620,"arter":10621,"arie":10622,"oow":10623,"alad":10624,"Ġpess":10625,"Ġpug":10626,"Ġpob":10627,"Ġpou":10628,"Ġpoot":10629,"Ġpays":10630,"Ġpffff":10631,"Ġpiec":10632,"Ġpicc":10633,"Ġbuuuu":10634,"Ġboc":10635,"Ġbuh":10636,"Ġboooooo":10637,"Ġbetr":10638,"Ġmg":10639,"Ġmoc":10640,"Ġmok":10641,"Ġmorn":10642,"Ġmyp":10643,"Ġmold":10644,"Ġmau":10645,"Ġmedd":10646,"Ġmoss":10647,"Ġmetr":10648,"Ġmurr":10649,"isive":10650,"iscr":10651,"oras":10652,"orter":10653,"orrow":10654,"Ġdf":10655,"Ġdall":10656,"Ġdous":10657,"Ġdoy":10658,"Ġdull":10659,"Ġdunn":10660,"Ġdrain":10661,"Ġtx":10662,"Ġtz":10663,"Ġtiiii":10664,"Ġtian":10665,"Ġtoc":10666,"Ġtost":10667,"Ġturr":10668,"Ġtops":10669,"Ġtyph":10670,"Ġtoxic":10671,"itably":10672,"itudes":10673,"Ġrc":10674,"Ġrp":10675,"Ġraf":10676,"Ġriff":10677,"Ġrazz":10678,"lead":10679,"Ġfaw":10680,"Ġfann":10681,"Ġfont":10682,"Ġfuh":10683,"Ġfars":10684,"Ġfactor":10685,"Ġfeels":10686,"asi":10687,"asic":10688,"Ġhull":10689,"Ġhumb":10690,"Ġhadd":10691,"Ġherc":10692,"Ġhersh":10693,"Ġhisp":10694,"unger":10695,"elers":10696,"else":10697,"elines":10698,"Ġgj":10699,"Ġgass":10700,"Ġgund":10701,"Ġgou":10702,"Ġgyr":10703,"Ġgonn":10704,"Ġginger":10705,"acin":10706,"acre":10707,"Ġwaw":10708,"Ġwarg":10709,"Ġwaaa":10710,"Ġwooo":10711,"usch":10712,"ilated":10713,"urity":10714,"urry":10715,"amble":10716,"eties":10717,"roe":10718,"Ġlh":10719,"Ġls":10720,"Ġlung":10721,"Ġloog":10722,"Ġliver":10723,"chu":10724,"chin":10725,"chrom":10726,"chief":10727,"checks":10728,"Ġnw":10729,"Ġnal":10730,"Ġnir":10731,"Ġnoon":10732,"Ġname":10733,"Ġnoooooooooooooooo":10734,"oling":10735,"olving":10736,"lyt":10737,"osity":10738,"Ġeuc":10739,"Ġkm":10740,"Ġkang":10741,"Ġkik":10742,"Ġkuk":10743,"Ġkamp":10744,"Ġkomb":10745,"Ġkais":10746,"reated":10747,"utting":10748,"apons":10749,"iges":10750,"igation":10751,"uler":10752,"uled":10753,"ults":10754,"ecd":10755,"ecat":10756,"econds":10757,"umen":10758,"umph":10759,"emble":10760,"emakers":10761,"Ġvh":10762,"Ġvt":10763,"Ġvasc":10764,"Ġvagu":10765,"Ġoj":10766,"Ġunus":10767,"Ġinoc":10768,"ayan":10769,"Ġjarr":10770,"Ġjoin":10771,"stan":10772,"stain":10773,"sterd":10774,"Ġstuff":10775,"Ġstory":10776,"ckkk":10777,"estion":10778,"Ġchit":10779,"Ġchard":10780,"Ġchau":10781,"Ġchalk":10782,"Ġchubb":10783,"thep":10784,"Ġshal":10785,"Ġshur":10786,"Ġshoot":10787,"Ġshamp":10788,"quad":10789,"ipers":10790,"Ġrea":10791,"Ġreff":10792,"Ġreapp":10793,"ogical":10794,"Ġaub":10795,"Ġthep":10796,"Ġtheh":10797,"Ġthisis":10798,"ubing":10799,"ieu":10800,"ifa":10801,"ifers":10802,"Ġyor":10803,"Ġyuuuu":10804,"Ġyumm":10805,"obo":10806,"ober":10807,"verb":10808,"arden":10809,"eying":10810,"eyard":10811,"octr":10812,"Ġtramp":10813,"Ġtripp":10814,"Ġtrench":10815,"assic":10816,"avi":10817,"nne":10818,"ebob":10819,"ebacks":10820,"ebomb":10821,"shi":10822,"share":10823,"ikin":10824,"Ġzamb":10825,"Ġblacks":10826,"Ġscat":10827,"Ġscap":10828,"Ġscav":10829,"ewing":10830,"eways":10831,"athered":10832,"Ġprank":10833,"Ġprint":10834,"Ġprote":10835,"places":10836,"anse":10837,"Ġflick":10838,"Ġflight":10839,"Ġfloat":10840,"Ġbrat":10841,"Ġbris":10842,"Ġalf":10843,"Ġalab":10844,"Ġaltr":10845,"ysics":10846,"Ġlep":10847,"Ġdisk":10848,"Ġcomfort":10849,"ooooooooooooo":10850,"Ġcling":10851,"Ġclair":10852,"eha":10853,"perience":10854,"Ġslid":10855,"onson":10856,"Ġplays":10857,"indle":10858,"oux":10859,"ialist":10860,"ynth":10861,"earth":10862,"eady":10863,"Ġacid":10864,"attack":10865,"evelop":10866,"aza":10867,"Ġamp":10868,"blin":10869,"black":10870,"Ġskate":10871,"afs":10872,"Ġsnuff":10873,"Ġsnork":10874,"Ġsnipp":10875,"others":10876,"oute":10877,"Ġabn":10878,"Ġabstr":10879,"Ġcole":10880,"Ġcoun":10881,"clip":10882,"cloth":10883,"Ġsupple":10884,"Ġperce":10885,"Ġperme":10886,"ostic":10887,"Ġswear":10888,"Ġsmoo":10889,"Ġsmeg":10890,"Ġsmash":10891,"inty":10892,"Ġglamor":10893,"Ġaster":10894,"Ġreco":10895,"Ġsubj":10896,"Ġbeac":10897,"Ġresid":10898,"Ġstring":10899,"bred":10900,"flies":10901,"encer":10902,"coma":10903,"aceous":10904,"Ġhein":10905,"leta":10906,"ampton":10907,"uhd":10908,"Ġmeats":10909,"itched":10910,"Ġdecrim":10911,"etsu":10912,"who":10913,"which":10914,"Ġantig":10915,"Ġantiqu":10916,"Ġcompat":10917,"Ġagree":10918,"glasses":10919,"burgh":10920,"Ġguit":10921,"Ġguine":10922,"iffy":10923,"Ġuph":10924,"Ġupr":10925,"ecker":10926,"ihad":10927,"fuckers":10928,"Ġsqueez":10929,"Ġmini":10930,"string":10931,"Ġevey":10932,"teens":10933,"Ġredneck":10934,"igga":10935,"iggers":10936,"Ġtransp":10937,"Ġbrex":10938,"screen":10939,"rrrrrrrrrr":10940,"ervice":10941,"Ġoppress":10942,"oppin":10943,"Ġhyg":10944,"Ġirreg":10945,"oors":10946,"Ġmald":10947,"Ġhomer":10948,"ictor":10949,"Ġbrot":10950,"Ġremed":10951,"blem":10952,"Ġonc":10953,"Ġnoncon":10954,"Ġcorps":10955,"Ġundec":10956,"Ġmetast":10957,"Ġcommon":10958,"balled":10959,"Ġcalm":10960,"unctions":10961,"unching":10962,"eezus":10963,"Ġaccess":10964,"Ġelement":10965,"ograms":10966,"written":10967,"Ġurb":10968,"apses":10969,"Ġbabyb":10970,"Ġsomn":10971,"Ġmozz":10972,"Ġimmigr":10973,"erking":10974,"Ġinstinct":10975,"Ġdevast":10976,"uva":10977,"auls":10978,"Ġtimber":10979,"Ġdisturb":10980,"death":10981,"Ġdetox":10982,"Ġdownt":10983,"Ġvalu":10984,"Ġvalid":10985,"Ġmelan":10986,"Ġgarb":10987,"Ġarticul":10988,"Ġoliv":10989,"Ġpreserv":10990,"Ġpersu":10991,"Ġrobot":10992,"formed":10993,"forming":10994,"Ġtrol":10995,"Ġhydr":10996,"money":10997,"Ġpopc":10998,"loading":10999,"Ġroug":11000,"Ġfilm":11001,"Ġcentral":11002,"Ġpedic":11003,"Ġfinanc":11004,"Ġpetro":11005,"Ġwindow":11006,"warts":11007,"iiiing":11008,"ocratic":11009,"Ġprotect":11010,"Ġdigital":11011,"Ġaskreddit":11012,"Ġmerch":11013,"Ġcontrad":11014,"Ġprofess":11015,"igeon":11016,"Ġlevios":11017,"Ġsonof":11018,"Ġtotal":11019,"Ġwaist":11020,"walked":11021,"Ġcandy":11022,"efulness":11023,"Ġnostr":11024,"Ġehr":11025,"Ġoctop":11026,"Ġpubl":11027,"Ġsingle":11028,"Ġsucces":11029,"Ġdestabil":11030,"Ġvacation":11031,"Ġlivest":11032,"Ġthroat":11033,"Ġdistribut":11034,"metal":11035,"Ġbestof":11036,"Ġpussy":11037,"Ġvictor":11038,"algia":11039,"Ġkirk":11040,"Ġacquaint":11041,"color":11042,"Ġaggreg":11043,"Ġmeaning":11044,"Ġmountain":11045,"Ġtaylors":11046,"Ġgoogle":11047,"Ġchamber":11048,"Ġdiscrim":11049,"aspartylalanyl":11050,"Ġsubstant":11051,"coolcoolcoolcool":11052,"charged":11053,"ubwubwubwubw":11054,"Ġmarginal":11055,"uuuuuuuuuuuuuuuuuuuuuuuuuuuuuuuuuuuuuuuuuuuuuuuuuuuuuuuuuuuuuuuuuuuuuuuuuuuuuuuuuuuuuuuuuuuuuuuuuuuuuuuuuuuuuuuuuuuuuuuuuuuuuuuu":11056,"walks":11057,"eeeeeeeeeeeeeeeeeeeeeeeeeeeeeeeeeeeeeeeeeeeeeeeeeeeeeeeeeeeeeeeeeeeeeeeeeeeeeeeeeeeeeeeeeeeeeeeeeeeeeeeeeeeeeeeeeeeeeeeeeeeeeeeeeeeeeeeeeeeeeeeeeeeeeeeeeeeeeeeeeeeeeeeeeeeeeeeeeeeeeeeeeeeeeeeeeeeeeeeeeeeeeeeeeeeeeeeeeeeeeeeeeeeeeeeeeeeeeeeeeeeeeeeeeeeeeeeeeeeeeeeeeeeeeeeeeeeeeeeeeeeeeeeeeeeeeeeeeeeeeeeeeeeeeeeeeeeeeeeeeeeeeeeeeeeeeeeeeeeeeeeeeeeeeeeeeeeeeeeeeeeeeeeeeeeeeeeeeeeeeeeeeeeeeeeeeeeeeeeeeeeeeeeeeeeeeeeeeeeeeeeeeeeeeeeeeeeeeeeeeeeeeeeeeeeeeeeeeeeeeeeeeeeeeeeeeeeeeeeeeeeeeeeeeeeeeeeeeeeeeeeeeeeeeeee":11058,"Ġbasket":11059,"ocaust":11060,"Ġorchestr":11061,"Ġanaesth":11062,"Ġreeeaa":11063,"Ġadulter":11064,"Ġreciproc":11065,"Ġasphyx":11066,"Ġmanufact":11067,"Ġmetamorph":11068,"Ġcorrespond":11069,"Ġrandomactsof":11070,"Ġenneenneconteennahect":11071,"auth":11072,"bah":11073,"bend":11074,"bier":11075,"bite":11076,"bush":11077,"boop":11078,"bows":11079,"boots":11080,"cad":11081,"dt":11082,"gia":11083,"gender":11084,"hy":11085,"hot":11086,"iou":11087,"jak":11088,"joke":11089,"kg":11090,"kad":11091,"kom":11092,"mund":11093,"mong":11094,"nant":11095,"new":11096,"pah":11097,"pads":11098,"paper":11099,"rone":11100,"ridge":11101,"tos":11102,"tops":11103,"tube":11104,"uks":11105,"wen":11106,"walls":11107,"waves":11108,"zoned":11109,"Ġix":11110,"Ġuss":11111,"eras":11112,"erating":11113,"inqu":11114,"Ġsist":11115,"Ġsssss":11116,"Ġsink":11117,"esome":11118,"anet":11119,"onen":11120,"onis":11121,"Ġcess":11122,"Ġcok":11123,"Ġcair":11124,"Ġcinc":11125,"Ġcinder":11126,"enant":11127,"atal":11128,"atra":11129,"arine":11130,"oooon":11131,"edent":11132,"alic":11133,"alos":11134,"alie":11135,"Ġpb":11136,"Ġpk":11137,"Ġpv":11138,"Ġpang":11139,"Ġpine":11140,"Ġpour":11141,"Ġpaz":11142,"Ġpatch":11143,"Ġpaus":11144,"Ġpyth":11145,"Ġponder":11146,"Ġbim":11147,"Ġbie":11148,"Ġbish":11149,"Ġbich":11150,"Ġbaf":11151,"Ġbold":11152,"Ġbuss":11153,"Ġbare":11154,"Ġmv":11155,"Ġmeeee":11156,"Ġmile":11157,"Ġmmmmmmmmm":11158,"Ġmask":11159,"isu":11160,"isable":11161,"oris":11162,"orec":11163,"Ġdus":11164,"Ġdoh":11165,"Ġdail":11166,"Ġdrow":11167,"Ġdih":11168,"Ġdext":11169,"Ġtoot":11170,"Ġtipp":11171,"Ġtoss":11172,"iiit":11173,"iiir":11174,"iten":11175,"itant":11176,"itud":11177,"itism":11178,"icall":11179,"Ġrigh":11180,"Ġreth":11181,"Ġrush":11182,"Ġrasc":11183,"Ġroz":11184,"Ġrule":11185,"Ġrofl":11186,"Ġfb":11187,"Ġfod":11188,"Ġford":11189,"Ġface":11190,"Ġfield":11191,"asers":11192,"Ġhc":11193,"Ġhmm":11194,"Ġhuuuu":11195,"Ġhuck":11196,"Ġheg":11197,"Ġhong":11198,"Ġhord":11199,"Ġhorm":11200,"Ġhail":11201,"Ġhark":11202,"Ġhugg":11203,"Ġhoff":11204,"Ġhoof":11205,"Ġhnnn":11206,"Ġheheheheh":11207,"unism":11208,"eln":11209,"elen":11210,"eliv":11211,"elter":11212,"elian":11213,"Ġgp":11214,"Ġged":11215,"Ġgaaaa":11216,"Ġgung":11217,"aaaaah":11218,"acan":11219,"acia":11220,"Ġwang":11221,"Ġwww":11222,"Ġwors":11223,"Ġwond":11224,"Ġwidd":11225,"ilts":11226,"ilize":11227,"ilistic":11228,"iliar":11229,"urally":11230,"amines":11231,"etus":11232,"aday":11233,"adder":11234,"Ġlash":11235,"Ġloth":11236,"Ġlamin":11237,"Ġniiii":11238,"Ġneeee":11239,"Ġnog":11240,"Ġnix":11241,"Ġnoooooo":11242,"Ġnihil":11243,"olith":11244,"omet":11245,"ometers":11246,"ionic":11247,"abies":11248,"osse":11249,"osure":11250,"Ġeight":11251,"Ġkj":11252,"Ġkac":11253,"Ġkus":11254,"Ġkann":11255,"Ġkins":11256,"utation":11257,"idid":11258,"idness":11259,"apo":11260,"apan":11261,"apist":11262,"apse":11263,"agne":11264,"igl":11265,"imas":11266,"uments":11267,"ooooon":11268,"essen":11269,"essssss":11270,"Ġvery":11271,"Ġvinc":11272,"Ġole":11273,"Ġohh":11274,"Ġunib":11275,"Ġunkn":11276,"Ġunacc":11277,"Ġinad":11278,"ayo":11279,"Ġjas":11280,"state":11281,"ivist":11282,"ivism":11283,"Ġstu":11284,"Ġstad":11285,"Ġstack":11286,"Ġstates":11287,"Ġstagn":11288,"ckkkkk":11289,"istical":11290,"este":11291,"Ġchapp":11292,"Ġchann":11293,"Ġchipp":11294,"thal":11295,"think":11296,"thalm":11297,"Ġshn":11298,"Ġshim":11299,"Ġshou":11300,"Ġshirt":11301,"ipot":11302,"ipated":11303,"Ġregg":11304,"Ġregress":11305,"Ġrelev":11306,"Ġauss":11307,"upid":11308,"upting":11309,"Ġtho":11310,"Ġthur":11311,"Ġthorn":11312,"Ġthings":11313,"Ġthird":11314,"aller":11315,"rai":11316,"rael":11317,"rave":11318,"Ġyu":11319,"Ġyow":11320,"Ġyadd":11321,"ugu":11322,"illos":11323,"Ġspawn":11324,"eyey":11325,"icket":11326,"Ġtrache":11327,"Ġtrigger":11328,"Ġtriang":11329,"assi":11330,"atever":11331,"avan":11332,"aval":11333,"avia":11334,"egal":11335,"eguy":11336,"shark":11337,"shows":11338,"Ġexorc":11339,"Ġzar":11340,"Ġzool":11341,"Ġscam":11342,"Ġscler":11343,"Ġwhitt":11344,"Ġwhipp":11345,"athy":11346,"yls":11347,"Ġpri":11348,"Ġprick":11349,"Ġpresc":11350,"Ġproper":11351,"anson":11352,"achus":11353,"Ġflak":11354,"Ġfloss":11355,"Ġflower":11356,"Ġflutter":11357,"Ġbring":11358,"Ġbrood":11359,"Ġalch":11360,"Ġleather":11361,"Ġdisorient":11362,"Ġanarch":11363,"Ġclose":11364,"Ġclitor":11365,"Ġclaud":11366,"ehole":11367,"okin":11368,"okay":11369,"Ġslurp":11370,"onse":11371,"Ġimplic":11372,"Ġqueen":11373,"ksk":11374,"bois":11375,"eading":11376,"evel":11377,"event":11378,"Ġamo":11379,"Ġamput":11380,"Ġadh":11381,"Ġadmon":11382,"menting":11383,"Ġenqu":11384,"outing":11385,"Ġabout":11386,"Ġabcd":11387,"Ġcoz":11388,"hhhhhhhhhhhhhh":11389,"clan":11390,"Ġsupert":11391,"ukes":11392,"Ġmarri":11393,"Ġsche":11394,"Ġsme":11395,"Ġsmug":11396,"Ġoverdr":11397,"Ġparr":11398,"Ġparth":11399,"axis":11400,"Ġxan":11401,"ageous":11402,"psy":11403,"Ġglen":11404,"Ġgloss":11405,"Ġrecept":11406,"oreal":11407,"ledg":11408,"coon":11409,"Ġtek":11410,"Ġstrip":11411,"unta":11412,"comb":11413,"coms":11414,"Ġmcf":11415,"Ġmcgr":11416,"auh":11417,"ignon":11418,"aphone":11419,"Ġelon":11420,"Ġinterest":11421,"Ġinterpr":11422,"ophag":11423,"ottle":11424,"letter":11425,"Ġseam":11426,"Ġdele":11427,"inna":11428,"aaaaaah":11429,"umpf":11430,"eshit":11431,"eshop":11432,"Ġdecim":11433,"umbs":11434,"wheels":11435,"Ġanticip":11436,"Ġoutg":11437,"Ġasshole":11438,"Ġmonolog":11439,"Ġmonarch":11440,"burs":11441,"burst":11442,"Ġdesensit":11443,"Ġintuit":11444,"Ġinterst":11445,"Ġintoxic":11446,"ahahahahaha":11447,"elson":11448,"Ġrepet":11449,"Ġrepeat":11450,"Ġunderr":11451,"Ġsquar":11452,"Ġsquee":11453,"Ġminor":11454,"Ġminip":11455,"Ġdefl":11456,"Ġincap":11457,"ugget":11458,"Ġindent":11459,"meow":11460,"enges":11461,"Ġinsec":11462,"akeup":11463,"dragons":11464,"ska":11465,"forge":11466,"conf":11467,"ytown":11468,"Ġdiarr":11469,"ucht":11470,"Ġcontra":11471,"Ġbacksl":11472,"Ġallerg":11473,"Ġgrey":11474,"Ġrelat":11475,"Ġentrepr":11476,"Ġobt":11477,"aea":11478,"aeus":11479,"udding":11480,"unched":11481,"osha":11482,"Ġhandic":11483,"oek":11484,"maid":11485,"maids":11486,"Ġgrouch":11487,"Ġbeliev":11488,"Ġkrak":11489,"Ġavoid":11490,"Ġsomeh":11491,"Ġmacar":11492,"Ġrefurb":11493,"Ġawak":11494,"oggy":11495,"Ġdevel":11496,"Ġdevil":11497,"Ġcursed":11498,"Ġtreas":11499,"Ġconfig":11500,"iiiiiit":11501,"Ġfacet":11502,"rollers":11503,"ographs":11504,"Ġbiod":11505,"Ġsilvers":11506,"Ġafgh":11507,"Ġannounc":11508,"omaniac":11509,"Ġicec":11510,"ommy":11511,"Ġsplend":11512,"Ġsplash":11513,"Ġmeme":11514,"Ġdissoc":11515,"resses":11516,"Ġsoap":11517,"Ġloung":11518,"Ġooh":11519,"Ġvolt":11520,"Ġfirest":11521,"Ġexplos":11522,"Ġastrol":11523,"Ġspray":11524,"Ġcondens":11525,"breakers":11526,"Ġestim":11527,"Ġcopy":11528,"Ġcopper":11529,"parent":11530,"Ġtelev":11531,"Ġbullshit":11532,"fishing":11533,"Ġphotoc":11534,"urning":11535,"ocrat":11536,"Ġderp":11537,"media":11538,"oscop":11539,"ogenesis":11540,"Ġhowd":11541,"illionaire":11542,"Ġhoard":11543,"yptic":11544,"yptoph":11545,"Ġoxyc":11546,"Ġextrac":11547,"glutaminyl":11548,"holder":11549,"umbling":11550,"walkers":11551,"Ġegypt":11552,"Ġumbr":11553,"Ġrehabil":11554,"Ġhallow":11555,"iferous":11556,"Ġobliter":11557,"leucylleucyl":11558,"washed":11559,"Ġcorrel":11560,"righty":11561,"Ġprivat":11562,"Ġansw":11563,"Ġmesmer":11564,"Ġinhib":11565,"Ġcooper":11566,"Ġridic":11567,"covered":11568,"Ġfundament":11569,"Ġvideoc":11570,"Ġtranquil":11571,"zzzzzzzzzzzzzzzz":11572,"Ġfalcon":11573,"Ġcultiv":11574,"Ġtattoo":11575,"heimer":11576,"Ġfraud":11577,"Ġcarmel":11578,"lelelele":11579,"Ġuncomfort":11580,"Ġgymn":11581,"runrun":11582,"udamudamudamudamudamudamudamudamudamudamudamudamudamudamudamudam":11583,"Ġgooseb":11584,"Ġunforg":11585,"Ġcrystall":11586,"epeople":11587,"Ġkinderg":11588,"Ġcoord":11589,"Ġtrivial":11590,"Ġspaghett":11591,"Ġextermin":11592,"fetish":11593,"Ġblasph":11594,"Ġsupercalifrag":11595,"queaksqueaks":11596,"bish":11597,"bits":11598,"boom":11599,"bane":11600,"butter":11601,"cle":11602,"camp":11603,"dle":11604,"dream":11605,"eers":11606,"eart":11607,"fam":11608,"fut":11609,"fax":11610,"feet":11611,"facts":11612,"gaming":11613,"hal":11614,"high":11615,"harm":11616,"human":11617,"haven":11618,"ieth":11619,"jg":11620,"jud":11621,"jew":11622,"kz":11623,"kis":11624,"lash":11625,"mac":11626,"mur":11627,"mys":11628,"max":11629,"nor":11630,"nir":11631,"nail":11632,"oum":11633,"pts":11634,"pens":11635,"pong":11636,"pocalypse":11637,"pieces":11638,"rest":11639,"ria":11640,"tic":11641,"tas":11642,"tags":11643,"times":11644,"tails":11645,"uall":11646,"vol":11647,"wu":11648,"wom":11649,"wap":11650,"wart":11651,"xl":11652,"xz":11653,"yv":11654,"zj":11655,"Ġable":11656,"Ġugh":11657,"Ġeeeeeeeeeeeeeeee":11658,"Ġatch":11659,"Ġooooooo":11660,"inm":11661,"inem":11662,"inite":11663,"Ġsot":11664,"Ġsow":11665,"Ġsall":11666,"Ġsapp":11667,"Ġsout":11668,"Ġsush":11669,"Ġsyd":11670,"Ġsaut":11671,"Ġsiph":11672,"Ġsyph":11673,"anon":11674,"anor":11675,"anity":11676,"Ġcf":11677,"Ġcip":11678,"Ġcapp":11679,"Ġcyt":11680,"Ġcitr":11681,"enium":11682,"aterr":11683,"atement":11684,"atoes":11685,"arey":11686,"arse":11687,"aroos":11688,"arcoma":11689,"eday":11690,"educ":11691,"edevil":11692,"alien":11693,"Ġpaa":11694,"Ġpoooo":11695,"Ġpiz":11696,"Ġpsh":11697,"Ġpoth":11698,"Ġpamp":11699,"Ġputt":11700,"Ġpeek":11701,"Ġpegg":11702,"Ġbrrrr":11703,"Ġborn":11704,"Ġbyp":11705,"Ġbork":11706,"Ġbeel":11707,"Ġbux":11708,"Ġbooo":11709,"Ġbooks":11710,"Ġmism":11711,"Ġmox":11712,"Ġmuss":11713,"Ġmoul":11714,"ingt":11715,"ische":11716,"orh":11717,"orah":11718,"orst":11719,"orrrr":11720,"Ġdg":11721,"Ġdaaaaaaaa":11722,"Ġdian":11723,"Ġdik":11724,"Ġduc":11725,"Ġdeed":11726,"Ġdere":11727,"Ġdung":11728,"Ġdipp":11729,"Ġdoop":11730,"Ġduel":11731,"Ġdrown":11732,"Ġdifer":11733,"Ġtus":11734,"Ġtuck":11735,"Ġtoh":11736,"Ġtark":11737,"Ġtopp":11738,"Ġtiny":11739,"iiing":11740,"icist":11741,"icia":11742,"icates":11743,"icists":11744,"Ġrl":11745,"Ġrund":11746,"Ġrott":11747,"Ġrams":11748,"Ġrisk":11749,"Ġralph":11750,"leader":11751,"Ġfold":11752,"Ġfile":11753,"Ġfuuuuuuuuuuuuuuuu":11754,"asst":11755,"asaur":11756,"Ġhiiii":11757,"Ġhiv":11758,"Ġhool":11759,"Ġheee":11760,"Ġhenn":11761,"Ġhoot":11762,"Ġhuss":11763,"Ġhunk":11764,"Ġhoooooo":11765,"Ġhots":11766,"Ġhubb":11767,"Ġheheh":11768,"unh":11769,"elas":11770,"elst":11771,"Ġgb":11772,"Ġgos":11773,"Ġgub":11774,"Ġgau":11775,"Ġgumb":11776,"Ġgunn":11777,"aaaahhhh":11778,"Ġwn":11779,"Ġwp":11780,"Ġwob":11781,"Ġwach":11782,"Ġweee":11783,"Ġwarn":11784,"Ġwobb":11785,"ilo":11786,"ilus":11787,"ilater":11788,"urers":11789,"urns":11790,"amaz":11791,"etc":11792,"etical":11793,"adin":11794,"Ġlid":11795,"Ġlant":11796,"Ġlate":11797,"Ġlof":11798,"chr":11799,"chlor":11800,"changing":11801,"Ġnj":11802,"Ġnv":11803,"Ġnz":11804,"Ġnes":11805,"Ġnation":11806,"Ġnyl":11807,"Ġnort":11808,"Ġnoh":11809,"Ġnorr":11810,"Ġnaught":11811,"olig":11812,"olow":11813,"olia":11814,"omics":11815,"omantic":11816,"abby":11817,"abble":11818,"uuug":11819,"osup":11820,"Ġeun":11821,"Ġeid":11822,"Ġkut":11823,"Ġkth":11824,"Ġkans":11825,"Ġkong":11826,"Ġkook":11827,"Ġkarn":11828,"Ġkuz":11829,"otus":11830,"otrop":11831,"apital":11832,"entive":11833,"imic":11834,"ecess":11835,"iry":11836,"irate":11837,"irmed":11838,"essel":11839,"emean":11840,"Ġvie":11841,"Ġvast":11842,"ahed":11843,"Ġinspir":11844,"ayyy":11845,"Ġjf":11846,"Ġjux":11847,"Ġjuj":11848,"sting":11849,"ivo":11850,"ivley":11851,"Ġstam":11852,"Ġstif":11853,"Ġstry":11854,"Ġstabb":11855,"Ġstomp":11856,"opard":11857,"Ġchi":11858,"Ġchoo":11859,"Ġchad":11860,"Ġchub":11861,"Ġchich":11862,"than":11863,"Ġshakes":11864,"quatch":11865,"quito":11866,"ipa":11867,"antine":11868,"Ġreac":11869,"Ġreyn":11870,"Ġreorgan":11871,"term":11872,"izo":11873,"ogon":11874,"ogyn":11875,"Ġaim":11876,"Ġafl":11877,"Ġaird":11878,"uption":11879,"Ġthew":11880,"Ġthats":11881,"iefs":11882,"ifu":11883,"Ġys":11884,"Ġyeeeee":11885,"uden":11886,"ibuted":11887,"ousing":11888,"Ġspre":11889,"Ġspill":11890,"Ġspace":11891,"Ġspazz":11892,"Ġspeech":11893,"obby":11894,"epts":11895,"icki":11896,"iann":11897,"ianism":11898,"ocaine":11899,"endant":11900,"Ġtress":11901,"Ġtrape":11902,"assa":11903,"avage":11904,"nna":11905,"nng":11906,"ebt":11907,"eband":11908,"lling":11909,"egame":11910,"sha":11911,"shack":11912,"shops":11913,"Ġexting":11914,"aww":11915,"ucer":11916,"Ġbleed":11917,"Ġblues":11918,"Ġscall":11919,"Ġscour":11920,"Ġsciss":11921,"Ġscott":11922,"Ġscienc":11923,"eware":11924,"Ġwhol":11925,"Ġwhisp":11926,"exes":11927,"ovol":11928,"ovey":11929,"itys":11930,"Ġpriest":11931,"plosion":11932,"Ġcryp":11933,"Ġcresc":11934,"Ġflo":11935,"Ġflee":11936,"Ġflint":11937,"Ġflipp":11938,"Ġfreeee":11939,"Ġfrick":11940,"Ġbrak":11941,"Ġbreez":11942,"Ġalz":11943,"Ġalle":11944,"Ġaro":11945,"Ġarche":11946,"Ġgrant":11947,"Ġgrizz":11948,"Ġgrimm":11949,"gghhhh":11950,"aines":11951,"aints":11952,"ainting":11953,"Ġdisem":11954,"Ġdisgu":11955,"Ġanaly":11956,"phia":11957,"eht":11958,"eham":11959,"oki":11960,"Ġsling":11961,"Ġslur":11962,"Ġslov":11963,"berts":11964,"Ġplut":11965,"Ġplum":11966,"Ġquer":11967,"bout":11968,"ynthes":11969,"ieri":11970,"ieres":11971,"ightly":11972,"Ġacco":11973,"eview":11974,"Ġpht":11975,"Ġamn":11976,"blog":11977,"ofr":11978,"mente":11979,"mentally":11980,"Ġsno":11981,"Ġenr":11982,"Ġabol":11983,"Ġcars":11984,"Ġcaramel":11985,"ithm":11986,"Ġperfor":11987,"Ġswind":11988,"oyd":11989,"oying":11990,"Ġschol":11991,"Ġsmir":11992,"eedle":11993,"Ġparaly":11994,"Ġember":11995,"ookies":11996,"actually":11997,"activity":11998,"Ġxd":11999,"Ġxl":12000,"ermic":12001,"intel":12002,"grass":12003,"Ġrecover":12004,"Ġsubtr":12005,"Ġbeard":12006,"Ġbeaur":12007,"Ġora":12008,"Ġoreg":12009,"Ġorder":12010,"frank":12011,"Ġneon":12012,"comments":12013,"ooning":12014,"Ġeliz":12015,"Ġelast":12016,"Ġinterpret":12017,"ophones":12018,"ophobe":12019,"Ġsek":12020,"Ġseaw":12021,"Ġdej":12022,"inni":12023,"Ġmeal":12024,"Ġmiser":12025,"Ġdecre":12026,"whore":12027,"wholes":12028,"Ġoutdoor":12029,"Ġassim":12030,"Ġassem":12031,"Ġforeg":12032,"glass":12033,"Ġtwos":12034,"Ġtweet":12035,"Ġmanic":12036,"Ġdesk":12037,"ossa":12038,"Ġappet":12039,"Ġpolys":12040,"Ġpolyn":12041,"Ġpolyg":12042,"fty":12043,"ahahahahahaha":12044,"Ġrepe":12045,"Ġevil":12046,"Ġincub":12047,"Ġincentiv":12048,"teenth":12049,"uggin":12050,"Ġindec":12051,"alek":12052,"iggy":12053,"Ġtransport":12054,"iddy":12055,"ycin":12056,"ycats":12057,"Ġboul":12058,"inces":12059,"incess":12060,"Ġimpregn":12061,"contr":12062,"affed":12063,"Ġatmos":12064,"Ġhomos":12065,"Ġhomogen":12066,"Ġscree":12067,"uche":12068,"Ġcontent":12069,"Ġiro":12070,"aaahh":12071,"Ġpsued":12072,"erde":12073,"Ġretail":12074,"oche":12075,"Ġcatalog":12076,"links":12077,"ystems":12078,"ddddddd":12079,"ssssssssss":12080,"iente":12081,"ijn":12082,"iyah":12083,"itzel":12084,"ptic":12085,"Ġreflex":12086,"Ġreflect":12087,"Ġhumid":12088,"Ġgeoc":12089,"uxes":12090,"Ġmoons":12091,"Ġtheod":12092,"Ġsimps":12093,"Ġaar":12094,"Ġepit":12095,"Ġinstagr":12096,"aiting":12097,"Ġexpans":12098,"Ġdeval":12099,"Ġclem":12100,"Ġclever":12101,"Ġcleans":12102,"Ġtreat":12103,"Ġconfirm":12104,"Ġuncle":12105,"worked":12106,"acca":12107,"Ġfrees":12108,"Ġseren":12109,"irtz":12110,"estruct":12111,"Ġgamer":12112,"Ġgames":12113,"Ġconcert":12114,"Ġmicroman":12115,"Ġvalent":12116,"Ġmelt":12117,"Ġhemorrh":12118,"vvv":12119,"Ġthree":12120,"Ġloan":12121,"Ġpotent":12122,"monster":12123,"Ġpopul":12124,"yyyyyyyyy":12125,"yyyyyyyyyyy":12126,"Ġlove":12127,"Ġlovel":12128,"Ġuter":12129,"Ġspecif":12130,"Ġneurod":12131,"Ġgalax":12132,"Ġunpop":12133,"Ġcentr":12134,"udging":12135,"Ġillum":12136,"Ġillumin":12137,"Ġprotest":12138,"Ġencycl":12139,"lecting":12140,"ggghhh":12141,"Ġbooz":12142,"oddy":12143,"rafted":12144,"Ġengine":12145,"Ġchristm":12146,"Ġwaver":12147,"Ġambul":12148,"Ġfount":12149,"Ġelectroc":12150,"adingdong":12151,"Ġdispens":12152,"Ġforget":12153,"Ġmicha":12154,"Ġmichel":12155,"Ġpercent":12156,"Ġpyro":12157,"Ġfavour":12158,"Ġpossib":12159,"Ġnovel":12160,"Ġrefriger":12161,"Ġreddits":12162,"Ġfranken":12163,"Ġstandard":12164,"Ġsulph":12165,"question":12166,"diagn":12167,"Ġappropr":12168,"Ġdehuman":12169,"Ġbritish":12170,"Ġquadrup":12171,"Ġplatyp":12172,"Ġcarniv":12173,"Ġcrowds":12174,"Ġiwant":12175,"miths":12176,"ayayayay":12177,"lifting":12178,"Ġxxxt":12179,"Ġshrek":12180,"Ġmaintain":12181,"iciency":12182,"iatric":12183,"Ġparadox":12184,"Ġhepat":12185,"Ġinitial":12186,"Ġperplex":12187,"Ġbambooz":12188,"history":12189,"Ġhibern":12190,"Ġemphas":12191,"Ġskelet":12192,"Ġawesom":12193,"immiegimmiegimmiegimmieg":12194,"Ġunintellig":12195,"Ġindustrial":12196,"Ġbehavior":12197,"Ġmeteor":12198,"Ġarchitect":12199,"apawapaw":12200,"Ġconceptual":12201,"Ġtriumph":12202,"eprotips":12203,"Ġtaylorsw":12204,"aum":12205,"aign":12206,"bun":12207,"bop":12208,"batch":12209,"boot":12210,"bears":12211,"belly":12212,"cw":12213,"cers":12214,"cery":12215,"cyst":12216,"craw":12217,"casts":12218,"cycle":12219,"doz":12220,"fah":12221,"fact":12222,"funk":12223,"fiction":12224,"freak":12225,"gee":12226,"hen":12227,"hom":12228,"hey":12229,"horse":12230,"iag":12231,"iak":12232,"iator":12233,"iology":12234,"jee":12235,"jaw":12236,"keep":12237,"keepers":12238,"lio":12239,"lays":12240,"laps":12241,"licker":12242,"mers":12243,"mia":12244,"nx":12245,"nz":12246,"nee":12247,"nom":12248,"oia":12249,"ouc":12250,"pv":12251,"pile":12252,"panda":12253,"qe":12254,"qt":12255,"rn":12256,"raph":12257,"rights":12258,"shh":12259,"tar":12260,"tie":12261,"vest":12262,"weg":12263,"wine":12264,"xp":12265,"yay":12266,"zee":12267,"zeb":12268,"zeg":12269,"Ġice":12270,"Ġaaaaaaaaaaaaaaaaaaaaaaaaaaaaaaaaaaaaaaaaaaaaaaaaaaaaaaaaaaaaaaaa":12271,"Ġsiiii":12272,"Ġsce":12273,"Ġseth":12274,"Ġsonic":12275,"Ġsuuuuuu":12276,"esian":12277,"anine":12278,"anite":12279,"aaam":12280,"aahhh":12281,"onically":12282,"online":12283,"Ġcv":12284,"Ġced":12285,"Ġcil":12286,"Ġcly":12287,"Ġcid":12288,"Ġcable":12289,"Ġcoop":12290,"Ġcadd":12291,"Ġcupp":12292,"enal":12293,"enial":12294,"enings":12295,"enza":12296,"atons":12297,"aros":12298,"arity":12299,"arry":12300,"eees":12301,"eeder":12302,"ooom":12303,"edia":12304,"alts":12305,"althy":12306,"Ġpool":12307,"Ġpole":12308,"Ġpedd":12309,"Ġpept":12310,"Ġpatter":12311,"Ġbii":12312,"Ġbiv":12313,"Ġbov":12314,"Ġborr":12315,"Ġbizz":12316,"Ġberk":12317,"Ġbilly":12318,"Ġmone":12319,"Ġmaaaaaa":12320,"Ġmaul":12321,"Ġmais":12322,"Ġmaid":12323,"Ġmuzz":12324,"Ġmourn":12325,"inges":12326,"ingham":12327,"isor":12328,"orce":12329,"Ġdyl":12330,"Ġdarr":12331,"Ġdumm":12332,"Ġdazz":12333,"Ġtf":12334,"Ġtou":12335,"Ġtors":12336,"Ġtoom":12337,"Ġtoon":12338,"Ġtedd":12339,"Ġteng":12340,"Ġtinder":12341,"itur":12342,"itol":12343,"itent":12344,"itized":12345,"icides":12346,"Ġrg":12347,"Ġramm":12348,"Ġreeeeee":12349,"Ġriiiiii":12350,"Ġrubb":12351,"Ġriot":12352,"leberry":12353,"Ġfiiii":12354,"Ġfid":12355,"Ġfec":12356,"Ġfck":12357,"Ġfans":12358,"Ġferm":12359,"Ġfps":12360,"Ġfaaaaaa":12361,"Ġfeder":12362,"asin":12363,"asss":12364,"asions":12365,"Ġhi":12366,"Ġhef":12367,"Ġhiss":12368,"Ġhank":12369,"Ġhere":12370,"Ġhux":12371,"elh":12372,"elot":12373,"Ġgf":12374,"Ġgee":12375,"Ġgrr":12376,"Ġgian":12377,"Ġgond":12378,"Ġgator":12379,"Ġgorr":12380,"Ġgogg":12381,"Ġgaud":12382,"Ġgraz":12383,"Ġgabr":12384,"acost":12385,"Ġwod":12386,"Ġwey":12387,"Ġwoooooooo":12388,"Ġwats":12389,"Ġwoop":12390,"Ġwars":12391,"Ġwoooooooooooooooo":12392,"Ġwisc":12393,"Ġwester":12394,"ilot":12395,"iline":12396,"iltr":12397,"ilator":12398,"urur":12399,"urgh":12400,"amid":12401,"eten":12402,"rout":12403,"roach":12404,"adors":12405,"Ġler":12406,"Ġlent":12407,"Ġligh":12408,"Ġlans":12409,"Ġlatt":12410,"Ġleel":12411,"Ġliving":12412,"chm":12413,"chee":12414,"Ġnl":12415,"Ġnel":12416,"Ġnnnn":12417,"Ġnitr":12418,"oland":12419,"abas":12420,"abel":12421,"abeth":12422,"Ġeach":12423,"Ġeith":12424,"Ġearm":12425,"Ġkb":12426,"Ġkd":12427,"Ġkow":12428,"Ġkip":12429,"Ġkod":12430,"Ġkud":12431,"Ġkits":12432,"Ġkoch":12433,"Ġkeys":12434,"reens":12435,"idia":12436,"idated":12437,"idger":12438,"idae":12439,"eeeeen":12440,"otions":12441,"apine":12442,"agirl":12443,"igm":12444,"igating":12445,"images":12446,"ulted":12447,"ecy":12448,"ecan":12449,"iru":12450,"emas":12451,"emate":12452,"Ġvend":12453,"Ġvax":12454,"Ġveng":12455,"Ġveter":12456,"Ġopr":12457,"Ġunac":12458,"Ġunass":12459,"Ġunequ":12460,"Ġunknow":12461,"Ġjt":12462,"Ġjuu":12463,"Ġjot":12464,"Ġjost":12465,"Ġjones":12466,"Ġjobs":12467,"owa":12468,"sten":12469,"ivan":12470,"Ġsty":12471,"Ġstap":12472,"Ġstoooo":12473,"Ġstation":12474,"Ġsteep":12475,"Ġstalk":12476,"Ġstarg":12477,"Ġstirr":12478,"andt":12479,"andre":12480,"andwich":12481,"estic":12482,"aaaaaaaaaaaaaaa":12483,"Ġchu":12484,"Ġchis":12485,"Ġchess":12486,"Ġchop":12487,"Ġchart":12488,"Ġchimp":12489,"though":12490,"akia":12491,"Ġshah":12492,"Ġshuff":12493,"Ġsheet":12494,"Ġsheph":12495,"Ġshorth":12496,"qua":12497,"quette":12498,"anty":12499,"Ġreup":12500,"Ġrepress":12501,"Ġreocc":12502,"ogan":12503,"ogies":12504,"ogue":12505,"Ġais":12506,"Ġail":12507,"Ġthic":12508,"ieb":12509,"ifr":12510,"allll":12511,"rau":12512,"Ġyouth":12513,"uged":12514,"Ġspinn":12515,"Ġspoil":12516,"ellen":12517,"obacter":12518,"arde":12519,"ardia":12520,"Ġconsp":12521,"epress":12522,"epoint":12523,"ocated":12524,"ocating":12525,"endi":12526,"endous":12527,"endable":12528,"Ġtray":12529,"Ġtrend":12530,"Ġtresp":12531,"aville":12532,"ebro":12533,"shirt":12534,"awww":12535,"Ġzah":12536,"Ġbla":12537,"Ġblo":12538,"Ġblat":12539,"Ġblund":12540,"Ġscorp":12541,"Ġwhip":12542,"Ġwhoooooo":12543,"Ġwhites":12544,"athering":12545,"ovo":12546,"Ġprobl":12547,"plied":12548,"plaining":12549,"Ġcritis":12550,"tres":12551,"trum":12552,"tresses":12553,"achu":12554,"ocket":12555,"ockey":12556,"Ġfry":12557,"Ġfris":12558,"Ġbrist":12559,"Ġbrill":12560,"Ġbruc":12561,"Ġbroom":12562,"Ġalarm":12563,"Ġarsen":12564,"Ġgrid":12565,"Ġgrund":12566,"gggh":12567,"Ġlets":12568,"Ġdisl":12569,"Ġdism":12570,"Ġdisgr":12571,"Ġdiseng":12572,"Ġdisqual":12573,"Ġcomic":12574,"Ġanaph":12575,"Ġanyh":12576,"phot":12577,"oodood":12578,"Ġclimb":12579,"okers":12580,"iveable":12581,"zzo":12582,"onga":12583,"onge":12584,"Ġslash":12585,"Ġplur":12586,"Ġplaint":12587,"Ġplastic":12588,"Ġquat":12589,"Ġquetz":12590,"ryer":12591,"Ġaccomm":12592,"ettle":12593,"azer":12594,"azine":12595,"Ġphyc":12596,"Ġamel":12597,"bla":12598,"blaster":12599,"Ġadder":12600,"ofen":12601,"ethis":12602,"Ġskimp":12603,"afi":12604,"Ġenough":12605,"othor":12606,"Ġabbre":12607,"Ġabyss":12608,"ittin":12609,"Ġcoy":12610,"issance":12611,"Ġsupr":12612,"Ġsupport":12613,"Ġcarl":12614,"Ġperg":12615,"Ġperr":12616,"Ġperic":12617,"Ġpermiss":12618,"oyo":12619,"oyle":12620,"ohns":12621,"Ġsmol":12622,"owned":12623,"anken":12624,"Ġovercom":12625,"Ġovercomp":12626,"Ġparac":12627,"Ġparatr":12628,"Ġempir":12629,"psps":12630,"Ġgluc":12631,"Ġrecre":12632,"orea":12633,"Ġresist":12634,"Ġtelet":12635,"amme":12636,"ammered":12637,"Ġstrict":12638,"flight":12639,"eeeerrr":12640,"bek":12641,"beams":12642,"Ġelabor":12643,"opher":12644,"Ġheim":12645,"ample":12646,"umption":12647,"itching":12648,"eship":12649,"Ġmisinter":12650,"Ġmisbeh":12651,"ydick":12652,"Ġdecid":12653,"Ġdecent":12654,"ghe":12655,"Ġapl":12656,"Ġapart":12657,"Ġcompart":12658,"Ġcompens":12659,"glin":12660,"Ġtwel":12661,"Ġdescr":12662,"Ġintra":12663,"Ġguilt":12664,"Ġapprent":12665,"ielle":12666,"Ġbarg":12667,"fuckery":12668,"Ġrepuls":12669,"Ġunderc":12670,"Ġsquid":12671,"Ġminec":12672,"strong":12673,"Ġevry":12674,"ooooooow":12675,"Ġautor":12676,"Ġautod":12677,"Ġdefec":12678,"Ġdefens":12679,"tein":12680,"meal":12681,"enging":12682,"ycam":12683,"Ġdemol":12684,"rrrrrrrrr":12685,"erves":12686,"Ġboud":12687,"Ġinsuff":12688,"incol":12689,"Ġdepart":12690,"drink":12691,"drunk":12692,"oord":12693,"Ġerect":12694,"Ġmalef":12695,"Ġdiet":12696,"Ġbros":12697,"Ġbrother":12698,"Ġsurg":12699,"uchen":12700,"Ġremov":12701,"Ġcontamin":12702,"eneur":12703,"Ġcorp":12704,"immers":12705,"Ġcommiser":12706,"Ġcommercial":12707,"Ġmicrom":12708,"Ġcalibr":12709,"Ġrelativ":12710,"Ġcrock":12711,"uncle":12712,"Ġobd":12713,"unches":12714,"Ġaccent":12715,"Ġgenuin":12716,"Ġcapac":12717,"Ġcapric":12718,"position":12719,"liners":12720,"Ġwrest":12721,"Ġavoc":12722,"Ġsomew":12723,"aldo":12724,"Ġunscr":12725,"Ġomeg":12726,"Ġmedical":12727,"Ġinval":12728,"Ġinvig":12729,"Ġnotall":12730,"utsu":12731,"Ġmegac":12732,"Ġmegad":12733,"mmmmmmmmmm":12734,"ooga":12735,"ariat":12736,"onking":12737,"Ġbuy":12738,"Ġregular":12739,"Ġconfus":12740,"Ġmultit":12741,"Ġmultim":12742,"Ġexcav":12743,"kng":12744,"atural":12745,"Ġitem":12746,"Ġrevel":12747,"Ġfacebook":12748,"Ġhypothes":12749,"Ġrhyth":12750,"Ġlegend":12751,"Ġbiom":12752,"Ġbiot":12753,"Ġsilly":12754,"Ġfreer":12755,"Ġcrev":12756,"Ġmelod":12757,"Ġpartic":12758,"Ġsecur":12759,"uppet":12760,"Ġextro":12761,"Ġdiscern":12762,"emption":12763,"rogs":12764,"Ġpresident":12765,"ourself":12766,"Ġhonor":12767,"eteer":12768,"Ġaston":12769,"etched":12770,"Ġsprink":12771,"alta":12772,"Ġcolloqu":12773,"interesting":12774,"Ġnecro":12775,"Ġabsol":12776,"Ġabsurd":12777,"Ġbasil":12778,"eaters":12779,"aughters":12780,"Ġpostp":12781,"Ġwinds":12782,"porting":12783,"iaries":12784,"Ġetym":12785,"Ġeffect":12786,"Ġsympt":12787,"urtz":12788,"Ġorgasm":12789,"Ġwebs":12790,"Ġshrink":12791,"rafting":12792,"ololol":12793,"Ġcauc":12794,"piracy":12795,"Ġraised":12796,"Ġethi":12797,"almart":12798,"Ġwestern":12799,"ladies":12800,"Ġcatsin":12801,"Ġratem":12802,"serylalanyl":12803,"Ġpoops":12804,"level":12805,"Ġlatest":12806,"ooshed":12807,"Ġmathem":12808,"Ġdidger":12809,"Ġhitchh":12810,"Ġanswer":12811,"Ġinhab":12812,"opedia":12813,"Ġbacon":12814,"Ġvanill":12815,"Ġhippop":12816,"Ġsegreg":12817,"Ġservic":12818,"Ġmiddle":12819,"Ġsentiment":12820,"onymous":12821,"Ġvillain":12822,"Ġprincess":12823,"Ġreplen":12824,"cutting":12825,"badger":12826,"Ġproduct":12827,"Ġprosth":12828,"Ġklept":12829,"Ġpiper":12830,"Ġtailg":12831,"Ġimmunosup":12832,"olutions":12833,"film":12834,"Ġjacob":12835,"Ġthorough":12836,"Ġchuckle":12837,"Ġinstrument":12838,"uclear":12839,"abarber":12840,"otypical":12841,"aoaoaoao":12842,"Ġvirtual":12843,"Ġvexill":12844,"Ġpneumon":12845,"Ġupvot":12846,"videos":12847,"aaaaaaaaaaaaaaaaaaaaaaaaaaaaaaaaaaaaaaaaaaaaaaaaaaaaaaaaaaaaaaaaaaaaaaaaaaaaaaaaaaaaaaaaaaaaaaaaaaaaaaaaaaaaaaaaaaaaaaaaaaaaaaaaaaaaaaaaaaaaaaaaaaaaaaaaaaaaaaaaaaaaaaaaaaaaaaaaaaaaaaaaaaaaaaaaaaaaaaaaaaaaaaaaaaaaaaaaaaaaaaaaaaaaaaaaaaaaaaaaaaaaaaaaaaaaaaaaaaaaaaaaaaaaaaaaaaaaaaaaaaaaaaaaaaaaaaaaaaaaaaaaaaaaaaaaaaaaaaaaaaaaaaaaaaaaaaaaaaaaaaaaaaaaaaaaaaaaaaaaaaaaaaaaaaaaaaaaaaaaaaaaaaaaaaaaaaaaaaaaaaaaaaaaaaaaaaaaaaaaaaaaaaaaaaaaaaaaaaaaaaaaaaaaaaaaaaaaaaaaaaaaaaaaaaaaaaaaaaaaaaaaaaaaaaaaaaaaaaaaaaaaaaaaaaaaaaaaaaaaaaaaaaaaaaaaaaaaaaaaaaaaaaaaaaaaaaaaaaaaaaaaaaaaaaaaaaaaaaaaaaaaaaaaaaaaaaaaaaaaaaaaaaaaaaaaaaaaaaaaaaaaaaaaaaaaaaaaaaaaaaaaaaaaaaaaaaaaaaaaaaaaaaaaaaaaaaaaaaaaaaaaaaaaaaaaaaaaaaaaaaaaaaaaaaaaaaaaaaaaaaaaaaaaaaaaaaaaaaaaaaaaaaaaaaaaaaaaaaaaaaaaaaaaaaaaaaaaaaaaaaaaaaaaaaaaaaaaaaaaaaaaaaaaaaaaaaaaaaaaaaaaaaaaaaaaaaaaaaaaaaaaaaaaaaaaaaaaaaaaaaaaaaaaaaaaaaaaaaaaaaaaaaaaaaaaaaaaaaaaaaaaaaaaaaaaaaaaaaaaaaaaaaaaaaaaaaaaaaaaaaaaaaaaaaaaaaaaaaaaaaaaaaaaaaaaaaaaaaaaaaaaaaaaaaaaaaaaaaaaaaaaaaaaaaaaaaaaaaaaaaaa":12848,"fuckermotherfuckermotherfuckermotherfuckermother":12849,"american":12850,"Ġpysch":12851,"Ġindividual":12852,"Ġextravag":12853,"methionyl":12854,"Ġdecriminal":12855,"aer":12856,"aub":12857,"bes":12858,"bum":12859,"buds":12860,"busters":12861,"cans":12862,"crew":12863,"du":12864,"dis":12865,"det":12866,"date":12867,"dash":12868,"damn":12869,"ej":12870,"eah":12871,"fork":12872,"fore":12873,"faces":12874,"favor":12875,"gum":12876,"gah":12877,"gear":12878,"green":12879,"hum":12880,"iences":12881,"jin":12882,"journ":12883,"laf":12884,"lox":12885,"lery":12886,"lene":12887,"mw":12888,"mile":12889,"nox":12890,"nacks":12891,"page":12892,"qh":12893,"rg":12894,"rm":12895,"roo":12896,"rive":12897,"river":12898,"sis":12899,"tastic":12900,"uard":12901,"uite":12902,"vac":12903,"vies":12904,"vill":12905,"wag":12906,"wig":12907,"wah":12908,"wang":12909,"xo":12910,"year":12911,"youd":12912,"zon":12913,"zus":12914,"Ġick":12915,"Ġism":12916,"Ġuuuuuuuu":12917,"Ġify":12918,"Ġahahahahahahahah":12919,"eren":12920,"erra":12921,"erver":12922,"inum":12923,"inist":12924,"iney":12925,"inance":12926,"inators":12927,"Ġsigh":12928,"Ġshhh":12929,"eso":12930,"esno":12931,"anies":12932,"aac":12933,"aap":12934,"onee":12935,"onent":12936,"onnnn":12937,"Ġcrafts":12938,"enr":12939,"enet":12940,"enie":12941,"enzo":12942,"atized":12943,"arro":12944,"eeh":12945,"eever":12946,"edel":12947,"alibr":12948,"alicious":12949,"Ġpg":12950,"Ġpum":12951,"Ġpann":12952,"Ġpout":12953,"Ġppp":12954,"Ġpeet":12955,"Ġpunn":12956,"Ġpeel":12957,"Ġplex":12958,"Ġbep":12959,"Ġbiss":12960,"Ġbals":12961,"Ġbatch":12962,"Ġboon":12963,"Ġbeep":12964,"Ġbucc":12965,"Ġbears":12966,"Ġbobs":12967,"Ġbrows":12968,"Ġbumble":12969,"Ġbbbbb":12970,"Ġmiiii":12971,"Ġmoooooooo":12972,"Ġmors":12973,"Ġmore":12974,"Ġmoom":12975,"Ġmung":12976,"Ġmerg":12977,"Ġmening":12978,"Ġmrs":12979,"isen":12980,"isingly":12981,"orated":12982,"orps":12983,"orpor":12984,"Ġdz":12985,"Ġdand":12986,"Ġdost":12987,"Ġdual":12988,"Ġdurr":12989,"Ġdizz":12990,"Ġduv":12991,"Ġdoob":12992,"Ġthh":12993,"Ġtug":12994,"Ġtont":12995,"Ġtuss":12996,"Ġtict":12997,"Ġtraw":12998,"Ġtactic":12999,"iik":13000,"itives":13001,"Ġrf":13002,"Ġrii":13003,"Ġradd":13004,"Ġrapt":13005,"Ġreem":13006,"leaf":13007,"Ġfew":13008,"Ġfenn":13009,"Ġfeet":13010,"Ġfeck":13011,"Ġfagg":13012,"Ġfaul":13013,"Ġfebr":13014,"Ġfiber":13015,"asel":13016,"asure":13017,"Ġhatt":13018,"Ġhnnnn":13019,"Ġheel":13020,"Ġhiph":13021,"Ġhawa":13022,"unun":13023,"elab":13024,"Ġgly":13025,"Ġguu":13026,"Ġgutt":13027,"Ġgeek":13028,"Ġgobb":13029,"Ġgibb":13030,"Ġwhh":13031,"Ġwiiii":13032,"Ġwew":13033,"Ġwett":13034,"Ġweeeeee":13035,"Ġwomb":13036,"Ġweld":13037,"Ġwoud":13038,"Ġwinst":13039,"Ġwedding":13040,"usias":13041,"ilion":13042,"ilent":13043,"ilization":13044,"amac":13045,"amation":13046,"roth":13047,"roads":13048,"roaches":13049,"adan":13050,"adoo":13051,"Ġld":13052,"Ġlj":13053,"Ġlous":13054,"Ġlll":13055,"Ġlund":13056,"Ġlach":13057,"Ġloooooooo":13058,"Ġlich":13059,"Ġloh":13060,"Ġlaaaaaa":13061,"Ġloss":13062,"Ġlomb":13063,"Ġlands":13064,"Ġlift":13065,"Ġlizard":13066,"chain":13067,"Ġnef":13068,"Ġnood":13069,"Ġneh":13070,"Ġneth":13071,"Ġnunch":13072,"Ġnuts":13073,"Ġnaut":13074,"Ġniger":13075,"olk":13076,"olini":13077,"ersc":13078,"abd":13079,"abber":13080,"abytes":13081,"osen":13082,"osts":13083,"ospor":13084,"Ġeq":13085,"Ġeasy":13086,"Ġkf":13087,"Ġki":13088,"Ġkul":13089,"Ġkav":13090,"Ġkeg":13091,"Ġkov":13092,"Ġkach":13093,"Ġkats":13094,"uty":13095,"utor":13096,"utic":13097,"utable":13098,"idine":13099,"idium":13100,"eeeeer":13101,"otz":13102,"otally":13103,"api":13104,"apot":13105,"apples":13106,"agm":13107,"agina":13108,"entence":13109,"igal":13110,"igent":13111,"igth":13112,"igious":13113,"igma":13114,"imy":13115,"imar":13116,"imals":13117,"ulo":13118,"ecar":13119,"irty":13120,"emans":13121,"ememes":13122,"Ġvn":13123,"Ġvee":13124,"Ġvard":13125,"Ġvoll":13126,"Ġvouch":13127,"Ġvoid":13128,"Ġvener":13129,"Ġozz":13130,"Ġunad":13131,"Ġunqu":13132,"Ġunpl":13133,"Ġunbl":13134,"Ġunins":13135,"Ġunbe":13136,"Ġinm":13137,"Ġincom":13138,"ayas":13139,"Ġjm":13140,"Ġjum":13141,"Ġjamm":13142,"owel":13143,"stro":13144,"sttt":13145,"stown":13146,"steak":13147,"Ġstank":13148,"Ġstunt":13149,"Ġstopp":13150,"opods":13151,"istered":13152,"andra":13153,"estra":13154,"estry":13155,"Ġchl":13156,"Ġches":13157,"Ġchak":13158,"Ġchib":13159,"Ġchef":13160,"Ġchunk":13161,"Ġchopp":13162,"Ġchiro":13163,"Ġshep":13164,"Ġshind":13165,"Ġsherr":13166,"Ġshorts":13167,"Ġshopl":13168,"Ġreals":13169,"Ġreign":13170,"Ġreinc":13171,"Ġreiter":13172,"ationist":13173,"Ġae":13174,"Ġaii":13175,"upa":13176,"Ġthurs":13177,"ieux":13178,"iiiiiiiii":13179,"allen":13180,"rae":13181,"Ġyup":13182,"Ġyoh":13183,"Ġyeet":13184,"udu":13185,"ibel":13186,"ibur":13187,"ibers":13188,"Ġspat":13189,"Ġspoof":13190,"obot":13191,"obod":13192,"ardon":13193,"Ġcongl":13194,"epar":13195,"epting":13196,"eport":13197,"icka":13198,"iances":13199,"endale":13200,"assy":13201,"assholes":13202,"avel":13203,"angi":13204,"ishk":13205,"ishments":13206,"eburg":13207,"lls":13208,"shoot":13209,"sheet":13210,"Ġexempl":13211,"iku":13212,"awar":13213,"Ġzach":13214,"Ġzwe":13215,"Ġzzzzz":13216,"Ġblah":13217,"Ġblond":13218,"Ġblanch":13219,"Ġblinds":13220,"Ġscan":13221,"ewww":13222,"eword":13223,"Ġwhy":13224,"Ġwhaaaa":13225,"Ġwhadd":13226,"ylene":13227,"ovel":13228,"ovsky":13229,"Ġpris":13230,"Ġprison":13231,"Ġproj":13232,"Ġproject":13233,"ansen":13234,"ansky":13235,"Ġcrest":13236,"Ġcriss":13237,"Ġfloof":13238,"Ġfri":13239,"Ġfriv":13240,"Ġfrug":13241,"Ġbrim":13242,"Ġbrach":13243,"Ġbreed":13244,"Ġaldr":13245,"Ġalway":13246,"Ġarp":13247,"Ġarter":13248,"Ġarms":13249,"ysm":13250,"oure":13251,"Ġgramp":13252,"ggy":13253,"Ġlean":13254,"Ġleak":13255,"Ġdisf":13256,"Ġdisab":13257,"Ġdissp":13258,"Ġdisinf":13259,"Ġdisfig":13260,"ttle":13261,"eher":13262,"orte":13263,"Ġsliiii":13264,"Ġslipp":13265,"Ġslutt":13266,"Ġslipper":13267,"Ġslobber":13268,"bery":13269,"Ġplumm":13270,"Ġquas":13271,"Ġqueb":13272,"ialy":13273,"ynx":13274,"ryph":13275,"attles":13276,"evo":13277,"azo":13278,"Ġphy":13279,"blb":13280,"Ġads":13281,"Ġaden":13282,"Ġadap":13283,"Ġadjust":13284,"ofth":13285,"ofuck":13286,"priv":13287,"prints":13288,"Ġskyr":13289,"mentation":13290,"icha":13291,"afa":13292,"Ġsnoo":13293,"Ġsnor":13294,"Ġsniv":13295,"Ġsnick":13296,"Ġsnark":13297,"Ġsneez":13298,"annas":13299,"Ġenlist":13300,"Ġabc":13301,"Ġabras":13302,"itta":13303,"Ġcoel":13304,"ustin":13305,"claw":13306,"yped":13307,"Ġcaric":13308,"Ġcarry":13309,"osters":13310,"Ġmarx":13311,"Ġmarath":13312,"Ġmarvel":13313,"Ġswir":13314,"Ġswift":13315,"Ġschle":13316,"Ġschre":13317,"Ġschwe":13318,"oher":13319,"owner":13320,"ontext":13321,"Ġemil":13322,"Ġembe":13323,"ectly":13324,"actable":13325,"Ġxr":13326,"ermans":13327,"intellig":13328,"Ġglac":13329,"ernt":13330,"Ġasym":13331,"grams":13332,"Ġreccom":13333,"Ġreconn":13334,"Ġreclass":13335,"Ġrecycl":13336,"Ġbever":13337,"error":13338,"Ġteab":13339,"ammable":13340,"Ġstrength":13341,"airing":13342,"oxin":13343,"frames":13344,"brad":13345,"flowers":13346,"encers":13347,"romorph":13348,"romantic":13349,"ennials":13350,"Ġneat":13351,"Ġneop":13352,"comment":13353,"Ġmcb":13354,"beut":13355,"aterial":13356,"ophage":13357,"Ġheight":13358,"Ġseism":13359,"amped":13360,"Ġdeodor":13361,"Ġdeutsch":13362,"innie":13363,"uhe":13364,"Ġmez":13365,"eshow":13366,"Ġmisp":13367,"while":13368,"ounder":13369,"Ġmonos":13370,"Ġmonot":13371,"Ġforec":13372,"Ġforef":13373,"Ġforward":13374,"Ġcomprom":13375,"Ġcomputer":13376,"Ġtween":13377,"Ġmanit":13378,"Ġmanch":13379,"Ġdespar":13380,"Ġintest":13381,"ossible":13382,"Ġknick":13383,"Ġappreh":13384,"iffle":13385,"Ġpolt":13386,"Ġpolter":13387,"ahahahahah":13388,"Ġreposs":13389,"Ġweir":13390,"Ġeval":13391,"Ġcolle":13392,"team":13393,"teacher":13394,"ugga":13395,"ummed":13396,"offer":13397,"astern":13398,"Ġdemotiv":13399,"aggin":13400,"inced":13401,"Ġirrespons":13402,"forward":13403,"Ġmalad":13404,"ouls":13405,"Ġdiaph":13406,"Ġremot":13407,"Ġremod":13408,"Ġremind":13409,"Ġcontempl":13410,"Ġbackyard":13411,"Ġinfer":13412,"Ġones":13413,"Ġcorro":13414,"immed":13415,"Ġrela":13416,"erday":13417,"Ġentertain":13418,"unced":13419,"Ġconsum":13420,"keit":13421,"aek":13422,"Ġhandc":13423,"Ġgeni":13424,"Ġgenoc":13425,"Ġcatac":13426,"Ġcatfish":13427,"guide":13428,"weigh":13429,"Ġelec":13430,"ysts":13431,"sssssssssss":13432,"inoid":13433,"prov":13434,"Ġedit":13435,"oosa":13436,"Ġwrist":13437,"Ġwrink":13438,"reads":13439,"reader":13440,"ggggggg":13441,"Ġmediev":13442,"opsych":13443,"Ġharb":13444,"Ġharsh":13445,"erkin":13446,"legic":13447,"iendo":13448,"iends":13449,"Ġepile":13450,"Ġinstall":13451,"abbers":13452,"onked":13453,"Ġunexpectedd":13454,"Ġunexpectedp":13455,"asca":13456,"Ġclev":13457,"Ġtrev":13458,"Ġregistr":13459,"Ġmultif":13460,"Ġexcers":13461,"Ġexcell":13462,"Ġiter":13463,"Ġeveryb":13464,"Ġangr":13465,"Ġserver":13466,"Ġserious":13467,"enched":13468,"Ġgamec":13469,"ablity":13470,"Ġlaud":13471,"Ġhypervent":13472,"Ġsolic":13473,"otechn":13474,"Ġdebr":13475,"Ġconcentr":13476,"Ġdownst":13477,"autiful":13478,"Ġsecr":13479,"ittery":13480,"ittering":13481,"Ġfurth":13482,"Ġunfort":13483,"Ġholoc":13484,"attery":13485,"Ġdenis":13486,"Ġworks":13487,"Ġworship":13488,"empor":13489,"Ġfeatur":13490,"ourses":13491,"Ġeye":13492,"Ġeyec":13493,"Ġohm":13494,"Ġohmygod":13495,"omped":13496,"agnet":13497,"Ġpersonn":13498,"Ġpersever":13499,"Ġvolcan":13500,"Ġgrandm":13501,"Ġsemif":13502,"etching":13503,"notes":13504,"ershire":13505,"Ġembry":13506,"interest":13507,"Ġboner":13508,"Ġrestaur":13509,"Ġtelepath":13510,"Ġbutton":13511,"Ġunple":13512,"kkkkkk":13513,"Ġgoats":13514,"Ġequil":13515,"rophobia":13516,"Ġphotob":13517,"Ġpedoph":13518,"Ġportug":13519,"marts":13520,"without":13521,"Ġneglig":13522,"iculous":13523,"Ġbattlest":13524,"Ġdereg":13525,"lects":13526,"Ġhouseh":13527,"Ġconvuls":13528,"Ġbloods":13529,"Ġtomat":13530,"Ġafford":13531,"Ġcontract":13532,"Ġshriv":13533,"Ġodyss":13534,"Ġpredic":13535,"Ġgolden":13536,"umbered":13537,"Ġache":13538,"Ġextraterr":13539,"Ġarrest":13540,"esthesia":13541,"ktkt":13542,"Ġprocess":13543,"cribes":13544,"Ġmandal":13545,"Ġhoriz":13546,"Ġtempl":13547,"Ġforgett":13548,"initely":13549,"Ġtamag":13550,"likeim":13551,"Ġmmh":13552,"Ġbayb":13553,"Ġbayon":13554,"Ġpercept":13555,"present":13556,"eboys":13557,"Ġmention":13558,"Ġprosec":13559,"Ġkamik":13560,"hoids":13561,"Ġmagnific":13562,"Ġcompliment":13563,"Ġhoneymoon":13564,"questions":13565,"ylglutamin":13566,"Ġhollow":13567,"Ġmarket":13568,"Ġsymm":13569,"dingding":13570,"aaayyy":13571,"edrine":13572,"Ġpleasant":13573,"Ġhedg":13574,"Ġhusband":13575,"Ġspiritual":13576,"Ġboomer":13577,"Ġkitties":13578,"odoubt":13579,"Ġbikin":13580,"ounced":13581,"Ġtowns":13582,"Ġinconv":13583,"planet":13584,"Ġbronch":13585,"Ġjenkin":13586,"Ġpictures":13587,"Ġhundred":13588,"Ġconjug":13589,"Ġreverber":13590,"Ġcelebrity":13591,"Ġbibli":13592,"Ġlouis":13593,"garden":13594,"grounds":13595,"Ġmeasur":13596,"Ġitalic":13597,"Ġrejuv":13598,"Ġanesthet":13599,"Ġrelationship":13600,"pocket":13601,"Ġnightsh":13602,"Ġfreedom":13603,"Ġtroublesh":13604,"Ġhallucin":13605,"Ġcauter":13606,"Ġguarant":13607,"Ġpropagand":13608,"Ġincorpor":13609,"goblin":13610,"Ġawkward":13611,"Ġdisassoc":13612,"Ġamateur":13613,"didnothingwrong":13614,"Ġdisembow":13615,"aoo":13616,"aic":13617,"bach":13618,"brow":13619,"benders":13620,"cult":13621,"cutter":13622,"dor":13623,"das":13624,"dow":13625,"dance":13626,"dicks":13627,"fn":13628,"farts":13629,"gk":13630,"hog":13631,"hell":13632,"helm":13633,"iard":13634,"ienne":13635,"junk":13636,"jones":13637,"kx":13638,"kos":13639,"kiss":13640,"lib":13641,"late":13642,"lane":13643,"leness":13644,"lover":13645,"lave":13646,"lives":13647,"lighting":13648,"leeping":13649,"match":13650,"merc":13651,"nu":13652,"nad":13653,"num":13654,"nets":13655,"oire":13656,"pine":13657,"pted":13658,"pets":13659,"punk":13660,"packs":13661,"peter":13662,"picks":13663,"qn":13664,"rib":13665,"rite":13666,"tu":13667,"tal":13668,"tone":13669,"tards":13670,"tooth":13671,"viii":13672,"wt":13673,"wly":13674,"wack":13675,"wew":13676,"wyn":13677,"wink":13678,"wax":13679,"were":13680,"winds":13681,"wolves":13682,"xv":13683,"yi":13684,"yz":13685,"yeh":13686,"zones":13687,"Ġett":13688,"Ġats":13689,"Ġips":13690,"Ġiiiiii":13691,"ertion":13692,"inely":13693,"incl":13694,"Ġsart":13695,"Ġsef":13696,"Ġsith":13697,"Ġsark":13698,"Ġsult":13699,"Ġsizz":13700,"Ġsuch":13701,"Ġsover":13702,"Ġsabb":13703,"esion":13704,"esign":13705,"anis":13706,"anov":13707,"anese":13708,"anza":13709,"aag":13710,"onh":13711,"onin":13712,"onion":13713,"onies":13714,"onks":13715,"onville":13716,"Ġcuuuu":13717,"Ġcoom":13718,"Ġcamm":13719,"Ġcrop":13720,"Ġcerv":13721,"Ġcuts":13722,"ename":13723,"atical":13724,"eden":13725,"edom":13726,"alers":13727,"alter":13728,"alisation":13729,"Ġpaaaa":13730,"Ġpim":13731,"Ġpuck":13732,"Ġpash":13733,"Ġples":13734,"Ġpau":13735,"Ġpinn":13736,"Ġpops":13737,"Ġpeter":13738,"Ġpoin":13739,"Ġpaid":13740,"Ġpidge":13741,"Ġbers":13742,"Ġbith":13743,"Ġbere":13744,"Ġboop":13745,"Ġmuuuu":13746,"Ġmia":13747,"Ġmith":13748,"Ġmerm":13749,"Ġmool":13750,"Ġmeee":13751,"Ġmumb":13752,"Ġmyb":13753,"Ġmaus":13754,"Ġmirc":13755,"Ġmao":13756,"Ġmazz":13757,"oron":13758,"orians":13759,"orld":13760,"Ġdile":13761,"Ġdoon":13762,"Ġdai":13763,"Ġdoooooo":13764,"Ġdorr":13765,"Ġdeng":13766,"Ġdeem":13767,"Ġdrog":13768,"Ġduuuuuu":13769,"Ġdawn":13770,"Ġdanz":13771,"Ġdinner":13772,"Ġdinkle":13773,"Ġtii":13774,"Ġtic":13775,"Ġtous":13776,"Ġtally":13777,"Ġtev":13778,"Ġtof":13779,"Ġtiff":13780,"Ġtarn":13781,"Ġtamb":13782,"Ġtuv":13783,"Ġtaut":13784,"Ġtables":13785,"iic":13786,"itone":13787,"itically":13788,"itative":13789,"icum":13790,"Ġrop":13791,"Ġration":13792,"Ġriz":13793,"Ġries":13794,"Ġrou":13795,"Ġrage":13796,"Ġrums":13797,"Ġrabarber":13798,"lein":13799,"leon":13800,"leck":13801,"leju":13802,"Ġfud":13803,"Ġfash":13804,"Ġfou":13805,"Ġfats":13806,"Ġfark":13807,"Ġffff":13808,"Ġfuhr":13809,"Ġfoster":13810,"asive":13811,"asingly":13812,"Ġhac":13813,"Ġhev":13814,"Ġhof":13815,"Ġhild":13816,"Ġhaus":13817,"Ġhamb":13818,"Ġhave":13819,"Ġhogg":13820,"unal":13821,"elk":13822,"elion":13823,"elist":13824,"elong":13825,"eliness":13826,"Ġgit":13827,"Ġgah":13828,"Ġgiz":13829,"Ġgug":13830,"Ġgive":13831,"Ġgeth":13832,"Ġguff":13833,"Ġgoooooo":13834,"Ġghe":13835,"Ġgabb":13836,"Ġgird":13837,"Ġgurg":13838,"acio":13839,"Ġwart":13840,"Ġwok":13841,"Ġwou":13842,"Ġwings":13843,"Ġwail":13844,"Ġwint":13845,"Ġwander":13846,"Ġwords":13847,"usal":13848,"usband":13849,"ilians":13850,"iliac":13851,"amt":13852,"amu":13853,"amate":13854,"etop":13855,"adt":13856,"adam":13857,"adine":13858,"addd":13859,"adadd":13860,"Ġlus":13861,"Ġlost":13862,"Ġlull":13863,"Ġlumb":13864,"Ġloch":13865,"Ġlaps":13866,"Ġluv":13867,"Ġlimb":13868,"Ġlumin":13869,"Ġlolololol":13870,"chaf":13871,"Ġnen":13872,"Ġnii":13873,"Ġnand":13874,"Ġnour":13875,"Ġnym":13876,"Ġnipp":13877,"Ġnutt":13878,"Ġnaus":13879,"Ġnuth":13880,"Ġnurt":13881,"Ġnaked":13882,"Ġnigger":13883,"Ġnerf":13884,"olly":13885,"olate":13886,"olysis":13887,"omber":13888,"ersey":13889,"abh":13890,"abras":13891,"iiiiin":13892,"uuh":13893,"uut":13894,"uugh":13895,"osia":13896,"Ġeu":13897,"Ġkii":13898,"Ġkass":13899,"Ġkew":13900,"Ġkont":13901,"Ġkerm":13902,"Ġkels":13903,"Ġkale":13904,"Ġkeel":13905,"Ġkosh":13906,"Ġkrem":13907,"Ġkryp":13908,"uters":13909,"utical":13910,"otter":13911,"otional":13912,"apro":13913,"apap":13914,"agar":13915,"aget":13916,"agec":13917,"agra":13918,"enters":13919,"entia":13920,"entry":13921,"imony":13922,"ulic":13923,"ulia":13924,"ulting":13925,"ulative":13926,"ecret":13927,"emn":13928,"emu":13929,"Ġvb":13930,"Ġvad":13931,"Ġvay":13932,"Ġvio":13933,"Ġvint":13934,"Ġvarn":13935,"Ġverst":13936,"Ġvaul":13937,"Ġvision":13938,"Ġoat":13939,"Ġours":13940,"Ġunv":13941,"Ġunco":13942,"Ġunfr":13943,"Ġunimp":13944,"Ġuninv":13945,"ahol":13946,"ahara":13947,"ahaah":13948,"Ġjk":13949,"Ġjod":13950,"Ġjett":13951,"Ġjax":13952,"Ġjuss":13953,"Ġjames":13954,"Ġjajaj":13955,"owder":13956,"Ġstil":13957,"Ġstol":13958,"Ġstir":13959,"Ġstub":13960,"Ġstuck":13961,"Ġstonew":13962,"andar":13963,"esto":13964,"estorm":13965,"establ":13966,"Ġching":13967,"Ġchut":13968,"Ġchock":13969,"Ġchinch":13970,"thor":13971,"thorn":13972,"aknow":13973,"Ġshul":13974,"Ġshud":13975,"Ġshard":13976,"Ġshang":13977,"Ġshopp":13978,"Ġshatter":13979,"ssst":13980,"quat":13981,"quill":13982,"ffee":13983,"Ġrez":13984,"Ġreat":13985,"Ġreatt":13986,"Ġreald":13987,"Ġreleg":13988,"Ġreanim":13989,"odactyl":13990,"Ġthn":13991,"allo":13992,"raff":13993,"Ġyn":13994,"Ġyur":13995,"Ġyaw":13996,"Ġyoooooo":13997,"Ġyears":13998,"uges":13999,"uging":14000,"udy":14001,"udent":14002,"Ġspeck":14003,"ellin":14004,"ellis":14005,"ellor":14006,"ellum":14007,"vering":14008,"Ġconfront":14009,"epted":14010,"ickly":14011,"ocom":14012,"ocument":14013,"Ġtrin":14014,"Ġtrag":14015,"Ġtrim":14016,"assment":14017,"avo":14018,"avy":14019,"astics":14020,"angar":14021,"angling":14022,"angement":14023,"ebus":14024,"ebab":14025,"egl":14026,"egirl":14027,"shin":14028,"shine":14029,"shield":14030,"Ġexas":14031,"Ġexos":14032,"Ġexact":14033,"Ġexamin":14034,"Ġexager":14035,"ikum":14036,"arta":14037,"Ġzam":14038,"Ġzom":14039,"Ġzap":14040,"Ġzep":14041,"Ġbless":14042,"Ġblend":14043,"Ġblok":14044,"Ġscoot":14045,"Ġscatter":14046,"ewall":14047,"Ġwhatt":14048,"Ġwhite":14049,"Ġwhirl":14050,"athes":14051,"ylthreonyl":14052,"ylvania":14053,"exts":14054,"Ġprogn":14055,"placement":14056,"Ġcris":14057,"Ġcruel":14058,"unded":14059,"underst":14060,"tryptoph":14061,"achts":14062,"Ġfran":14063,"Ġfram":14064,"Ġbrun":14065,"Ġalw":14066,"Ġalder":14067,"Ġarrow":14068,"Ġarbor":14069,"efuck":14070,"eform":14071,"efire":14072,"efucking":14073,"Ġgrill":14074,"Ġgrunt":14075,"Ġgrays":14076,"Ġlech":14077,"Ġdisd":14078,"Ġdisob":14079,"Ġdisco":14080,"Ġdiscon":14081,"Ġdisconn":14082,"manager":14083,"appen":14084,"appened":14085,"pher":14086,"Ġclu":14087,"Ġclint":14088,"Ġclums":14089,"Ġclaim":14090,"Ġclothes":14091,"ehand":14092,"okai":14093,"iiiiiiiiiiiiiiiiiiiiiiii":14094,"zzi":14095,"ongus":14096,"ongue":14097,"orty":14098,"Ġslith":14099,"Ġplain":14100,"ddit":14101,"oufl":14102,"ialidoc":14103,"iered":14104,"ryst":14105,"Ġaction":14106,"Ġphr":14107,"Ġphone":14108,"Ġamin":14109,"Ġamen":14110,"Ġamor":14111,"Ġamir":14112,"Ġamalg":14113,"Ġadel":14114,"Ġadvers":14115,"Ġaddr":14116,"ofucking":14117,"Ġskip":14118,"Ġskank":14119,"anni":14120,"Ġcoin":14121,"Ġcoud":14122,"Ġcoast":14123,"issed":14124,"Ġdrugg":14125,"Ġcaref":14126,"ostomy":14127,"Ġswee":14128,"Ġswall":14129,"Ġswiss":14130,"Ġscht":14131,"Ġschoo":14132,"Ġschem":14133,"inke":14134,"Ġsmil":14135,"Ġsmorg":14136,"Ġsmurf":14137,"owning":14138,"ankles":14139,"Ġparl":14140,"Ġparab":14141,"Ġparach":14142,"Ġemoj":14143,"ectomies":14144,"Ġxm":14145,"Ġxp":14146,"erme":14147,"pse":14148,"Ġglam":14149,"Ġgloom":14150,"anca":14151,"ancers":14152,"erne":14153,"Ġasth":14154,"Ġasdf":14155,"Ġrecl":14156,"Ġrecons":14157,"ondition":14158,"Ġsuburb":14159,"Ġsublim":14160,"errys":14161,"ultural":14162,"Ġstren":14163,"Ġstrug":14164,"oxy":14165,"fries":14166,"brick":14167,"flip":14168,"encia":14169,"Ġneig":14170,"ushi":14171,"ushka":14172,"ooned":14173,"Ġinterv":14174,"ophon":14175,"ophen":14176,"ungen":14177,"Ġheats":14178,"letely":14179,"Ġsein":14180,"Ġseiz":14181,"arming":14182,"Ġdeer":14183,"eshare":14184,"Ġmisinform":14185,"Ġantif":14186,"airo":14187,"Ġassist":14188,"Ġmonk":14189,"Ġmonth":14190,"Ġcompuls":14191,"Ġaga":14192,"Ġagric":14193,"Ġtwist":14194,"Ġmaneu":14195,"burns":14196,"Ġintoler":14197,"Ġintellect":14198,"Ġguzz":14199,"Ġappr":14200,"Ġpolyc":14201,"Ġupp":14202,"Ġrepur":14203,"Ġreport":14204,"Ġsquigg":14205,"Ġminig":14206,"Ġminimal":14207,"never":14208,"Ġcolumb":14209,"Ġdefer":14210,"Ġinciner":14211,"tek":14212,"uggets":14213,"Ġindoctr":14214,"heat":14215,"atri":14216,"unned":14217,"Ġredistr":14218,"ropes":14219,"Ġtransgress":14220,"escale":14221,"Ġdemean":14222,"pecting":14223,"sci":14224,"scale":14225,"erving":14226,"Ġopens":14227,"erball":14228,"erback":14229,"Ġinsect":14230,"Ġdeperson":14231,"Ġimpuls":14232,"Ġimplement":14233,"aurd":14234,"drama":14235,"oaded":14236,"oading":14237,"Ġiraq":14238,"forced":14239,"Ġuch":14240,"Ġerry":14241,"Ġerotic":14242,"Ġfucked":14243,"izzard":14244,"Ġhomep":14245,"Ġscrutin":14246,"ictures":14247,"Ġbroth":14248,"Ġbroken":14249,"Ġsurround":14250,"Ġcontain":14251,"Ġpeas":14252,"ergic":14253,"argo":14254,"Ġinfiltr":14255,"Ġallow":14256,"Ġonomat":14257,"Ġnonc":14258,"Ġnoncom":14259,"Ġcorrec":14260,"Ġundis":14261,"Ġcommer":14262,"Ġcommiss":14263,"Ġcalvin":14264,"Ġretin":14265,"Ġentom":14266,"Ġentir":14267,"Ġentert":14268,"unces":14269,"keke":14270,"Ġobj":14271,"udded":14272,"uddle":14273,"Ġhandw":14274,"ochi":14275,"ochem":14276,"oea":14277,"oeing":14278,"weird":14279,"weather":14280,"Ġelephant":14281,"onny":14282,"Ġturbo":14283,"ientist":14284,"Ġbelong":14285,"Ġmorbid":14286,"ioso":14287,"iosity":14288,"Ġkrisp":14289,"eptors":14290,"Ġbabym":14291,"Ġwrit":14292,"Ġuse":14293,"Ġunsus":14294,"Ġesch":14295,"Ġomm":14296,"Ġhumor":14297,"uths":14298,"Ġharry":14299,"Ġimmid":14300,"Ġtheatr":14301,"Ġmegam":14302,"Ġsimple":14303,"legal":14304,"uctors":14305,"Ġinstitutional":14306,"Ġpalp":14307,"Ġexpend":14308,"oidal":14309,"Ġtrees":14310,"Ġregurg":14311,"Ġconfer":14312,"Ġconfection":14313,"Ġmultipl":14314,"Ġexcit":14315,"knot":14316,"Ġrevol":14317,"askreddit":14318,"Ġfacil":14319,"Ġtimec":14320,"Ġangry":14321,"Ġsilent":14322,"estrian":14323,"lexia":14324,"Ġgamep":14325,"Ġdickhead":14326,"Ġhypert":14327,"otech":14328,"ubba":14329,"Ġicep":14330,"Ġdebilit":14331,"Ġconcord":14332,"iwa":14333,"aaaaaan":14334,"obbed":14335,"Ġmicrod":14336,"Ġmoder":14337,"Ġandrog":14338,"Ġhemmor":14339,"electr":14340,"Ġartific":14341,"Ġdiscol":14342,"Ġdiscour":14343,"Ġdiscontin":14344,"Ġoversimpl":14345,"Ġdiverg":14346,"Ġeyes":14347,"Ġeyed":14348,"uuuus":14349,"Ġpersec":14350,"azza":14351,"forms":14352,"Ġastro":14353,"Ġyeah":14354,"Ġkaren":14355,"Ġlabor":14356,"asmr":14357,"Ġesth":14358,"Ġsociet":14359,"boarded":14360,"Ġembell":14361,"Ġulcer":14362,"internet":14363,"Ġliberal":14364,"Ġneuros":14365,"Ġneurot":14366,"liament":14367,"roduct":14368,"Ġteleport":14369,"Ġjeopard":14370,"Ġequival":14371,"rophy":14372,"Ġarchae":14373,"Ġcyan":14374,"udged":14375,"urbation":14376,"Ġaquant":14377,"iiiin":14378,"icula":14379,"Ġyoud":14380,"urgy":14381,"Ġlifes":14382,"Ġrespir":14383,"uela":14384,"Ġderiv":14385,"Ġhousec":14386,"Ġhousew":14387,"Ġconvey":14388,"Ġconvien":14389,"Ġarmag":14390,"ggghhhh":14391,"Ġdigest":14392,"Ġterra":14393,"Ġingr":14394,"info":14395,"Ġstealth":14396,"Ġcontrap":14397,"Ġcontribut":14398,"tfo":14399,"Ġtsuk":14400,"Ġshrie":14401,"cccccc":14402,"rology":14403,"Ġazt":14404,"Ġoccult":14405,"Ġbeds":14406,"Ġpredict":14407,"Ġoxygen":14408,"zyk":14409,"itorial":14410,"Ġgnar":14411,"holm":14412,"jeff":14413,"Ġcannab":14414,"exuality":14415,"Ġtarant":14416,"Ġconstantin":14417,"missions":14418,"Ġdispers":14419,"Ġoccl":14420,"Ġnarrow":14421,"Ġadvant":14422,"Ġboyc":14423,"rocket":14424,"Ġrapid":14425,"abyte":14426,"Ġreeaa":14427,"Ġcorrupt":14428,"Ġunlik":14429,"rossing":14430,"Ġaaaaaaaaaaaaaa":14431,"xxxxx":14432,"views":14433,"Ġbucket":14434,"Ġdoucheb":14435,"Ġcocon":14436,"Ġpenns":14437,"Ġsulf":14438,"Ġpacif":14439,"Ġsleaz":14440,"Ġbefor":14441,"Ġtelesc":14442,"Ġcatheter":14443,"Ġschwart":14444,"Ġdodg":14445,"Ġtaxid":14446,"Ġreconc":14447,"Ġreconstr":14448,"Ġluft":14449,"ifully":14450,"Ġtradition":14451,"Ġhydrox":14452,"loving":14453,"Ġlapar":14454,"Ġunconc":14455,"Ġdehydr":14456,"Ġneighbour":14457,"Ġelectric":14458,"Ġcurrent":14459,"Ġtravel":14460,"Ġneckbeard":14461,"Ġattract":14462,"Ġsudden":14463,"desk":14464,"itchh":14465,"prolylleucyl":14466,"criptions":14467,"Ġdepressur":14468,"Ġamazing":14469,"Ġirrelev":14470,"ointment":14471,"Ġcrazy":14472,"checked":14473,"omnia":14474,"Ġsouls":14475,"icidal":14476,"Ġlicens":14477,"Ġluxur":14478,"ifiably":14479,"Ġregret":14480,"minded":14481,"Ġatlant":14482,"groups":14483,"Ġfederal":14484,"Ġaustral":14485,"Ġexplainlikeim":14486,"Ġadventur":14487,"Ġsacrific":14488,"osophy":14489,"isthis":14490,"Ġmechanical":14491,"Ġmildly":14492,"Ġidiots":14493,"Ġdestruct":14494,"roscop":14495,"Ġstereotyp":14496,"Ġintimid":14497,"Ġshapesh":14498,"ropping":14499,"Ġacadem":14500,"Ġphotosynthes":14501,"Ġmyname":14502,"Ġtoilet":14503,"opotam":14504,"facebook":14505,"Ġaerosol":14506,"Ġagnost":14507,"Ġexhibition":14508,"specific":14509,"Ġaaaaaaaaaaaaaaaaaaaaaaaaaaaaaaaaaaaaaaaaaaaaaaaa":14510,"Ġtimetrav":14511,"Ġenlarg":14512,"itgoes":14513,"Ġendeav":14514,"Ġpessim":14515,"Ġovercompens":14516,"bos":14517,"bst":14518,"bak":14519,"beg":14520,"banger":14521,"baked":14522,"bottom":14523,"cee":14524,"cow":14525,"cip":14526,"cord":14527,"cale":14528,"cums":14529,"codes":14530,"clean":14531,"course":14532,"duck":14533,"def":14534,"deep":14535,"doing":14536,"eid":14537,"eous":14538,"fun":14539,"fie":14540,"fying":14541,"flys":14542,"filling":14543,"fusc":14544,"family":14545,"gor":14546,"gore":14547,"grow":14548,"hl":14549,"have":14550,"iab":14551,"iants":14552,"jed":14553,"jaro":14554,"kys":14555,"kong":14556,"lum":14557,"loss":14558,"lake":14559,"lots":14560,"mx":14561,"mell":14562,"mint":14563,"monkey":14564,"nan":14565,"nat":14566,"naps":14567,"nights":14568,"pect":14569,"pits":14570,"plex":14571,"paint":14572,"pipes":14573,"powers":14574,"qf":14575,"rab":14576,"rons":14577,"rgr":14578,"root":14579,"rgh":14580,"runners":14581,"tit":14582,"tard":14583,"table":14584,"uah":14585,"uya":14586,"vf":14587,"vian":14588,"veg":14589,"voy":14590,"vious":14591,"went":14592,"wads":14593,"wigs":14594,"xi":14595,"zx":14596,"zoo":14597,"zep":14598,"Ġyyyy":14599,"Ġust":14600,"Ġio":14601,"Ġise":14602,"Ġile":14603,"Ġily":14604,"Ġeeeeeeeeeeeeeeeeeeeeeeeeeeeeeeee":14605,"Ġoob":14606,"eroo":14607,"erage":14608,"inic":14609,"inly":14610,"inism":14611,"inence":14612,"Ġsos":14613,"Ġseeee":14614,"Ġsll":14615,"Ġsash":14616,"Ġsoth":14617,"Ġsiss":14618,"Ġsaph":14619,"Ġsung":14620,"Ġsars":14621,"Ġsaff":14622,"Ġsarg":14623,"Ġsimm":14624,"Ġsyst":14625,"Ġsave":14626,"Ġseld":14627,"Ġsister":14628,"anit":14629,"anah":14630,"anical":14631,"anova":14632,"onag":14633,"onism":14634,"onents":14635,"Ġcb":14636,"Ġcx":14637,"Ġcis":14638,"Ġcud":14639,"Ġcaz":14640,"Ġcact":14641,"Ġcau":14642,"Ġcana":14643,"Ġcather":14644,"Ġcancer":14645,"enor":14646,"enation":14647,"atee":14648,"atul":14649,"arous":14650,"arge":14651,"aroon":14652,"arina":14653,"eell":14654,"ooing":14655,"edict":14656,"alted":14657,"alier":14658,"Ġpie":14659,"Ġpell":14660,"Ġpmm":14661,"Ġpian":14662,"Ġpitt":14663,"Ġpint":14664,"Ġpile":14665,"Ġpung":14666,"Ġpuh":14667,"Ġpumm":14668,"Ġpesc":14669,"Ġpose":14670,"Ġpais":14671,"Ġpils":14672,"Ġpiled":14673,"Ġbion":14674,"Ġbly":14675,"Ġbaaaaaaaa":14676,"Ġbav":14677,"Ġboooooooo":14678,"Ġbons":14679,"Ġbind":14680,"Ġbism":14681,"Ġbost":14682,"Ġbats":14683,"Ġbair":14684,"Ġbeee":14685,"Ġbedd":14686,"Ġboor":14687,"Ġboof":14688,"Ġbones":14689,"Ġbiiiiii":14690,"Ġbows":14691,"Ġmym":14692,"Ġmai":14693,"Ġmalk":14694,"Ġmoooooo":14695,"Ġmaps":14696,"Ġmuns":14697,"Ġmuz":14698,"Ġmastic":14699,"Ġmove":14700,"ingen":14701,"isg":14702,"orrect":14703,"Ġdk":14704,"Ġdion":14705,"Ġdiiii":14706,"Ġdap":14707,"Ġdey":14708,"Ġdass":14709,"Ġddd":14710,"Ġdors":14711,"Ġdads":14712,"Ġdiph":14713,"Ġdumbled":14714,"Ġtud":14715,"Ġteb":14716,"Ġtsh":14717,"Ġtout":14718,"Ġtire":14719,"Ġtook":14720,"Ġtern":14721,"Ġtuch":14722,"Ġtogg":14723,"itit":14724,"itans":14725,"itize":14726,"itiously":14727,"icorn":14728,"Ġrb":14729,"Ġral":14730,"Ġrrrrr":14731,"Ġripp":14732,"Ġreef":14733,"Ġruin":14734,"lek":14735,"leading":14736,"Ġfc":14737,"Ġfx":14738,"Ġfic":14739,"Ġfeeee":14740,"Ġfent":14741,"Ġfock":14742,"Ġflet":14743,"Ġfalk":14744,"Ġfarn":14745,"Ġferd":14746,"Ġfoof":14747,"Ġfux":14748,"Ġfelt":14749,"Ġfiction":14750,"Ġfingers":14751,"Ġfabr":14752,"Ġfellow":14753,"Ġfunny":14754,"Ġfidel":14755,"Ġhn":14756,"Ġhut":14757,"Ġhec":14758,"Ġheh":14759,"Ġhoth":14760,"Ġhym":14761,"Ġhunt":14762,"Ġhigg":14763,"Ġhoor":14764,"Ġhoch":14765,"Ġhooo":14766,"Ġhills":14767,"Ġhinder":14768,"Ġhicc":14769,"Ġhurd":14770,"Ġhahahahh":14771,"Ġhendr":14772,"unities":14773,"elated":14774,"elands":14775,"Ġgok":14776,"Ġgev":14777,"Ġgamm":14778,"Ġgenn":14779,"Ġgrrr":14780,"Ġgiant":14781,"aaaahhh":14782,"acist":14783,"Ġwi":14784,"Ġwac":14785,"Ġwip":14786,"Ġwyl":14787,"Ġwine":14788,"Ġwyn":14789,"Ġwoh":14790,"Ġwire":14791,"Ġwied":14792,"Ġwuss":14793,"ilm":14794,"ilig":14795,"iland":14796,"ilver":14797,"ilence":14798,"urant":14799,"urian":14800,"urting":14801,"urpr":14802,"urse":14803,"amis":14804,"amist":14805,"amax":14806,"amide":14807,"amole":14808,"amoto":14809,"amphet":14810,"etive":14811,"hht":14812,"adh":14813,"Ġlb":14814,"Ġlia":14815,"Ġlank":14816,"Ġlisc":14817,"Ġloz":14818,"Ġlocks":14819,"Ġlament":14820,"Ġlighth":14821,"chol":14822,"Ġned":14823,"Ġnid":14824,"Ġnay":14825,"Ġnuc":14826,"Ġnine":14827,"Ġnok":14828,"Ġnett":14829,"Ġnats":14830,"Ġnye":14831,"Ġniq":14832,"Ġnimb":14833,"omot":14834,"omia":14835,"ionally":14836,"abre":14837,"abla":14838,"iiiiing":14839,"iiiiit":14840,"osomes":14841,"oslav":14842,"Ġeil":14843,"Ġeust":14844,"Ġeyr":14845,"Ġeject":14846,"Ġkis":14847,"Ġkier":14848,"Ġkaj":14849,"Ġkonn":14850,
[...]
